#version: 0.2
Ġ a
i n
in g
Ġ w
Ġ s
t h
Ġ o
a n
Ġ b
r e
Ġ in
e r
Ġ p
Ġ c
Ġ m
h i
Ġ th
l e
Ġ t
r o
Ġth e
a r
n d
Ġ g
i s
Ġ d
Ġo n
Ġ f
l a
Ġ h
a l
Ġa nd
e n
Ġ is
i t
a t
Ġm an
Ġo f
c k
o m
Ġs t
Ġw i
Ġwi th
l o
l d
o r
u n
e s
i r
Ġd o
Ġt o
o n
Ġw hi
i d
an d
Ġw om
e t
e ar
Ġb o
r a
c h
e d
ro u
Ġ ,
k ing
w o
Ġa re
Ġwom an
o p
s s
Ġ y
Ġp la
r t
t e
Ġa t
o un
Ġ re
al l
Ġ l
t wo
Ġdo g
it t
hi rt
Ġpla y
Ġ hi
u t
Ġw ear
g e
er s
i c
e op
eop le
Ġwear ing
Ġ r
Ġa n
Ġst and
Ġs hirt
w n
Ġ j
oun g
Ġbo y
s t
e l
Ġwhi te
ir l
Ġ n
id e
Ġg irl
e a
Ġy oung
Ġb a
la ck
Ġp eople
u e
o o
Ġb lack
Ġ lo
g h
Ġb l
u m
Ġh o
Ġw at
u r
Ġs h
Ġf ro
Ġbl ue
hi ld
Ġwhi le
Ġo ut
Ġc o
th er
ld ing
Ġhi s
itt ing
Ġc hild
t s
Ġre d
Ġs itting
Ġw al
Ġ ro
v er
Ġstand ing
Ġplay ing
i l
u s
c e
rou nd
u p
Ġlo o
th e
r i
Ġm en
a m
Ġ e
Ġs m
a d
n t
Ġ la
re e
Ġg ra
Ġb e
rou p
lo w
Ġfro nt
ar d
Ġwat er
c t
Ġg roup
Ġ k
i m
om e
Ġdo wn
Ġh er
Ġr un
Ġho lding
v e
k s
Ġst re
Ġw or
Ġh a
Ġa s
um p
Ġt a
s e
i on
o w
Ġp a
Ġc h
t o
i e
Ġstre et
Ġwal king
s ide
itt le
en t
u l
Ġs w
Ġb ro
Ġj ump
Ġp o
k e
re ss
Ġ up
Ġg re
Ġl ittle
oo d
Ġs ome
Ġba ck
Ġc ar
Ġbro wn
it s
y ing
re n
Ġb y
ea ch
Ġf or
b o
t ing
Ġgre en
on e
ar k
Ġd ress
Ġn e
Ġb u
a ck
Ġm a
re d
Ġo r
Ġh at
Ġ le
rou gh
in d
Ġon e
b le
Ġy el
n ing
Ġth rough
ar ge
Ġm o
a y
Ġyel low
Ġt ra
Ġ ra
Ġl arge
Ġloo king
u it
th ree
Ġ v
Ġout side
Ġo ver
ers on
gh t
Ġgra ss
Ġc ro
Ġchild ren
a in
Ġrun ning
Ġsm all
Ġt wo
Ġc on
m an
Ġb all
Ġs p
Ġp erson
a ir
i f
Ġwom en
i g
Ġh and
la ss
in k
Ġs ide
Ġfro m
Ġr id
Ġs n
r u
Ġin to
l l
n g
Ġn ear
an ge
x t
or m
u re
Ġwat ch
l y
Ġo ther
b all
Ġne xt
Ġj ack
le s
e e
Ġs k
th ing
Ġb each
Ġor ange
Ġc a
Ġthe ir
Ġjack et
Ġbu i
Ġwor k
v ing
o ther
i an
Ġjump ing
Ġsn ow
Ġan other
ld er
Ġbui lding
h o
Ġf ie
Ġw a
Ġc l
Ġdog s
Ġro ck
Ġs o
i ght
oun t
g round
w d
Ġf a
Ġta ble
Ġstand s
e m
Ġa round
Ġfie ld
o re
p p
Ġc am
Ġcro wd
d y
i ck
lass es
ea d
p h
al k
an s
Ġp ink
Ġdress ed
y c
Ġsh or
Ġs its
p eople
Ġb i
Ġs c
u nd
Ġof f
Ġd r
Ġw ood
Ġc lo
b y
Ġb lo
in e
Ġto p
h ind
c er
Ġbe hind
l ing
ct ion
Ġgirl s
Ġg o
e at
d o
Ġwor king
Ġrid ing
oo l
il ing
Ġp ic
t ure
r ying
Ġs un
er a
im b
w alk
p ing
oo t
a ge
Ġloo ks
Ġp ark
Ġcl imb
Ġt al
Ġ '
Ġw all
w ay
Ġa ir
Ġh ead
Ġth at
ount ain
Ġs and
Ġback ground
Ġcam era
at ing
Ġshor ts
p s
Ġgra y
Ġg uit
Ġp er
es t
a s
o ur
is t
Ġho ld
Ġside walk
f orm
Ġboy s
p e
Ġsw im
at e
Ġguit ar
Ġj e
Ġha ir
u b
Ġ un
Ġpic ture
Ġ it
v es
Ġtal king
Ġre ad
bo ard
an ts
is h
it y
Ġsh o
Ġsome thing
Ġblo nd
Ġs it
Ġhi m
Ġa lo
st ru
ir t
Ġha s
Ġso c
q u
Ġplay s
Ġg u
Ġb us
u d
s hirt
Ġa r
f f
Ġsm iling
do or
stru ction
u th
Ġsoc cer
Ġba by
i re
Ġwal ks
Ġh el
am e
ic e
t er
yc le
Ġhold s
Ġ und
Ġb r
le e
c ing
Ġc om
Ġf lo
Ġwal k
Ġb en
Ġto ge
ver al
Ġper form
o l
Ġund er
Ġp ar
Ġg lasses
Ġjump s
Ġje ans
Ġs ur
Ġp ool
at ch
Ġto y
an t
Ġalo ng
Ġp ants
Ġtoge ther
Ġch air
Ġp re
Ġco lo
Ġo lder
Ġf oot
k es
Ġf ood
i ve
h a
m p
Ġt an
p ed
Ġb ri
at ion
Ġas ian
Ġben ch
Ġa d
Ġmo uth
g s
Ġw h
Ġc ity
Ġa c
w ard
d le
Ġrun s
g g
Ġthe m
Ġst ri
Ġbo o
Ġgu y
Ġd ark
Ġla dy
ph one
Ġbi ke
Ġm ountain
Ġplay er
Ġk id
Ġro ad
f our
le d
Ġout door
Ġsw ing
Ġh e
Ġbo at
Ġt ree
Ġt en
Ġm id
i p
Ġfa ce
Ġ en
Ġb ar
s h
it ing
Ġre st
Ġlo ng
Ġ each
Ġs e
n is
Ġw ind
Ġa bo
Ġg ame
Ġcon struction
Ġhand s
Ġten nis
Ġar m
d d
Ġle a
Ġtra in
Ġs uit
Ġl i
Ġ its
Ġun if
Ġs a
Ġare a
s k
Ġpa in
Ġb ic
a re
Ġunif orm
Ġg et
Ġfoot ball
m ing
Ġco at
ig n
Ġh or
Ġwatch ing
a ch
Ġch e
Ġ us
w om
Ġb al
Ġd irt
p er
en ce
Ġcar rying
Ġg round
Ġclimb ing
Ġbe ing
m er
Ġro om
Ġg a
Ġp ro
s ing
Ġsw eat
um b
Ġcom p
Ġ "
Ġta king
Ġwind ow
Ġw ho
Ġs l
Ġe ating
n e
el l
Ġstri ped
i red
Ġp ur
ro ss
u st
Ġt e
t or
Ġb and
m et
Ġto ward
Ġba se
Ġwork ers
Ġd an
r ic
Ġm us
Ġf ish
em a
Ġc atch
y oung
Ġloo k
Ġhel met
Ġs lee
Ġdo ing
Ġs ing
Ġf l
Ġac ross
Ġswim ming
Ġ ve
Ġwood en
Ġo ld
Ġst ick
Ġe x
Ġm ic
se veral
Ġf ema
ea m
ha ired
p en
Ġs ign
it ch
Ġco up
Ġa f
us h
m ent
Ġmic ro
ck s
t t
Ġo ce
Ġdr in
f ul
i es
a g
g lasses
il l
ul l
Ġsk ate
Ġo b
es s
Ġco u
j o
Ġa g
Ġflo or
Ġcoup le
ur ing
w ing
r y
the re
Ġca p
Ġsh op
Ġoce an
Ġo pen
Ġmid dle
Ġst age
Ġp ho
Ġf r
u gh
Ġm ar
Ġcolo r
Ġc an
bo y
Ġbase ball
Ġpho to
Ġs et
e ct
Ġth ree
Ġst ore
Ġa pp
Ġd ay
Ġsun glasses
Ġread ing
Ġt ri
us e
Ġad ul
i v
Ġfema le
Ġa ll
ar ing
Ġmo tor
Ġsm i
Ġp i
Ġmus ic
g ing
Ġd e
st r
Ġwatch es
l er
Ġt re
Ġn o
Ġen jo
wom an
Ġbic ycle
m en
Ġpre p
p le
Ġsh e
Ġskate board
e re
Ġma le
a ur
Ġa rt
an ing
Ġr i
Ġhor se
Ġgrass y
Ġkid s
Ġf ence
Ġd ri
ain st
Ġag ainst
Ġrest aur
Ġp ie
Ġla ugh
Ġk itch
or t
Ġkitch en
Ġla ke
Ġrestaur ant
Ġg r
Ġin side
Ġc le
Ġwa iting
Ġf ore
Ġcro ss
Ġperform ing
Ġth ro
Ġh an
Ġhi ll
Ġpur ple
ru ck
f t
Ġc oo
Ġha ving
le ss
Ġus ing
Ġf low
Ġba g
i x
Ġrid es
Ġhi gh
Ġpa th
i al
w s
Ġv est
Ġpar t
Ġst e
Ġabo ut
Ġmicro phone
c le
Ġt eam
if f
c a
Ġf ire
c o
Ġsur round
Ġf e
en ts
Ġb ig
c es
n er
lder ly
s es
Ġb es
e y
ve red
Ġmotor c
Ġout f
c hild
il y
Ġin str
Ġsh a
Ġclo thing
Ġinstr um
k ers
ut ting
ck et
Ġtre es
Ġsh ow
Ġbes ide
Ġm ark
Ġshirt s
Ġco w
Ġtoward s
Ġbo w
Ġl ight
Ġma king
Ġwork er
Ġt ruck
Ġe lderly
Ġto dd
Ġk ick
Ġhat s
th ers
Ġcolor ful
Ġs eat
ver y
Ġbri ght
Ġclo th
Ġf la
ad e
Ġpie ce
Ġd is
Ġt rying
Ġthe y
Ġget ting
v el
Ġd es
Ġh ard
Ġdrin king
s ome
a k
Ġm et
Ġr ide
Ġpa st
Ġboo k
le y
Ġd uring
Ġpo sing
Ġra ce
t ed
Ġarm s
Ġri ver
d ing
lo o
ri e
p ack
Ġdo or
Ġma ch
Ġfr is
Ġbo dy
Ġla ying
Ġfris b
Ġsweat er
j ect
Ġslee ping
re l
ro n
i o
Ġback pack
Ġro pe
Ġtodd ler
ee p
Ġrock s
Ġb ear
Ġoutdoor s
Ġs ub
le ct
Ġh u
Ġfrisb ee
Ġp ush
Ġco vered
Ġsing ing
Ġe v
Ġbri ck
Ġa m
Ġbus y
Ġsur f
Ġon to
Ġtan k
sk et
e el
Ġt r
Ġba sket
y s
an ce
Ġplay ers
al s
p la
w e
Ġco st
Ġpa ss
Ġsurround ed
Ġsmi les
v ers
an k
Ġc ell
Ġbo ard
Ġbr id
Ġmark et
Ġo thers
Ġat t
Ġ very
Ġl ine
Ġlaugh ing
n y
Ġin d
Ġst one
Ġho use
Ġm e
Ġpo l
Ġmet al
st ic
em ent
Ġb re
Ġst air
Ġtra ck
Ġn ight
Ġcost um
Ġc or
nd s
Ġpa per
child ren
ic an
Ġoutf it
Ġc re
ro om
Ġf ountain
Ġj o
th is
Ġb ea
Ġcar t
f ive
ir d
Ġenjo ying
Ġbear d
Ġ umb
Ġcolo red
d e
Ġb ed
Ġhan ging
Ġumb rel
Ġbo tt
Ġa l
Ġe y
i ving
es ts
Ġumbrel la
ch ing
Ġl if
Ġro ll
Ġcou ch
g ra
Ġpo le
Ġwh eel
Ġaf ter
Ġcell phone
ear s
Ġsub way
c on
the red
am ily
Ġse veral
Ġcoo king
i z
in es
Ġsho es
h one
Ġa way
Ġra il
Ġmotorc ycle
k er
Ġchair s
Ġpain ting
Ġsl ide
Ġve hi
b e
Ġabo ve
o f
v ed
Ġp l
Ġp ul
Ġt ur
Ġta kes
Ġle aning
Ġp ra
Ġc ount
Ġa p
Ġch as
Ġpo in
Ġev ent
b ble
Ġbo x
Ġk n
Ġsk i
Ġcomp ut
Ġcow boy
Ġa mer
Ġman y
c re
Ġs qu
et y
Ġat te
Ġli ke
Ġcloth es
Ġdr um
Ġfish ing
Ġc ra
Ġd ra
Ġf amily
Ġpla stic
Ġsnow y
Ġdan cing
a ble
Ġf o
Ġguy s
Ġshop ping
h air
Ġe qu
Ġv ests
Ġuniform s
Ġ ice
Ġsm o
Ġte en
c or
i um
w or
Ġwh at
Ġga thered
ric an
Ġadul ts
n a
Ġb et
Ġf rie
Ġlo t
Ġla p
l ic
on g
Ġsh ore
Ġdr ink
Ġread y
Ġv ie
it ion
Ġcrowd ed
Ġshor t
Ġmach ine
Ġbrid ge
Ġk ne
gra ph
Ġ ed
Ġw r
Ġshirt less
ul t
Ġcon t
Ġsk irt
f e
s c
u ff
Ġf our
Ġcon cre
Ġconcre te
Ġt all
Ġbo th
Ġr ight
Ġprep aring
we en
l ittle
Ġcon vers
Ġamer ican
Ġbet ween
at s
on s
Ġplay ground
Ġsp ea
Ġadul t
Ġste ps
Ġequ ip
Ġh ome
Ġg lass
on es
man y
gg ing
Ġaf rican
s el
ar f
ct or
Ġga ther
Ġflow ers
r ing
Ġgo ld
Ġsho u
Ġphoto graph
Ġst ru
Ġhi t
Ġob ject
Ġequip ment
la sh
Ġn umb
Ġed ge
Ġp ub
Ġf il
ct ure
Ġtra il
Ġgo ing
Ġsa f
Ġw et
Ġh ood
Ġbe er
Ġrock y
n ed
at ed
un ch
Ġy ard
Ġpra ct
Ġsaf ety
g irl
id s
Ġsp lash
Ġseat ed
Ġc ur
Ġan im
Ġro of
Ġsk y
Ġwood s
Ġfore st
Ġvie w
Ġpub lic
b er
k in
Ġp ad
Ġp hone
Ġbu cket
Ġclimb s
Ġvehi cle
Ġj ers
pp ing
are s
Ġdis pla
Ġs u
nd ing
Ġf ull
Ġgr ill
Ġinstrum ents
Ġb low
Ġst ra
im e
Ġche ck
p a
y m
Ġwhi ch
Ġha ve
Ġpush ing
at t
Ġcou rt
Ġjers ey
Ġw e
Ġs il
or s
Ġra in
ro ll
Ġba thing
pp ed
is ts
Ġbl ank
b r
en ing
Ġst at
Ġk is
Ġv ol
Ġcl iff
Ġap ron
an e
er y
Ġc up
Ġre f
st er
yc l
Ġset ting
i gh
Ġc lass
ch ool
Ġthro wing
Ġw ed
Ġp at
el ling
Ġnear by
Ġsun ny
Ġmountain s
Ġin f
Ġg ar
up p
Ġwor ks
Ġpo se
Ġapp ears
Ġcostum e
Ġp ick
Ġle ft
Ġsho vel
Ġstru cture
Ġb ut
Ġswim s
Ġbal lo
Ġsweat shirt
Ġpol ice
Ġatte mp
le t
Ġba gs
Ġsome one
Ġc utting
Ġre ach
Ġla dd
io us
Ġkne el
s et
t op
Ġp utting
Ġg lo
Ġd ist
Ġst op
ut if
ri es
Ġmar t
Ġpart y
Ġbasket ball
Ġstair s
Ġcomput er
Ġwed ding
utif ul
in s
Ġb ird
Ġc ig
Ġg ear
Ġf un
Ġn a
Ġla wn
Ġcig are
m o
Ġblank et
Ġvol ley
Ġw in
Ġs ee
ar t
ent le
Ġbu bble
gg les
Ġswing ing
Ġs ea
Ġl ist
Ġco ll
Ġfor m
yc les
Ġcomp et
Ġcle aning
Ġey es
Ġc ement
Ġg ym
Ġst ud
Ġe lect
t te
Ġst roll
ch es
all y
Ġpo ses
Ġover loo
Ġdri ving
Ġnumb er
o ut
Ġa ud
at es
Ġmart ial
Ġs chool
Ġche er
ag ed
Ġbea utiful
Ġpul ling
b or
in ing
Ġm on
ar m
Ġmo ther
u g
Ġtr un
Ġvolley ball
Ġt i
Ġg entle
it e
ad ing
Ġtri ck
ent er
Ġma kes
Ġra is
Ġsc arf
Ġpre s
v y
Ġpla t
n ic
Ġinstrum ent
Ġfrie nds
Ġladd er
Ġcigare tte
Ġb an
Ġdo ck
Ġbr ide
iv al
Ġbow l
Ġkick ing
Ġfla g
Ġs elling
ar y
at er
Ġst ation
Ġfa cing
Ġoff ic
Ġsl id
Ġba re
Ġha pp
Ġne w
Ġsp or
Ġca ke
con struction
f oot
w el
al low
Ġco l
Ġe mp
Ġbi kes
wom en
g roup
t y
z z
Ġta ke
Ġma ke
as h
Ġpain t
Ġam ong
Ġdispla y
Ġin t
Ġl ying
Ġma sk
Ġsc a
Ġpicture s
Ġm ud
Ġco ff
Ġpract ic
Ġcoff ee
Ġd ig
Ġk ay
Ġtra cks
ph ones
Ġgo ggles
Ġart s
Ġfe et
c ed
d ies
h ead
i ence
Ġ ear
Ġm atch
Ġre la
Ġne ws
Ġsand y
Ġboo ts
g er
g et
y ard
Ġs er
Ġc hi
Ġc ut
Ġf ix
Ġra cing
Ġsit e
Ġlea ves
Ġcount er
Ġp ut
es e
Ġdo es
ch ed
Ġpla id
Ġbre ak
Ġdist ance
Ġwin ter
c u
Ġre p
Ġj ust
Ġsc re
Ġcan o
Ġsmi le
Ġpi le
Ġbow ling
Ġsmo king
Ġcoll ar
Ġoverloo king
in ess
ing s
Ġsc en
do g
Ġpark ed
Ġit em
Ġdan ce
Ġdrin ks
Ġcor ner
ic al
Ġjacket s
Ġsun set
as ian
Ġwh ere
Ġfe w
Ġstat ue
c l
Ġn et
Ġshow ing
Ġcre am
Ġlif e
Ġ im
in ed
Ġb ur
ro ad
Ġg iving
Ġl and
Ġla dies
Ġbi kin
Ġchas ing
Ġsu its
Ġelect ric
a il
v en
Ġ qu
Ġt y
Ġthe re
Ġyoung er
Ġro de
Ġne ck
Ġbus iness
Ġlea ps
Ġanim al
Ġt ent
Ġto ng
Ġca st
Ġread s
iv id
Ġwr iting
Ġpo t
Ġpar king
Ġpain ted
Ġpoin ting
att oo
e red
i ke
p erson
Ġt alk
Ġh ar
Ġle gs
Ġtra mp
Ġv ar
Ġsp ra
Ġrode o
Ġ 2
Ġm ult
Ġst aring
Ġgra ff
ul p
Ġsc ulp
n s
Ġs hi
Ġp upp
Ġc la
Ġt ie
Ġt attoo
it i
Ġho t
Ġsp o
Ġfl ip
Ġprep ares
some one
Ġme al
Ġnews pa
Ġtramp ol
o u
s lee
u gg
Ġc and
Ġf all
Ġstre am
Ġle ash
Ġra mp
Ġv i
Ġtal ks
Ġcross ing
Ġaud ience
Ġgentle man
Ġpractic ing
Ġrela x
Ġcano e
i ves
n el
Ġb at
Ġc ir
et te
Ġra iling
Ġwa it
Ġglo ves
Ġtrun ks
b lack
m e
o us
re st
Ġperform s
Ġconvers ation
Ġfil led
o s
u ght
Ġh am
lo red
Ġba th
Ġle d
Ġcon cer
Ġclo se
Ġgraff iti
Ġtrampol ine
Ġg ard
Ġhi king
Ġcar ries
Ġv ide
Ġpic nic
Ġroll er
Ġrail road
ivid u
ar ate
Ġg ro
Ġsh allow
Ġwood ed
Ġbal an
Ġex am
ere nt
d u
i a
o d
p es
Ġd ire
Ġd iff
Ġh ea
Ġbott le
Ġvide o
b a
c ts
p ort
Ġw ea
Ġo pp
Ġcar s
Ġrid er
Ġbar be
Ġshou lder
Ġdiff erent
b s
Ġm ir
Ġd in
Ġf ing
Ġf ol
ct ing
Ġle ans
Ġde cor
Ġkneel ing
Ġc ard
Ġt ub
at ors
Ġwear s
Ġch ain
Ġtable s
Ġind ividu
Ġbikin i
s m
s o
op e
Ġsand als
ca se
Ġlap top
Ġstra w
Ġlist ening
Ġconcer t
Ġmir ro
n ess
Ġw ra
en s
Ġpla te
ea th
Ġbe i
Ġdress es
Ġbuilding s
Ġwa ves
Ġve get
Ġind ian
Ġdrum s
Ġbubble s
Ġspor ts
l f
Ġb unch
Ġm eat
Ġt ime
ar s
is e
Ġst uff
Ġle g
Ġsc oot
Ġgo lf
Ġpi er
Ġsil ver
Ġplat form
a ce
Ġon loo
Ġtra sh
Ġwa sh
Ġve nd
Ġspea king
Ġpad d
Ġpres ent
b an
r in
Ġp ull
Ġc r
Ġt ire
ck ing
Ġto u
on y
ff o
Ġen g
Ġbare foot
b b
d er
g a
Ġw ay
Ġs on
Ġs ame
Ġst o
Ġsh ad
Ġwa ve
Ġtri es
Ġdes k
Ġemp ty
Ġsca ffo
Ġrep air
Ġmirro r
f ore
k ids
p ers
s ed
y ho
Ġt un
Ġre t
Ġk arate
Ġpro ject
Ġfr uit
Ġtong ue
Ġled ge
w hi
Ġin door
Ġd a
Ġmid air
Ġcatch ing
Ġcont ain
Ġvi ol
Ġgard en
Ġveget able
yho und
k i
Ġs ay
Ġb ull
Ġp e
le ad
Ġf ur
Ġl it
Ġpo st
Ġsp ect
Ġrest ing
Ġmusic al
Ġmusic ian
g u
s er
s ix
Ġb ra
er man
Ġst ring
ur se
Ġbe fore
Ġch ur
Ġswing s
Ġhe ld
Ġballo on
Ġstroll er
u te
Ġw ine
er t
Ġto ol
Ġwat ers
Ġv is
iz ed
Ġgather ing
Ġkis sing
Ġref lect
ycl ist
Ġnewspa per
Ġonloo kers
Ġd iving
la t
Ġe le
Ġgo al
ud dle
Ġhelmet s
Ġfl ying
Ġgar b
m b
st a
Ġco ver
ver t
Ġma les
Ġpar ade
Ġblow ing
Ġbei ge
Ġc rou
Ġth is
le n
ld ers
Ġas lee
Ġch o
Ġra cket
Ġhel ping
Ġtoy s
Ġslid ing
Ġty pe
Ġvend or
Ġchur ch
Ġaslee p
k en
Ġs ort
re ad
Ġt u
Ġf est
un g
Ġpla ce
el y
Ġho le
Ġup side
Ġboo th
Ġlea ping
Ġpro du
Ġob sta
Ġopen ing
Ġno t
Ġal ley
Ġteen ag
wor kers
igh ting
f or
Ġs us
Ġc e
Ġg room
Ġf ight
all s
Ġlo g
il ling
ach ed
Ġus es
Ġfore ground
Ġattemp ting
Ġscre en
Ġstuff ed
a st
Ġo per
Ġp an
Ġf ighting
Ġst ad
un ette
Ġto ur
ch air
Ġr ing
el f
Ġca fe
Ġdr y
Ġche f
Ġenjo y
Ġsplash ing
Ġfix ing
Ġscen e
c y
m a
w a
Ġc at
Ġf al
Ġro w
Ġwater f
Ġta ck
Ġsw ee
Ġfa ther
Ġfa ces
Ġhead phones
Ġget s
Ġbal d
Ġdes ert
Ġdoor way
Ġitem s
Ġbarbe c
Ġfol low
Ġtun nel
Ġsay s
b and
w h
Ġb el
Ġb eam
Ġd eep
Ġbe low
Ġcom ing
Ġboo ks
Ġwindow s
Ġfla gs
Ġhapp y
Ġviol in
Ġspect ators
p an
t ion
Ġf en
Ġbo un
Ġco urse
Ġe at
Ġgre yhound
Ġbr an
Ġob ser
Ġatt ire
Ġsculp ture
Ġbarbec ue
g rou
t ail
Ġc rying
Ġm em
Ġg ood
Ġla ys
Ġca s
Ġhor ses
Ġflow er
Ġtr ans
Ġhar ness
sm all
Ġscoot er
l st
Ġin cl
Ġm ed
Ġt ro
Ġwhi lst
Ġsp r
Ġwa its
Ġbic ycles
Ġsing s
ag es
Ġcount ry
Ġdig ging
Ġkay ak
lead ers
Ġstad ium
m s
t on
Ġm ade
Ġg un
la ge
Ġst r
or d
Ġe ats
ke y
Ġblo ck
Ġalo ne
Ġunder w
Ġgold en
Ġhea vy
Ġdin ner
s pe
Ġp ea
Ġc al
Ġto wel
Ġl ined
ve ment
Ġsnow board
ff ic
Ġslee ps
Ġstick s
Ġde v
Ġno se
Ġcle ar
Ġcoo k
cor d
Ġfal len
Ġ enter
Ġs led
Ġf air
op s
el s
Ġn at
ur al
Ġbr ush
Ġbr unette
Ġwalk way
Ġli ving
Ġbright ly
Ġhu ge
Ġatt ached
Ġinf lat
Ġoffic er
Ġgro cer
Ġspr ink
i le
l ers
u ck
u zz
Ġm ix
ic o
ic ip
Ġe nd
Ġk ind
Ġback yard
Ġbus h
Ġpur se
Ġde ck
Ġskateboard er
Ġbott om
Ġteen age
Ġvar ious
Ġrelax ing
Ġobsta cle
r al
s ca
Ġ ;
Ġ z
Ġt ee
ro w
Ġg ives
Ġd em
Ġv an
Ġlea ther
Ġcoat s
ust om
ful ly
Ġhu gging
Ġjo gging
Ġbeard ed
Ġchas es
c lo
g on
Ġ i
Ġt er
ld i
Ġlo c
Ġstre t
Ġpo nd
Ġcar p
Ġclimb er
Ġpro te
Ġex p
Ġteam s
Ġshow s
Ġshou lders
Ġmult ico
Ġpupp y
Ġshad ow
g ers
l s
Ġ ea
Ġw ell
Ġw rest
Ġp en
Ġp ig
Ġp rin
Ġt each
Ġd en
at ting
Ġwi de
Ġpa vement
Ġdirt y
Ġoutf its
Ġcostum es
Ġdra wing
Ġgym na
Ġvegetable s
Ġfest ival
Ġsus pe
Ġinflat able
Ġ 3
ck ey
id es
Ġan ge
ur ban
ct ive
Ġch est
ent ly
Ġsw ord
Ġsp e
ian t
Ġhim sel
Ġad vert
Ġse en
Ġband an
ycl ists
Ġpick ing
Ġreach ing
Ġincl ud
Ġhimsel f
l ine
s p
Ġp uddle
Ġst ar
or ch
Ġat op
Ġmo ving
Ġtra ffic
Ġwa ving
Ġoff ice
est ri
Ġli gh
Ġthro w
Ġpass ing
Ġtur n
wor k
Ġcompet ition
Ġstud ents
Ġput s
Ġcir cle
whi te
j am
Ġa ss
in ned
Ġp ed
Ġf ive
Ġh al
Ġh all
et s
Ġk ha
Ġpa jam
Ġbal con
Ġte le
Ġcatch es
Ġpart icip
Ġpoin ts
sc ope
Ġclass room
cu ss
Ġwra pped
Ġscaffo lding
Ġden im
Ġsuspe nd
Ġbandan na
n eath
w er
an g
Ġg iant
at or
Ġj a
Ġho se
Ġsh eep
ent al
Ġover alls
Ġje an
Ġgu ard
Ġunder neath
ward s
Ġart ist
Ġlaugh s
Ġkick s
Ġhood ed
Ġballo ons
Ġdire ction
Ġreflect ive
Ġadvert is
d ition
f a
g o
o t
Ġ 1
Ġa th
Ġm ust
Ġf ig
Ġy o
Ġbe ver
Ġpa ck
Ġcar n
Ġra c
Ġbi ker
Ġsign s
Ġey e
ines e
Ġwe lding
Ġmud dy
Ġbalan cing
Ġwaterf all
Ġmultico lored
a king
b lo
s uit
in ery
Ġm il
Ġha y
Ġpo uring
Ġtra ctor
Ġtra dition
Ġball s
Ġcam ou
Ġperform er
Ġstick ing
Ġskateboard ing
Ġcle an
Ġcur ly
slee ved
Ġswee ping
Ġbalcon y
Ġcarn ival
Ġcamou f
b ro
i ed
i ble
t ain
re s
Ġm at
Ġth ird
Ġr ub
Ġper for
Ġboat s
Ġcan e
Ġsurf board
Ġswims uit
Ġcast le
Ġspra y
Ġdecor ated
Ġindividu als
c les
d ay
l ight
o ld
q ue
in ish
Ġm om
Ġm ess
ar row
Ġst eep
Ġto o
ed s
st re
Ġho w
Ġpo les
Ġback grou
Ġgo es
Ġsho e
ess ion
Ġmach inery
Ġpush es
Ġfrie nd
Ġphotograph er
Ġhit ting
Ġhood ie
Ġinf ant
Ġham mer
Ġgarb age
Ġtradition al
Ġperfor man
g re
r ist
v is
Ġs um
Ġc enter
Ġf ra
Ġhi ker
st and
Ġk ey
Ġv a
Ġbar s
Ġapp ro
Ġsha ving
Ġdis cuss
Ġbre ad
Ġret rie
Ġpajam as
blo nd
Ġkey board
i ps
o lder
u al
th ese
Ġp ump
Ġp itch
le ction
it ary
ri er
ri ed
Ġpa ir
gg y
Ġdan ces
Ġmar ching
Ġenjo ys
Ġdri ves
Ġhan gs
ak ed
Ġhu la
Ġpl ants
uff y
Ġfen ced
Ġgrocer y
Ġcamouf lage
Ġperforman ce
c ut
u c
w k
Ġ urban
Ġin spe
Ġp orch
it or
Ġst ack
Ġbo u
il low
Ġpa ved
Ġstreet s
one y
Ġclo sed
Ġac cord
Ġam us
Ġmatch ing
Ġcarp et
Ġaccord ion
b ly
c ro
i pping
k a
Ġs ell
Ġb ir
Ġp ian
Ġp ony
Ġc ustom
Ġd ish
Ġst ool
on str
ed ing
Ġla b
Ġclo wn
sk inned
Ġpro t
Ġsha king
Ġski ing
Ġspea ks
Ġcheck ing
Ġbut ton
Ġban ner
Ġdev ice
sca pe
Ġkha ki
c om
Ġ .
Ġ es
th day
Ġo wn
re sh
Ġp ort
Ġc ri
Ġto wn
Ġco ld
Ġch inese
Ġch rist
Ġma ga
Ġle ad
Ġblo use
qu et
ust ic
Ġshe et
Ġdri ve
Ġal so
Ġreach es
Ġcand y
Ġfing er
Ġunderw ater
Ġbir thday
Ġmaga z
f ight
y le
Ġ ears
Ġs lo
Ġp illow
Ġm op
le te
Ġh ur
Ġto ss
Ġj ugg
Ġro be
Ġbe nding
Ġsk ating
Ġwa gon
Ġli es
Ġsa x
Ġmicro scope
Ġprep are
Ġgr illing
Ġthro wn
Ġthro ws
Ġcor n
Ġwheel chair
Ġsqu are
Ġcra w
Ġanim als
Ġcheer leaders
Ġteenag ers
Ġdem onstr
bro wn
b la
c ur
u red
Ġ round
in o
Ġp it
Ġm in
Ġm oney
ro nt
Ġg ate
Ġwith out
Ġdo n
et ing
Ġlo ne
Ġe mb
Ġch a
Ġch alk
Ġhel p
Ġflo at
Ġflo ral
Ġpro f
pla ce
Ġroll ing
Ġcomput ers
Ġna vy
Ġbath room
Ġpadd ling
Ġsto ve
Ġda ught
Ġmusician s
Ġtrans port
Ġinclud ing
Ġhal f
Ġfig ure
Ġamus ement
Ġpian o
a w
f lo
f ire
m as
Ġb iting
Ġt ric
Ġst ir
id ent
Ġpo lo
Ġpo ss
Ġso ft
Ġguitar s
Ġsho t
Ġad j
Ġpass es
Ġsqu atting
Ġpat io
Ġoffic ers
Ġwash ing
Ġpull s
Ġtou ching
gu y
Ġsax op
b ers
c it
c ul
c ial
o ustic
u dy
Ġ el
Ġs im
er ing
Ġp ow
Ġc ere
Ġd ump
Ġon ly
Ġf an
at o
Ġre ce
Ġhi kers
Ġj u
Ġlo un
Ġho ckey
do gs
Ġhead s
Ġflo ating
Ġpar ach
Ġjumps uit
Ġac oustic
ip le
Ġse wing
ach e
Ġga z
Ġfema les
Ġsee ms
Ġrais ed
Ġfall ing
Ġcho ir
Ġprodu ce
Ġligh ts
a th
i ther
Ġo ri
Ġp et
le br
Ġt w
or k
te red
Ġn ice
Ġsh ade
Ġco ach
Ġla und
Ġmo st
Ġtra vel
Ġca b
Ġwa s
Ġwall s
Ġhead sc
Ġje wel
Ġthem sel
ip es
Ġus e
co vered
Ġbackpack s
Ġsplash es
Ġfun ny
Ġslid es
Ġim age
Ġexam ining
Ġcover ing
Ġce lebr
Ġange l
Ġsum mer
Ġappro ach
b ack
d ress
v ie
Ġw arm
Ġw ading
Ġf ans
Ġh ear
Ġst ares
Ġl ugg
Ġlo w
Ġho op
Ġco nd
Ġe ither
Ġgra vel
Ġbu cking
Ġcam p
ick s
ha wk
Ġfl uffy
Ġapp l
Ġpl ant
Ġchi ck
Ġshi p
slee ve
Ġroller bla
Ġfing ers
Ġeng ine
Ġindoor s
estri ans
Ġchrist mas
Ġdaught er
Ġthemsel ves
c ent
g es
m ed
Ġd un
it es
Ġst a
Ġdo ll
Ġbe g
Ġra ft
Ġsp ace
Ġca re
ho u
Ġhel ps
Ġpre te
gg ed
Ġapp ear
Ġpi pe
Ġpul led
Ġkis s
Ġattemp ts
Ġneck la
Ġrepair ing
Ġbran ch
Ġmil itary
Ġpump kin
Ġlugg age
n o
u es
Ġa ut
er c
Ġth umb
ar a
Ġd i
Ġd ust
Ġf arm
Ġf inish
ir ts
Ġr ug
Ġlo ts
il t
ree k
Ġta ken
Ġne on
Ġmo ves
Ġmo hawk
Ġsmall er
Ġsn iff
Ġsa w
Ġte al
Ġex cit
tt ed
Ġpi ge
Ġdri ver
co lored
Ġsurf ace
Ġumbrella s
Ġap art
Ġkn ee
Ġna p
Ġform al
Ġmem bers
Ġenter tain
Ġtee th
e ction
l ike
w i
Ġ rough
in y
Ġp in
Ġm uzz
Ġma s
Ġtra y
ph er
Ġblo cks
shirt s
Ġbar rel
Ġhan g
Ġmotorc ycles
Ġpass en
Ġpol ka
Ġstair case
Ġbott les
Ġconvers ing
Ġpract ice
Ġbird s
Ġtub e
Ġes ca
Ġadj ust
Ġsaxop hone
b ric
h ere
j e
l and
t i
Ġb ank
er ry
Ġp atch
Ġc one
Ġc reek
Ġh ers
al m
Ġe mer
Ġch ee
ee led
Ġca ps
Ġca ught
Ġso cks
Ġmar ried
boy s
Ġgr and
Ġsurround ing
Ġfe eding
Ġsurf ing
Ġcre w
Ġbox es
Ġfo ld
Ġcheck ered
Ġcourt yard
Ġcompet ing
Ġcontain er
Ġpea ce
Ġmust ache
Ġyo uth
vis ion
Ġfra me
flo ps
Ġori ental
b es
b ow
l arge
p l
p tion
u its
Ġa ct
Ġs ix
Ġg erman
Ġf resh
Ġwi re
ir st
ch est
Ġred head
ent ion
Ġback wards
Ġmo ve
Ġfa bric
Ġair port
Ġlea f
Ġsa le
Ġslee ve
Ġcross walk
ctor y
Ġsil hou
Ġpat ter
Ġkneel s
Ġbel t
cro wd
Ġpony tail
Ġjugg ling
cur ity
d s
Ġ (
Ġ rou
Ġs upp
Ġm is
Ġth o
ro on
la te
et ra
Ġl ar
Ġn aked
Ġla y
Ġch op
Ġma roon
Ġcon fe
Ġhand stand
Ġfa st
Ġclo udy
Ġun ic
Ġex erc
Ġmotor b
Ġshe pher
Ġpie ces
Ġflow ered
Ġbag p
Ġroll ers
Ġski er
girl s
Ġcur b
Ġgar age
Ġform ation
Ġti le
Ġland scape
Ġopp os
Ġchain s
Ġindividu al
Ġvis ible
Ġbever age
Ġrac etra
uc asian
Ġemb ra
Ġshepher d
c hi
f ront
i er
w ar
Ġ )
in ning
Ġb un
Ġb ent
Ġf ar
la dy
Ġst ump
lo y
ch e
Ġare na
Ġre mo
ers ection
Ġlo om
il s
Ġbro om
Ġpo d
Ġmo und
Ġclo ud
Ġhair cut
Ġrest s
Ġpain ts
Ġsing er
Ġcoo ks
Ġdoor s
Ġme eting
Ġwet suit
Ġpad dle
Ġshovel ing
Ġrais es
Ġint ersection
Ġtele vision
ession al
je cts
Ġhers elf
Ġconfe ren
Ġrollers k
a ster
m ers
o sing
t ime
Ġin ter
ro p
la tor
ck ed
Ġst un
id ing
Ġre s
ic a
Ġj ung
oo k
um n
Ġco bble
us k
us es
Ġch in
Ġback s
Ġor chest
Ġsp ar
Ġcl ub
Ġfa ctory
Ġgo at
Ġswim mer
ub a
Ġslee p
tt y
Ġtri p
Ġtri cks
Ġde p
Ġri bb
Ġlif t
Ġpl an
Ġpat i
Ġmon key
Ġmake up
Ġpresent ation
Ġcrou ches
Ġprote ctive
Ġtransport ation
Ġcere m
Ġheadsc arf
Ġdun e
Ġneckla ce
Ġthumb s
Ġoppos ite
Ġracetra ck
Ġpod ium
Ġjung le
b al
e um
i bly
z a
Ġ 4
Ġt ug
on ed
Ġl unch
itt en
Ġba ss
Ġout stre
Ġla mp
Ġsk irts
Ġso on
Ġso fa
pp y
Ġbal ance
Ġmus eum
Ġfl ies
Ġfire fight
Ġmotorc yclist
Ġboard walk
Ġkne es
Ġshovel s
Ġwea ther
Ġele v
Ġbush es
Ġgymna st
Ġrub ber
Ġmagaz ine
Ġjewel ry
pl ane
Ġunic ycle
Ġconferen ce
Ġorchest ra
b l
c ess
g an
h ood
t en
t ched
x ed
Ġ ent
Ġa qu
Ġs ong
Ġb le
Ġb ill
Ġp ee
Ġt ar
Ġg am
Ġd im
Ġd ining
it al
et er
ic s
Ġj eep
Ġro bes
ack s
Ġsp ee
Ġwatch ed
les c
Ġca ucasian
ho use
Ġair plane
Ġhead band
Ġsoc ial
Ġbar ber
Ġse curity
Ġcolor s
Ġskateboard s
Ġdes ign
Ġmarket place
iz on
Ġtur ned
Ġkn itting
Ġfo lding
Ġref lection
Ġhapp ily
Ġclose up
ba by
Ġwea ving
Ġopp osing
Ġstr ange
Ġsprink ler
Ġloc al
Ġhall way
Ġsuspend ed
Ġesca lator
Ġsleeve less
t ub
t ruck
Ġs ad
Ġg l
Ġd el
at ure
lo r
ld s
Ġre g
Ġl ane
Ġhi ts
Ġlo ad
Ġsh oo
Ġco aster
il ar
Ġpa pers
to wn
Ġma in
Ġsp read
if e
Ġwa ke
Ġsc uba
Ġgo wn
Ġsho wn
Ġbri cks
Ġob jects
Ġset s
Ġno te
Ġev ening
Ġsurf er
Ġvehi cles
Ġbucket s
Ġjersey s
Ġrais ing
Ġbowl s
Ġcol la
Ġser ving
Ġcard board
Ġce iling
Ġexp ress
Ġja pan
Ġath let
Ġcustom ers
Ġslo pe
Ġposs ibly
Ġsim ilar
Ġcond u
Ġchick en
Ġredhead ed
Ġlar ger
Ġoutstre tched
Ġspee ch
c ers
d a
s hi
Ġb ul
Ġp h
Ġt v
Ġg if
Ġdo ctor
Ġto wer
Ġr ural
wn ing
Ġbl ur
Ġsh aring
il ity
am er
ct ed
Ġpo s
ist er
Ġsuit case
Ġfl ight
Ġste p
Ġste el
igh ts
Ġpolice man
Ġspor ting
Ġemp loy
Ġint era
Ġbalan ces
Ġpadd les
Ġoper ating
Ġsnowboard er
Ġprin t
Ġprot est
Ġhur dle
Ġprof essional
Ġlaund ry
b ile
e es
k ed
m ade
n ers
Ġb ite
Ġin v
Ġm ow
Ġt ry
Ġf et
Ġf ly
Ġh ind
Ġy ou
Ġpla za
Ġre l
Ġl ines
Ġra p
Ġso ldi
ount a
Ġlea ving
Ġli qu
Ġli br
Ġche wing
Ġte ch
Ġcolor ing
Ġfore ign
Ġcross es
Ġsha ped
Ġseat s
Ġwheel b
Ġkn ife
Ġtrail er
br ush
Ġkay aking
Ġspo on
Ġcr ane
Ġobser ving
Ġgood s
Ġnat ive
Ġadvertis ement
Ġmin i
Ġsoft ball
Ġexcit ed
Ġcloud s
d an
f ts
g y
u ally
z en
Ġs ides
Ġo dd
Ġb ead
Ġp un
Ġm ater
hi b
le ge
is s
Ġd read
Ġf ree
Ġf irst
al ing
Ġr u
il ts
Ġdown town
se ven
Ġback d
ren ts
Ġne igh
Ġor gan
Ġmo u
Ġcon s
Ġsc o
Ġsc ru
Ġair bor
Ġhe els
Ġcomp an
Ġte lesc
Ġex hib
ill s
Ġmar ath
Ġpi zz
Ġhill side
Ġsha kes
Ġjo b
Ġjo y
Ġsmo kes
Ġtrun k
foot ball
Ġamong st
Ġcut s
Ġspra ying
Ġcand les
Ġtool s
Ġteenag er
Ġfollow s
Ġbran ches
tail s
Ġwrest ling
Ġgymna stic
Ġbou quet
Ġju ice
Ġparach ute
Ġhear t
Ġcerem ony
Ġwake board
Ġpos ition
Ġairbor ne
b ur
b ook
l it
y on
Ġ &
Ġw ings
Ġs or
Ġs ized
Ġp alm
Ġm all
hi ll
Ġt ight
Ġd ro
Ġst ill
Ġwi ld
es ma
Ġat v
Ġhi ke
st one
ea s
ur s
Ġsh ar
Ġro o
Ġro pes
ri age
Ġor der
Ġsn a
Ġwa ist
Ġper ched
Ġcom m
Ġbench es
Ġstri pes
Ġarm y
Ġhor izon
Ġbal ding
iv ers
Ġgr ind
Ġbrid esma
Ġski ers
Ġsmo ke
Ġfil ling
Ġblow s
Ġcheer ing
Ġplat es
Ġvar i
Ġtattoo s
Ġtu xed
Ġchef s
Ġtro p
Ġparticip ating
Ġsell s
Ġdrive way
Ġloun ge
Ġaut umn
Ġpige ons
Ġmotorb ike
Ġchains aw
Ġstun t
Ġsoon ers
Ġcolla red
Ġjapan ese
Ġrap ids
Ġlibr ary
Ġmater ial
Ġneigh bor
Ġtelesc ope
Ġmarath on
a f
d es
e f
i ally
p y
p ro
Ġ if
Ġw o
Ġs up
Ġp ress
Ġp ood
Ġg es
Ġg as
Ġf ru
Ġh ut
Ġh um
id er
Ġbo und
Ġy a
te rest
Ġl ink
Ġj et
Ġn arrow
Ġro wing
Ġbe an
Ġcar ving
Ġcar ry
Ġor n
Ġcon es
Ġhand le
Ġsn ea
Ġsk in
Ġcam e
Ġtop s
ach ers
Ġfl ipping
men ts
Ġteam m
Ġfire truck
Ġatt ra
Ġrain bow
Ġti ed
Ġint ently
Ġscre am
Ġspo t
Ġfur ry
Ġwaters ki
Ġboun cing
Ġcas ual
Ġter ra
Ġea ster
Ġpig tails
Ġteach ing
Ġass em
Ġped estrians
Ġsuspend ers
Ġmess y
Ġcraw ling
Ġtho ugh
Ġble achers
Ġdim ly
amer ican
Ġneighbor hood
Ġges ture
b ies
f ting
m x
w l
in et
Ġin form
Ġp ill
Ġp ins
is ed
at ive
es ting
Ġy ork
Ġpla ced
Ġplay fully
Ġba y
Ġsh el
Ġe xt
Ġrun ner
Ġta g
Ġta x
Ġbro ken
Ġpo ster
ren ch
Ġfor ward
Ġbu nd
Ġbu ying
Ġle an
Ġle ading
Ġmo tion
Ġcro wn
Ġsp ort
Ġhand ing
ly mp
Ġsk is
Ġcam ping
do wn
Ġar ch
Ġpre tty
Ġbar rier
Ġcomp le
co late
Ġdes ce
Ġatt ention
iz ing
Ġbut ter
Ġblanket s
Ġelect ron
Ġqu ick
Ġmult iple
Ġcard s
Ġtour ist
Ġmed ium
Ġnat ure
Ġbrush ing
Ġteach er
Ġlead s
Ġpow er
Ġsniff ing
Ġchee k
Ġbill board
Ġwheelb arrow
Ġbackd rop
c i
c am
d les
i or
m other
n et
u la
u rt
Ġ ut
Ġa v
Ġa is
Ġo lymp
Ġin terest
er am
Ġp op
Ġm eas
ro l
Ġd ead
Ġd uck
la d
Ġst art
Ġst uck
Ġst yle
lo ng
lo cks
ch an
Ġba bies
um er
Ġho sp
Ġro ws
il led
Ġbe en
Ġk ite
Ġbro ther
bo at
Ġbui ldi
Ġben eath
ation s
Ġad m
Ġmouth s
Ġtrain ing
Ġsa il
Ġga thers
Ġdan cers
Ġcle ans
Ġtodd lers
Ġdis c
Ġam id
Ġtr ump
Ġcre ating
Ġlif ting
Ġshore line
Ġconvers e
Ġhome less
mo st
Ġstud ent
Ġgentle men
Ġcol lege
Ġser ve
Ġcla y
Ġfall s
me lo
Ġpe ers
Ġgoal ie
Ġcrou ching
Ġcho colate
Ġtack le
Ġfollow ing
Ġmem ber
Ġgun s
Ġshadow s
Ġwrest le
Ġspe ed
Ġath lete
Ġtoo th
Ġdiscuss ion
Ġmost ly
Ġappl ying
Ġapart ment
Ġrou t
Ġsupp ort
Ġbagp ipes
Ġribb on
Ġshoo ting
Ġdread locks
Ġgymnastic s
Ġsnea kers
Ġhosp ital
c ra
c us
f rie
Ġa im
Ġa head
Ġa wa
Ġw and
Ġs i
Ġs und
Ġm ug
Ġth in
Ġt om
ar n
Ġg rou
ck er
wo od
te l
Ġl ive
ut s
st ro
um ent
Ġro d
Ġe very
Ġwater melo
Ġjump ed
Ġup on
Ġma p
ble s
Ġyel ling
ig ious
Ġfa ke
ick ing
Ġdr ill
Ġclimb ers
Ġsand wi
ter y
Ġperform ers
Ġunder ground
Ġbic yclists
Ġche cks
Ġsl i
Ġcatch er
Ġsing le
Ġfore head
Ġhu g
Ġwheel s
Ġkn o
Ġatte nding
Ġdrum mer
Ġcont est
sel y
Ġkis ses
Ġattemp t
bor n
Ġmon itor
Ġnew born
cu um
Ġim ages
Ġexam ine
Ġhea v
bb ing
wh eel
Ġi ron
Ġstret ching
Ġdirection s
Ġva cuum
Ġport ra
Ġcha se
Ġtric ycle
Ġpet ting
Ġcare fully
Ġprete nding
Ġpassen gers
Ġcobble stone
Ġgam es
Ġliqu id
Ġtrop ical
b i
b re
c if
l ph
w ed
y o
z e
Ġa ction
Ġs ink
Ġb ell
Ġb mx
Ġin ner
Ġm er
Ġt iny
ar ves
Ġg e
is ting
Ġd usk
Ġf eat
it ors
Ġman ne
Ġdo lph
Ġwhi st
te en
el ing
Ġn ame
Ġco tt
Ġbe nds
Ġk ilt
ion s
Ġcar riage
Ġmo re
Ġra ck
Ġover head
ng th
Ġso da
ph ant
Ġbi king
Ġsun light
Ġguitar ist
Ġpar as
Ġstri p
Ġfish erman
Ġag es
Ġcan yon
iv ely
Ġhigh chair
Ġpart ially
Ġhu gs
Ġbasket s
we ight
Ġal most
Ġkn it
Ġsqu ats
Ġphotograph s
Ġstop s
Ġban an
Ġcol lect
Ġbreak dan
Ġpupp ies
Ġscaffo ld
whi le
Ġfur n
Ġnot es
Ġcal led
Ġtele phone
Ġcri cket
Ġdemonstr ation
Ġchalk board
Ġstir ring
Ġtravel ing
Ġfold ed
Ġinv ol
Ġrel igious
Ġpizz a
Ġvari ety
Ġsup er
Ġfru its
Ġeaster n
Ġtax i
Ġelectron ic
Ġquick ly
cam era
Ġais le
umer ous
Ġmanne qu
0 0
c an
c ount
d ed
g ed
h e
i ers
Ġ 5
Ġw ere
Ġs ear
Ġs lack
Ġo ven
Ġb ino
er leaders
Ġp ri
Ġc ru
Ġc ans
Ġm u
Ġg all
Ġd u
Ġf at
Ġh ad
en cy
it ure
Ġst om
ld o
Ġr is
Ġan g
Ġlo ading
Ġfro zen
ri ght
Ġsm oo
Ġgre at
Ġcar ts
Ġfor k
bo x
Ġover weight
Ġpic t
Ġstri pe
Ġlea p
Ġcomp lete
Ġsl ic
Ġphoto s
Ġstore front
Ġapp le
co t
co at
Ġsha ggy
Ġshow er
Ġmach ines
Ġind ust
Ġme chan
Ġlif ted
Ġtur ban
Ġcompet e
Ġti les
Ġti led
Ġban jo
Ġnewspa pers
Ġcr ates
Ġele phant
ma le
wa i
Ġcas ually
Ġcal m
Ġmix ing
Ġter rier
Ġinspe cting
Ġown er
Ġcri b
cul ar
cul ars
Ġfan cy
Ġcelebr ating
Ġsilhou ette
Ġpatter ned
Ġexerc ise
che erleaders
Ġplan ting
Ġbul ldo
Ġexhib it
Ġrout ine
Ġtom ato
Ġslack s
Ġbino culars
Ġgall ery
b ank
c cer
c ross
g ency
k y
m us
m ult
p o
p r
v i
v il
Ġ -
Ġ ic
Ġw ar
Ġc el
Ġc yclist
Ġm ead
Ġst ars
Ġwith in
Ġpla ces
te nd
Ġre fe
Ġr ink
Ġr ange
Ġr ings
st yle
ri al
ul ts
Ġbro n
Ġpo urs
Ġma ss
Ġca pe
Ġcam eram
Ġsc ra
Ġar c
Ġar r
Ġmountain side
Ġmountain ous
Ġten ts
Ġen clo
Ġli ps
Ġsl ight
Ġmicro phones
Ġtri m
Ġcross ed
Ġhigh way
Ġpath way
Ġfla t
Ġstair way
Ġpl ane
Ġtur ning
Ġdispla ying
Ġswims uits
Ġstop ped
Ġsee m
Ġlist en
Ġmon ument
Ġnew ly
Ġscen ic
Ġbur ied
Ġland ing
Ġspo tted
Ġexam ines
Ġbarbe cu
so ccer
Ġtire s
Ġbel ly
Ġgreyhound s
Ġbever ages
Ġdiscuss ing
Ġapproach ing
Ġbeg ins
Ġmas ks
Ġtrip od
Ġdel i
Ġnote book
Ġgif t
Ġblur ry
Ġbead s
Ġsor ting
Ġshar p
Ġtuxed o
Ġorn ate
Ġterra in
Ġinform ation
Ġtrump et
Ġsandwi ch
Ġindust rial
wai ian
b at
b ag
f ly
h om
h am
k la
l im
l led
m es
m id
p t
s i
s ho
v al
z er
Ġ ident
Ġs em
Ġp ipes
Ġc ool
Ġc yclists
Ġt ul
Ġf i
at ely
Ġdo t
Ġl an
Ġho tel
Ġco ws
Ġco ast
Ġro lled
am p
Ġla bor
Ġpa le
Ġpa rents
Ġma il
Ġle tt
Ġmo der
Ġv il
Ġcon gre
Ġsp inning
Ġca se
Ġcl ut
Ġun f
Ġsa us
Ġbic yclist
Ġfl ute
Ġshop s
Ġopen s
Ġhill s
ca ke
loo king
Ġpol ic
iz e
Ġatte nd
Ġcra sh
Ġwr ites
Ġwr itten
Ġcont rol
Ġhome made
Ġcur ve
Ġstra ight
pa ss
Ġapron s
Ġstroll ers
Ġcla pping
Ġhot dogs
Ġopp on
Ġtou ches
Ġstring ed
Ġtu rt
Ġoper ates
Ġtack led
Ġboun ce
Ġobser ves
clo th
Ġexp lo
Ġparticip ate
gre en
com ing
Ġcraw ls
Ġgaz e
Ġcamp fire
Ġdust y
Ġadjust ing
Ġmis sing
Ġrollersk ating
Ġfirefight er
Ġathlet ic
Ġskin ny
Ġscream ing
Ġfurn iture
Ġstom ach
mult iple
Ġmead ow
Ġrefe ree
Ġslight ly
hom a
kla homa
Ġcongre g
a bo
b by
b ling
b ull
f ema
h and
i et
k id
n i
r ance
s ha
y l
Ġs y
Ġc urt
Ġt or
Ġt ea
Ġthe ater
ar ter
Ġd et
Ġf ea
Ġf ounta
Ġh uddle
al ley
it ies
at tered
Ġst eam
Ġwi fe
Ġdo ne
on ge
Ġy arn
Ġplay ed
Ġhi ding
ut ion
ic ally
st icks
Ġsh ining
Ġco vers
ct ly
se up
Ġch at
Ġsw i
Ġpo ts
Ġle t
Ġmo bile
Ġra cer
Ġv en
Ġv alley
Ġsp onge
Ġside wa
Ġrid ers
Ġsn ork
Ġsk ates
Ġca ge
ian s
Ġfa cial
em en
Ġcam el
Ġbi kers
Ġswim mers
Ġsur pr
ha ppy
Ġad or
Ġse ction
Ġbic yc
Ġpur ch
Ġpur ses
Ġsha ved
Ġsha wl
Ġnight time
Ġtur ns
Ġcra ft
Ġcra fts
Ġfo am
wor ker
Ġphotograph ed
Ġsea g
Ġlist ens
Ġchi sel
Ġqu est
Ġqu iet
Ġpot ato
Ġtou ch
Ġrepair s
Ġtack ling
wh eeled
Ġunderw ear
Ġsprink lers
clo seup
Ġprin ted
Ġretrie ver
Ġtoss ing
Ġtric ycles
Ġstir s
Ġdump ster
Ġrece ption
Ġmuzz le
Ġent rance
Ġexpress ion
Ġemploy ees
Ġpun ching
Ġbutter fly
Ġamid st
Ġcott on
Ġarc ade
Ġcurt ain
a p
i lor
n am
r id
u ro
w r
w ear
Ġ 6
Ġ ing
in a
Ġs al
Ġs id
re t
Ġin j
er by
Ġp ir
Ġc op
Ġm al
Ġth ick
ar ium
Ġg ive
Ġd j
Ġd ia
Ġf rying
Ġst ones
Ġwi i
Ġwi res
lo ts
ir ing
id erman
Ġpla cing
Ġre cl
Ġl ip
ut ing
Ġho ops
Ġsh ru
Ġmen u
Ġbe ers
Ġbe long
ard s
Ġdown hill
Ġwor ld
Ġha waiian
Ġta il
Ġpa cif
Ġle ar
Ġle ot
ind er
Ġcon f
Ġsp iderman
ig ning
Ġbui ld
Ġdr illing
Ġtop less
Ġmid st
Ġen vi
Ġse es
Ġsa ying
Ġdan cer
Ġfish es
ag ing
Ġcan v
Ġapp les
Ġart ists
Ġart work
Ġpush ed
Ġjo gs
Ġchas ed
Ġsqu irt
Ġdra g
Ġfo cus
att le
Ġrain y
Ġbut ch
Ġglo ve
Ġstud io
Ġpres ents
Ġear ring
Ġcast ing
Ġspra ys
Ġspo ts
Ġham bur
Ġlaptop s
Ġtrash can
Ġpresent ing
Ġeng aged
Ġcontain ing
Ġtour ists
Ġdemonstr ating
Ġdon key
Ġloun ging
Ġact iv
Ġpati ent
Ġelev ator
Ġaqu arium
Ġsocial izing
Ġintera cting
Ġbridesma ids
Ġbean ie
Ġinner tub
Ġmer ch
Ġbreakdan cing
Ġmannequ in
count ry
Ġtul ips
Ġmoder n
Ġven ue
Ġsid el
e x
i pe
n as
o red
t a
Ġ ill
in t
in er
ing ing
Ġs la
th o
Ġo c
Ġb ites
Ġin stru
Ġc all
Ġm att
Ġm erry
le ading
Ġt ru
Ġt ick
nd er
Ġg oo
Ġg ri
Ġf ed
Ġf ist
la ted
Ġh oo
en se
Ġst ro
Ġst are
Ġst ilts
ra il
op ing
Ġre ally
Ġre cord
Ġl icking
Ġan ti
Ġba mb
Ġbl ind
um m
um in
Ġsh are
us ing
Ġgra du
Ġgra bbing
Ġwater ing
Ġrun ners
Ġwor d
Ġas ia
Ġch atting
to dd
ul ar
Ġpo cket
Ġback stro
Ġne ed
Ġmo d
Ġca ve
Ġwa res
pp er
Ġblo od
board er
Ġbri ef
Ġwh om
Ġwh eeled
Ġse ven
Ġsa wing
Ġwho se
Ġmar ble
Ġcross country
Ġste pping
Ġfire man
co up
Ġmark er
Ġmet ro
Ġboard s
Ġme x
Ġwheel ie
Ġbox ing
Ġcra y
Ġfo und
Ġteen s
ber man
Ġdispla ys
Ġcheck ers
Ġstat ues
Ġna il
Ġaud itor
Ġpractic es
Ġbusiness man
Ġpot tery
Ġcla d
Ġdire ctly
Ġscoot ers
Ġbra ce
Ġswee ps
wh ere
Ġmix er
Ġz one
Ġstret ched
estri an
Ġmom ent
Ġretrie ving
Ġpitch er
Ġprot esting
Ġtoss es
Ġapproach es
Ġrollerbla ding
Ġdi ver
Ġemer gency
Ġsilhou et
Ġpatter n
Ġembra ce
Ġchin a
ten ance
Ġtar get
Ġmain tenance
Ġfet ch
Ġmini ature
Ġscru bs
Ġcomm un
Ġgrind ing
Ġolymp ics
Ġtooth brush
Ġcameram an
fema le
Ġsy n
Ġseag ull
Ġpacif ier
Ġenvi ron
Ġcanv as
Ġbamb oo
a c
d r
d en
e lderly
f amily
m on
t ra
v ar
z ing
z or
Ġa wning
Ġs acks
Ġs igning
Ġb la
Ġin st
Ġp unch
Ġc ry
Ġc ries
Ġm itt
Ġth ings
ro m
Ġd y
Ġh y
en ed
Ġst all
Ġst ain
Ġdo berman
and ise
Ġre sp
Ġl ush
Ġl ime
Ġba ker
Ġlo gs
Ġsh iny
Ġout si
the y
Ġe uro
Ġla unch
Ġbe nd
low ing
Ġwater way
Ġk io
im es
Ġpa ws
Ġcar go
Ġbu ff
Ġor ang
Ġra g
Ġra ces
Ġra zor
Ġcon stru
Ġsp ir
Ġsp ark
Ġsn ack
Ġcl ar
Ġso und
Ġfa shi
Ġtable cloth
Ġbi b
Ġclo sely
Ġhead ed
shirt less
Ġtoge th
Ġsur g
ped estrians
Ġad dress
Ġse p
Ġse co
are nt
Ġche ese
Ġbal let
Ġpro cess
ne y
Ġmus lim
Ġfl ips
Ġcoup les
Ġstore s
Ġde c
Ġtre at
Ġcle aring
Ġatt ack
Ġbre aking
Ġal co
Ġfo ggy
Ġcont ra
Ġspea k
Ġnumb ers
Ġnumb ered
Ġpad s
Ġsu v
Ġcheck ed
Ġladd ers
art ment
Ġsca les
Ġkay a
Ġscen ery
Ġelectric al
Ġqu arter
Ġshi e
Ġtattoo ed
Ġhot dog
Ġcand le
Ġrelax es
Ġham mo
rin ts
Ġvis or
Ġobser ve
Ġstr um
Ġpea k
Ġadvertis ing
Ġspray ed
Ġhammer ing
Ġbou lder
Ġcustom er
Ġmagaz ines
Ġel mo
Ġtw irl
Ġrollerbla des
Ġsta ff
Ġpassen ger
Ġfresh ly
Ġchop ping
Ġexerc is
Ġfar mer
bl ue
Ġcondu ctor
Ġsoldi ers
Ġcompan y
Ġteamm ates
Ġmeas uring
frie nds
Ġdolph in
Ġtomato es
mus ic
Ġcel lo
Ġbron co
Ġpolic emen
Ġinj ured
Ġinnertub e
Ġmerch andise
Ġmatt ress
todd ler
Ġbackstro ke
coup le
Ġcray ons
Ġauditor ium
Ġenviron ment
' t
a id
a red
b ic
c as
c ustom
d ling
e u
e en
g n
g ue
h n
i kes
i let
p ho
p ol
s w
s on
v ation
w ish
Ġ 8
Ġ 9
Ġa er
Ġs at
Ġs que
Ġs ipping
th nic
Ġo vers
an nel
Ġb in
re house
Ġp y
Ġc ute
Ġt ired
at ula
om s
Ġst i
Ġst y
Ġwi ll
or y
Ġto w
Ġto ilet
Ġpla in
ge e
Ġr ush
Ġr ally
Ġro bo
ver ing
ad es
Ġk abo
Ġwor ds
Ġas ce
Ġpa ying
Ġch ar
ie val
Ġbu y
Ġbu ilt
Ġsp ring
Ġsp atula
Ġhand les
ure s
Ġsnow mo
Ġwa rehouse
Ġso l
Ġhead dress
Ġje wish
Ġflo ats
ant a
Ġasian s
Ġtrain s
Ġuniform ed
Ġche w
Ġte x
tt es
Ġtre ad
Ġsha ves
Ġdes cent
ak er
Ġriver bank
Ġcostum ed
Ġbed room
Ġlif ts
Ġroll s
Ġtur key
Ġpra ying
Ġdra gon
wor king
Ġsplash ed
Ġstra pped
Ġcup s
Ġgym nas
Ġstud ying
Ġcheer leading
Ġrais e
Ġcol um
Ġdig s
Ġbur ning
Ġbikin is
Ġ2 00
Ġsculp ting
Ġpupp et
Ġcir c
Ġfol i
Ġtub a
Ġwra p
Ġcr ate
Ġbarefoot ed
Ġcontain ers
Ġbooth s
Ġprodu cts
Ġmed ieval
Ġsnowboard ing
Ġgrocer ies
Ġz ip
Ġprote ction
Ġea sel
Ġass ist
Ġpack ed
Ġeye glasses
stre et
Ġinspe cts
Ġmop ed
Ġcelebr ation
vie w
Ġmuzz led
Ġadjust s
Ġdep artment
Ġpati ently
Ġfirefight ers
Ġsoldi er
Ġroo ft
Ġpood le
Ġattra ctive
Ġcomple ting
Ġav o
Ġinterest ing
Ġsund ress
Ġinvol ving
Ġbulldo zer
Ġident ical
Ġoppon ent
sha ped
Ġpir ate
Ġbelong ings
Ġlear ning
Ġleot ard
Ġsidel ines
Ġbrief case
Ġmex ican
Ġseco nd
Ġalco ho
Ġhammo ck
Ġsque e
Ġrobo t
Ġgymnas ium
b ed
d ark
f ood
f old
g ress
i ents
k is
l ined
m in
n ow
o ly
p ants
r atch
s ur
s ion
v ent
z y
Ġa x
Ġs ke
Ġs ack
Ġs ys
Ġo klahoma
Ġb on
re nt
Ġp eop
Ġp ine
Ġc ub
Ġm or
Ġm ill
Ġm ural
hi ft
le ts
Ġt ut
Ġt ig
Ġt ights
Ġt rench
Ġg ig
Ġg est
Ġd ad
Ġf le
Ġf am
Ġh arm
Ġh ops
al d
Ġis land
at a
Ġst ea
un k
ch ron
op y
op es
op oly
te mp
Ġre vie
Ġl imb
Ġplay pen
Ġplay grou
Ġhi ps
Ġr an
Ġn un
Ġn umerous
Ġba ked
Ġsh oot
Ġsh elf
Ġro ast
il ted
Ġe thnic
Ġla st
Ġgra b
Ġk e
Ġk ee
Ġta st
se at
to cross
Ġsw e
Ġup ward
Ġback seat
Ġma y
Ġmo use
Ġra fting
Ġcon ne
Ġcon temp
Ġsp a
Ġjack ham
Ġsk ull
Ġso up
Ġsc arves
Ġsc ratch
Ġun w
Ġflo od
ation al
Ġac ro
Ġmountain top
Ġlea gue
Ġsa lad
sk ate
Ġpro gress
Ġwho le
tor c
Ġfl u
Ġfl annel
Ġex iting
Ġex ca
Ġex pla
tt ish
Ġfloor s
Ġmar king
Ġmar sh
Ġcan al
Ġart if
Ġhorse back
ca st
Ġmark ed
Ġhard wood
Ġbrid al
Ġbre ast
Ġcra b
Ġdra in
Ġsky line
ber ry
Ġgrill s
Ġsil ly
Ġrain coat
Ġpick s
mo torc
Ġcheer lead
Ġmon opoly
Ġmakes hift
ail s
Ġhar bor
Ġsculp tor
Ġbat ter
Ġdecor ative
Ġdecor ations
sm iling
Ġprodu ct
Ġlog o
Ġboun cy
Ġkayak er
Ġbrush es
uzz y
Ġpig gy
fa ther
Ġmil k
Ġel se
Ġgaz es
Ġcab in
dress ed
Ġpige on
Ġentertain ing
Ġleaf y
Ġbun gee
Ġspar ks
Ġmow er
Ġru gs
Ġsco ttish
af rican
Ġpress ure
Ġhum an
Ġgesture s
Ġpill ar
Ġext re
Ġbund led
Ġwatermelo n
Ġportra it
Ġwhist le
Ġbarbecu ing
Ġsem i
Ġlett ers
Ġvil lage
Ġclut tered
Ġturt le
Ġsurpr ised
Ġbutch er
Ġsyn chron
var ious
Ġcontra ption
pol ice
Ġcolum ns
Ġ200 8
Ġfoli age
Ġrooft op
Ġharm on
Ġcheerlead er
Ġsynchron ized
a se
b ar
c d
c ow
c art
e ight
f ort
g r
g und
h op
l ive
m ark
v or
Ġa ra
Ġa ge
Ġa cting
Ġs om
Ġs ym
Ġo th
er n
Ġc ome
Ġc yl
Ġm ur
Ġm cd
hi st
le gged
Ġd re
Ġd ee
Ġd ives
Ġf lee
Ġf uzzy
la bor
Ġh ung
Ġh usk
al t
Ġman eu
Ġst ay
Ġwi cker
ir ting
on ald
id ed
Ġre c
Ġhi kes
ut es
ic le
ic es
Ġr ust
Ġan vil
Ġj ud
st ick
Ġn ur
Ġn ike
Ġlo wer
Ġho uses
Ġsh ines
us ed
Ġe labor
ad ults
Ġla t
Ġbe at
Ġbe ret
Ġk eep
Ġwor n
Ġha ul
Ġta pe
Ġta sk
se m
Ġpa uses
Ġch ara
Ġch erry
Ġbro w
Ġup per
Ġbu dd
red ients
Ġle cture
Ġle ngth
Ġmo tocross
Ġra d
Ġover pass
Ġperson s
Ġca sh
Ġsnow ball
ho e
Ġsc aling
Ġpark a
way s
Ġhead ing
Ġhead set
Ġun ivers
Ġun happy
qu o
ud e
Ġar chi
Ġcom es
Ġpar a
Ġjumps uits
Ġcity scape
Ġthem e
Ġroad side
Ġhe re
Ġen th
Ġsa iling
Ġsa ilor
sk i
Ġpain ter
Ġfootball er
Ġhor ns
Ġte nds
Ġte nding
Ġbase ment
Ġopen ed
Ġmar ch
Ġday time
Ġmotor ized
Ġpi les
Ġde br
Ġkitchen aid
Ġflow ing
Ġfire place
Ġfla mes
vel y
Ġcell phones
Ġboard ing
Ġfountain s
Ġjo ckey
Ġjo hn
Ġrail way
Ġpl ank
Ġpul ley
Ġpoin ted
Ġsqu irting
Ġwr ist
Ġspea ker
Ġforest ed
Ġpick et
Ġpick up
ious ly
Ġpaint brush
Ġser ved
cl imb
Ġbur gers
Ġbur gund
Ġland s
Ġty pes
Ġtong s
Ġshi t
Ġcir cular
Ġbath tub
Ġret ur
Ġbra ss
Ġpan cake
pan ic
Ġcas ino
spe ct
Ġsled ding
Ġbottom s
Ġstret ch
Ġange ls
Ġinclud es
Ġstar ting
ot ic
inish ed
Ġdish es
Ġmop ping
Ġpit bull
fire fight
Ġrece iving
Ġgaz ing
Ġcab inet
Ġfinish ing
Ġfinish ed
Ġsniff s
Ġchop sticks
Ġbagp ipe
Ġembra cing
Ġdep ic
Ġaqu a
Ġdesign s
Ġsad dle
Ġreg ion
Ġathlet es
Ġmow ing
Ġtech nic
Ġsna ke
Ġwaterski ing
Ġshel ves
Ġadm iring
Ġheav ily
Ġfeat uring
Ġbanan as
Ġpict ured
Ġslic ing
tend ed
Ġsaus ages
Ġing redients
Ġmal let
Ġearring s
Ġgradu ation
Ġsilhouet ted
dr ant
Ġhy drant
Ġbuff et
Ġorang es
Ġquarter back
custom ers
Ġsys te
Ġmor ning
Ġacro bat
Ġpiggy back
Ġharmon ica
Ġmcd onald
Ġchara ct
Ġarchi te
Ġburgund y
a b
a ct
a bl
b ing
h at
i led
j ing
o lo
o ff
p ic
s chool
s ized
s now
t ie
v ice
z es
Ġ u
Ġ est
Ġ vert
Ġa do
Ġa band
Ġs ar
Ġs am
Ġs low
Ġs ister
Ġs anta
Ġo live
Ġin c
er ina
Ġp r
Ġp ans
Ġc it
Ġc ure
Ġc ats
Ġm ounta
Ġg al
Ġg um
Ġd ive
Ġf it
Ġf ell
Ġf ill
or ange
Ġto ast
ch o
op ter
Ġat m
Ġre na
Ġl icks
Ġhi p
ic ans
ic opter
Ġr if
Ġr ice
Ġshirt ed
st al
st orm
el low
Ġn am
Ġlo bby
Ġsh ack
Ġsh ell
Ġro man
il ies
us hi
us ia
Ġla te
Ġla be
Ġgra bs
Ġas king
Ġas ph
Ġta b
Ġta gs
ul ting
Ġbro ad
Ġjump er
Ġpo or
Ġup set
Ġup right
bo a
Ġgreen ery
Ġbu st
ind ian
Ġover cast
Ġball erina
Ġsp an
Ġsp ins
Ġhand bag
Ġhand rail
Ġside ways
Ġsn acks
ll y
Ġsk il
Ġca ution
Ġsnow man
Ġrock ing
Ġfa vor
Ġsc ore
Ġblo cking
Ġcamera s
ish ment
Ġsit ing
Ġgu ests
Ġhel ped
Ġbr inging
Ġfoot p
Ġwh en
Ġac c
Ġhor n
Ġus a
Ġus ed
Ġdan ger
Ġve nding
ment ary
Ġapp arent
Ġtri bal
Ġde f
Ġbow ler
Ġlight ed
Ġcloth ed
Ġbook st
Ġsub mer
Ġev en
Ġsurf s
ys et
Ġme et
Ġcor ds
Ġrail s
Ġbox er
Ġbox ers
Ġcowboy s
Ġdra ped
Ġvie wing
ult ural
sc ent
uff s
Ġphotograph ers
Ġstru gg
Ġwe eds
Ġwe lds
roll er
ane ous
Ġstop ping
Ġcigare ttes
Ġcoll ie
Ġoverloo k
Ġear th
Ġrela y
Ġser ves
Ġser ies
Ġchi p
Ġty ping
Ġcla s
Ġgro wn
Ġvideo ta
Ġwra pping
Ġbei jing
Ġshad es
Ġpost ers
Ġreflect ing
Ġcrou ched
Ġdry er
Ġwaterf ront
Ġbel ts
Ġenter ing
Ġmix ed
Ġloc ation
Ġloc ated
Ġstret ches
ator y
Ġguard s
Ġ1 2
Ġpack age
gre yhound
Ġfigure s
Ġlaund rom
no on
Ġfarm ers
wi th
Ġmas cot
Ġyouth s
Ġbun ny
Ġrollersk ates
Ġspar ring
Ġgoat ee
bal d
Ġpee king
Ġtar p
Ġreg ister
Ġcondu cting
Ġph arm
Ġemploy ee
iss ance
Ġcompan ion
Ġwakeboard ing
Ġhorizon t
Ġpood les
Ġbound s
Ġya wning
Ġteamm ate
Ġut ility
Ġaim ing
Ġawa iting
Ġsear ching
Ġfat ig
Ġsmoo thing
Ġcomplete ly
Ġmechan ic
Ġarr ange
Ġenclo sed
Ġlabor atory
Ġunf inished
Ġador ned
Ġhambur gers
Ġill umin
Ġinstru ctor
Ġanti que
Ġblind fold
Ġinst all
Ġkio sk
Ġclar inet
Ġpy ra
Ġconne cted
Ġunw ra
skate boarder
Ġunivers ity
quo ise
Ġenth usia
Ġdebr is
Ġsyste m
Ġrena issance
Ġlabe led
Ġasph alt
Ġlaundrom at
b ea
b ars
c al
f l
f y
f as
f ast
g le
g lass
g ant
k no
m ps
n ine
p it
p ie
p ain
s a
s ure
t ur
u ce
v ention
w ell
z ard
Ġ ump
Ġs ight
re r
Ġin struction
Ġp om
Ġp ud
Ġp eel
Ġp ets
Ġc ent
Ġth re
Ġt est
Ġg i
Ġg ay
Ġd erby
Ġon es
Ġf re
Ġf ind
Ġf rench
la p
Ġh us
en ga
it er
Ġst itch
or ge
un a
Ġre h
Ġre cor
Ġl ining
Ġr im
Ġj enga
el ly
Ġn in
Ġn ood
Ġn urse
Ġba d
Ġba le
Ġlo ve
Ġco ca
Ġhis panic
il i
Ġla id
Ġgra s
Ġgroup s
Ġk i
im ate
Ġrun ni
Ġpo king
Ġup wards
Ġsome where
Ġcar ried
bo dy
Ġmo ss
Ġcon vention
Ġhand ed
Ġhand ica
Ġsk et
Ġsk im
Ġso uth
Ġso ap
pp le
Ġsc iss
Ġsc attered
Ġwood land
Ġwood working
Ġgo t
Ġsun sh
Ġun us
Ġun kno
ish ed
Ġgu iding
Ġhel icopter
Ġcom fort
ant ily
Ġfood s
Ġbar king
Ġbar ri
Ġse g
Ġwind bre
Ġits elf
Ġpro p
Ġte xt
Ġslee ves
Ġex tended
Ġag ed
Ġcan n
ect or
Ġste ering
Ġste tho
Ġfire wor
Ġpast ries
Ġam ount
we ed
Ġme ga
Ġcart wheel
Ġwheel er
Ġafter noon
Ġtur quoise
Ġpoin t
Ġamer icans
Ġfo g
Ġref resh
Ġclass ic
Ġinf lated
Ġgar ment
Ġbut t
Ġglo ved
Ġsea weed
Ġform s
Ġform ally
out s
Ġmon k
Ġmon itors
Ġear ly
Ġfix es
Ġbreak fast
Ġcano es
Ġrailing s
Ġgard ening
Ġgro w
Ġpier cing
Ġproject or
Ġviol ins
Ġpost s
Ġstring s
Ġwine glasses
Ġvis iting
Ġele mentary
Ġele gant
Ġalley way
Ġsus hi
Ġtour nam
Ġring ing
Ġfollow ed
Ġbeam s
Ġboun ces
Ġtrans it
Ġmed ical
Ġtro t
Ġcal f
Ġcook ed
Ġfair y
Ġkind s
Ġsword s
Ġligh ting
Ġfra med
Ġinspe ct
Ġstack ed
Ġpillow s
Ġhur dles
Ġel bow
Ġju ggles
Ġappl ies
Ġbeg in
Ġexcit ement
Ġpin ata
Ġchee ks
Ġremo ving
Ġres ort
Ġpee ks
Ġcons isting
Ġbridesma id
Ġwo ven
Ġspot light
Ġcomple x
Ġheav yset
Ġvacuum ing
Ġbanan a
Ġmu ch
cot ch
mid dle
Ġmail box
Ġlet ter
Ġpurch as
Ġquest ion
Ġdia per
Ġcry stal
Ġstain ed
Ġaer ial
Ġtread m
Ġcirc uit
Ġavo id
Ġtig er
Ġgest uring
Ġhops cotch
Ġdee re
Ġflee ce
Ġelabor ate
Ġrad io
spect ators
firefight ers
Ġtechnic ian
abl ishment
Ġest ablishment
Ġaband oned
Ġspan ish
Ġfavor ite
Ġdanger ous
Ġbookst ore
Ġsubmer ged
pie ce
Ġump ire
Ġsciss ors
Ġunkno wn
Ġstetho scope
Ġfirewor ks
Ġtournam ent
b u
c s
c ar
c up
c ol
c ag
c lad
d ra
d ish
e le
e very
f low
f ish
g ro
g ling
g gs
i th
i pped
k ely
l if
l ies
m it
m allow
m ely
n umerous
t le
t ru
u ra
v est
z il
Ġ !
Ġ ver
Ġa mp
Ġw aring
Ġw ades
Ġs en
Ġs ling
Ġs ash
Ġs ips
an ging
Ġp ear
Ġc ul
Ġc yc
Ġm ing
Ġm es
hi er
hi oned
Ġth an
le nt
Ġt in
Ġt ide
Ġt ies
Ġt ilted
Ġg la
Ġg en
is on
Ġd om
Ġd am
Ġd ess
Ġd ental
Ġd umm
Ġon coming
Ġf in
Ġf er
Ġf ile
Ġh un
Ġh allow
Ġst ory
Ġwi lder
lo t
or a
Ġto e
et ti
ra y
Ġre al
Ġl ion
ic ial
Ġr ig
Ġan ci
Ġj elly
st ud
Ġwhite board
Ġn ude
Ġho u
Ġsh ing
Ġsh ed
Ġred dish
ce ment
ri m
Ġe ggs
ad ed
Ġher o
Ġher ding
Ġstre wn
Ġwor shi
Ġpa w
to on
Ġpo sed
Ġup hill
Ġback hoe
Ġcar toon
Ġma g
Ġle vel
Ġle gging
Ġle ns
Ġmo on
Ġra bb
Ġv o
Ġv ic
Ġv int
Ġcro ps
Ġsp i
Ġsp lit
Ġhand ling
ink y
Ġrid den
Ġsk ater
Ġsnow suit
Ġwa ff
Ġso ld
Ġso aked
Ġfa c
em ents
pp ers
Ġoff ers
Ġsun ba
Ġper ha
ist ers
Ġswim wear
Ġhair net
Ġcom for
Ġflo ck
Ġwalk ed
Ġsur ve
Ġstri king
Ġstri kes
Ġen sem
Ġbar n
Ġbar red
Ġse c
Ġse eds
Ġwind ing
Ġlea st
Ġli kely
Ġpro v
Ġpro gra
Ġsweat ers
umb er
Ġsl ip
Ġpur s
Ġsing ers
Ġex otic
Ġmicro sc
Ġskate boa
Ġob sc
Ġcap ture
Ġshop pers
Ġcan opy
Ġno ses
Ġprep ared
Ġri bs
Ġdri ed
Ġflow ery
Ġfire men
Ġfla sh
Ġfla ming
Ġbackpack er
Ġsub urban
Ġpass ed
Ġatt ent
Ġpaper work
iz es
iz ens
Ġpl u
Ġdra wn
Ġphotograph ing
Ġfil ming
Ġcur ved
Ġcur ious
Ġwe lder
ane led
Ġworks hop
Ġna pping
Ġsea son
Ġsea food
Ġoverloo ks
Ġaud io
Ġplat ter
Ġoffic ial
Ġcol lection
Ġsca red
Ġear phones
Ġchi ps
Ġchi cag
Ġcut off
Ġnet s
Ġim pro
Ġbur ying
Ġhar ves
Ġleash es
Ġcanoe ing
Ġbath ro
Ġdin er
ens ive
Ġwash er
Ġwash es
Ġeng aging
Ġsto ck
Ġtype wr
ung es
Ġobsta cles
Ġoper ate
wh at
Ġfen cing
Ġcas hier
Ġharness es
Ġblock ed
Ġnat ural
Ġz oo
Ġter min
Ġea st
Ġpig s
Ġped estrian
Ġkha kis
ang ed
Ġja zz
Ġadvertis ements
Ġyo ga
Ġclean er
Ġrub ble
Ġstack s
Ġport able
Ġcere al
Ġheadsc arves
Ġchick ens
Ġprete nds
Ġpumpkin s
Ġaut om
Ġemer ges
Ġsupp lies
Ġribb ons
Ġload ed
Ġgif ts
Ġfet ching
Ġdro pping
Ġgrind s
Ġhandle bars
Ġassem bly
Ġpill ars
Ġshel ter
Ġdesce nds
Ġdesce nding
Ġut ens
Ġsail boat
cra ft
Ġevery one
Ġwatermelo ns
Ġge ese
teen ag
Ġdu cks
Ġris es
Ġsmoo th
Ġmechan ical
Ġic y
Ġenclo sure
Ġnewly wed
Ġdet ector
Ġsnork el
Ġlip stick
Ġfocus ed
Ġtick et
Ġstro ng
Ġmod el
Ġbrace let
Ġcommun ic
Ġeuro pe
Ġconstru cting
Ġspir al
Ġsep arate
gn ant
sw im
Ġsty led
sur f
Ġjackham mer
Ġflood ed
Ġmarking s
Ġmarsh mallow
Ġartif icial
Ġhusk y
Ġbrow sing
pic ture
Ġskil let
Ġfootp rints
Ġpyra mid
fas hioned
tur ned
Ġones ie
Ġhus band
Ġreh ear
Ġhandica pped
tru cks
Ġdumm y
Ġwilder ness
Ġanci ent
Ġlegging s
Ġvint age
Ġperha ps
Ġensem ble
Ġmicrosc opes
Ġchicag o
b en
b ear
d i
f irst
f illed
g ar
g entle
h or
i ental
j a
m uffs
p or
p ad
r ation
w ater
Ġa ids
Ġw est
Ġw ade
Ġs if
Ġo p
Ġo x
Ġb or
Ġb ump
Ġb est
er o
er men
Ġp rou
Ġp each
Ġp uck
Ġp inned
Ġc ud
Ġc attle
Ġc ushi
Ġc ultural
Ġm ick
Ġm ist
Ġm ime
hi gh
Ġth ing
Ġt am
Ġt orch
ro t
Ġg ated
Ġd ome
Ġd ug
Ġd eter
Ġd ivers
Ġf ul
Ġf ills
la gers
en ger
Ġst orm
Ġst ance
Ġst udy
Ġwi e
or iental
Ġdo u
Ġdo ugh
Ġdo tted
and ing
and om
Ġbo ws
ch inese
Ġre ar
all ic
Ġl in
Ġhi st
ut y
Ġr iv
Ġan k
Ġan ch
Ġj ars
el led
Ġn er
Ġn ig
Ġba les
Ġlo u
um a
Ġho l
Ġho les
Ġho und
Ġho ses
Ġfro lic
Ġco ck
Ġco con
Ġro se
ver ty
Ġe m
Ġe ve
Ġsm ili
Ġgra ve
Ġbe ca
Ġk itt
Ġk ilts
Ġdown ward
Ġha ired
se en
Ġch ange
to ur
Ġbro ch
Ġpo verty
Ġgre eting
Ġcar ved
Ġby stand
bo b
bo ur
Ġdress ing
Ġbu ggy
red s
Ġle gged
Ġtra m
Ġover turned
Ġcro co
Ġcro quet
ain ing
Ġcon cent
Ġsp ons
Ġsp ider
Ġrid ding
Ġsk ies
Ġsk ills
Ġca ble
Ġbui lds
Ġcl ip
Ġso aking
Ġcam els
Ġsc antily
est ers
Ġguitar ists
ub by
Ġun lo
Ġun ion
Ġun seen
Ġar ri
Ġcom mer
Ġflo ppy
Ġperform ed
Ġfoot ba
Ġac com
Ġstri ke
sh op
Ġsa una
Ġche ws
Ġsweat pants
ne ck
Ġmus h
Ġmus cular
Ġex ch
Ġex pan
Ġag ility
Ġcap t
Ġcan on
Ġshe er
Ġdri ven
Ġgr inning
co la
Ġbig ger
Ġbes ides
Ġmotorc yclists
Ġsha ke
Ġsha pe
Ġcolorful ly
Ġdes ks
Ġmet allic
Ġsub st
Ġatt ach
Ġind ia
Ġbre a
Ġbre ath
Ġstair well
Ġbed s
Ġcouch es
gra y
Ġpainting s
Ġkn ives
Ġamer ica
Ġsqu in
Ġcra bs
Ġdra ws
Ġdra gging
ult aneous
Ġshou ld
Ġfil ms
Ġfil med
Ġstra ps
br unette
Ġpat ron
Ġgar ments
Ġdist ant
Ġstroll s
out door
Ġban ners
Ġhapp ening
Ġtake out
Ġdisplay ed
Ġint ense
Ġear muffs
Ġcollar s
cl ub
Ġland sca
Ġvar ying
Ġmult i
Ġcla w
Ġbat on
os ed
Ġham mers
Ġbalan ced
ba gs
Ġwea p
Ġwea ves
Ġgolf er
Ġvend ors
Ġpadd ed
Ġcr ut
bb ling
Ġda ily
Ġpe er
Ġpe ering
gu ys
Ġbra ids
Ġbra zil
Ġcover alls
Ġfest ive
Ġpan el
Ġrow boat
Ġbooks h
Ġincl ine
Ġtro ts
Ġcountry side
Ġcook ie
Ġpen c
Ġprin cess
Ġstar ring
Ġhal ter
Ġrac quet
Ġmess enger
Ġva c
Ġva ult
Ġretrie ve
Ġcarpet ed
Ġlead er
Ġdon uts
Ġcha ps
ident ial
Ġsim ultaneous
Ġpow der
Ġdump s
Ġhoop ing
Ġrug by
Ġemer ging
Ġtho se
Ġmotorb ikes
Ġformation s
Ġinter vie
Ġres idential
Ġelev ated
Ġph ones
Ġblur red
Ġintera ct
Ġprotest ers
Ġpun k
Ġtight ly
Ġroo ster
Ġwaterski er
Ġarch way
Ġadm ire
frie nd
Ġaim s
wheel er
bi les
Ġcru ise
Ġris ing
Ġang le
Ġang ry
Ġpict u
Ġtrim ming
Ġdeli vering
Ġgaze bo
Ġtor ches
Ġpurch ase
Ġquest ions
Ġquiet ly
Ġsal on
Ġrecl ining
Ġshru bs
Ġsees aw
Ġactiv ity
Ġactiv ities
Ġgoo fy
Ġdy ed
Ġresp o
Ġbaker y
Ġfashi oned
Ġsurg ical
Ġkaya ks
Ġstrum ming
Ġtwirl ing
Ġexercis es
music ians
Ġkabo bs
Ġax e
Ġtut u
Ġroast ing
Ġexpla ining
Ġextre mely
cow boy
gr and
Ġcyl inder
Ġrec ently
Ġhaul ing
Ġdepic ting
Ġsar i
Ġgal lo
Ġrif le
Ġacc ident
Ġfatig ues
Ġillumin ated
Ġblindfold ed
bea utiful
Ġrim med
Ġskim py
Ġunus ual
Ġwindbre aker
every one
Ġhallow een
stud ents
Ġshing les
Ġtermin al
Ġautom o
teenag ers
Ġrehear sing
bear ded
Ġprou d
Ġmick ey
Ġful ly
Ġhist or
Ġbeca use
Ġcommer cial
Ġaccom pan
Ġexpan se
Ġsimultaneous ly
a i
c ome
c ity
d ers
d ie
d eep
d ile
e er
e cut
g ie
h ang
i en
i ent
j ump
l ish
l ights
m ar
m ut
m art
n ets
o dy
p hi
p ress
r is
s y
s te
t ies
u ch
u ish
y er
y or
Ġ 7
Ġ :
Ġ ide
Ġ que
Ġa b
Ġa ff
Ġa we
Ġw el
Ġw ool
Ġs ure
Ġs elf
Ġo ur
an ting
an ces
an itor
Ġb att
Ġp ing
Ġp or
Ġp ant
Ġc i
Ġc oun
Ġc em
Ġc ust
Ġm ount
Ġm ats
Ġm illing
Ġth om
Ġth read
Ġt ed
Ġt rou
Ġt ying
Ġt em
Ġt elling
Ġt esting
ro pe
Ġthe se
nd o
nd y
nd ers
Ġg ird
Ġg lowing
Ġg orge
Ġd ent
Ġd alm
la ting
Ġh op
it ish
it ation
at i
om ot
Ġst ead
Ġwi g
Ġdo zen
and el
et le
Ġbo red
ra d
Ġy et
Ġy our
Ġre a
Ġre m
Ġre le
Ġre cre
Ġre no
Ġre ci
Ġl im
Ġhi des
ic ely
ic ature
Ġr icks
Ġr andom
Ġan s
Ġan t
Ġan y
wn s
st on
st ers
st ri
st air
el i
Ġn ational
Ġn icely
Ġba ggy
Ġlo vely
gh etti
Ġsh ut
Ġco ke
Ġloo se
am a
Ġe lder
Ġe iff
Ġla ss
Ġla mps
Ġgra ying
Ġbe yo
Ġbe etle
Ġwater craft
se ball
Ġpa il
Ġch amp
ie ld
Ġsome ones
Ġback ward
Ġcar icature
ren ched
Ġbu g
Ġma j
Ġma sc
Ġle m
Ġle mon
Ġtra p
Ġtra vers
Ġra fts
Ġover coat
Ġcon so
if ied
ig an
Ġhand he
Ġsn ar
ru g
Ġnear ly
ee ing
Ġsk ys
Ġca kes
Ġwork out
Ġwork ben
Ġsnow s
Ġsnow sho
Ġcl er
Ġso a
Ġfield s
Ġcrowd s
ph y
Ġsc ience
Ġoff ering
Ġclo ck
Ġclo sing
Ġgo ats
Ġsun s
Ġclimb ed
Ġhead first
Ġper f
Ġper io
Ġun i
Ġun ison
Ġsho uting
Ġsit u
Ġgu ide
Ġgu ides
Ġar ray
Ġhel l
Ġbr itish
Ġflo ur
Ġwalk i
Ġpre gnant
ha w
Ġac cess
Ġthem ed
Ġstri ps
Ġboo gie
Ġkid die
Ġroad way
Ġroad work
Ġbar ks
Ġbar ric
Ġse lection
Ġpro pped
Ġsl inky
ne w
Ġte eter
Ġdan gling
Ġlook ed
Ġex it
Ġex per
Ġex ecut
ag ne
Ġcan cer
iv an
Ġde er
Ġde al
Ġde fe
Ġshe ets
ort ed
Ġgr ins
Ġpart ying
Ġsurround s
Ġsurround ings
Ġfe eds
Ġsha ve
Ġsha ft
Ġkick ed
ron ts
Ġam a
Ġind ex
Ġpol it
Ġnight club
Ġcor rid
Ġbea gle
Ġey ed
Ġey el
Ġpl ush
bble s
Ġski pping
Ġclothes line
Ġdra w
Ġfo il
Ġequ estrian
Ġbet ter
Ġstru ggles
Ġcur rent
Ġview er
ber ries
Ġsu ch
Ġstra dd
pa rents
br ide
Ġstat i
Ġcliff s
Ġpick er
Ġsweatshirt s
Ġpres er
Ġpres ence
Ġdock ed
Ġcol umn
Ġtracks uit
Ġmatch es
Ġser vice
Ġtong ues
Ġcast s
Ġcla p
Ġwait er
Ġwait ress
os aur
Ġconcer ned
ba seball
Ġdin ers
Ġdin osaur
Ġcard igan
Ġwash ed
Ġsto op
Ġshad ed
Ġcrou ch
Ġgroom s
Ġtro mb
Ġdev il
Ġdev ices
Ġz o
Ġdem ol
Ġloc omot
Ġpen gu
Ġspe cial
Ġstar ts
Ġ1 0
Ġ1 1
Ġfig ur
res ent
Ġrub s
Ġmess age
Ġstool s
com mut
Ġslo pes
Ġjugg ler
fire men
Ġposs ession
Ġparach utes
Ġtw ent
Ġrollerbla der
Ġneckla ces
Ġdust pan
Ġentertain s
Ġbarrel s
Ġleaf less
Ġembra ces
che f
Ġremo te
Ġinter ior
Ġent ry
Ġgl ider
Ġshoo ts
Ġph ys
Ġtech no
Ġtech ni
Ġexhib ition
Ġsor ts
Ġshar pen
Ġtuxed os
pro f
pro t
Ġattra ction
Ġassem ble
Ġassem bling
Ġext ra
Ġolymp ic
Ġinterest ed
Ġawa its
Ġkno ck
Ġparas a
Ġparas ail
Ġcollect ing
Ġinvol ved
Ġsuper mark
Ġsear ch
Ġarr anged
Ġsaus age
Ġcongreg ating
Ġcongreg ation
Ġfea ther
Ġfea thered
Ġhuddle d
Ġsponge bob
Ġsnork eling
Ġbicyc ling
Ġchisel ing
Ġrecl ines
Ġshru b
Ġsquirt ed
Ġtru cks
Ġfound ation
Ġcommun ity
Ġseagull s
Ġspark lers
Ġfashi on
Ġsurg ery
Ġaddress es
Ġkaya kers
Ġshie lding
music ian
cas es
Ġasce nding
Ġalcoho l
Ġalcoho lic
Ġsquee zing
Ġske let
Ġfam ous
Ġrevie wing
Ġswe et
Ġmay be
Ġspa ghetti
Ġscratch ing
Ġflu id
Ġexca v
Ġsym bo
Ġmur ky
Ġjud ges
ski iers
Ġarchite cture
Ġvert ical
Ġgrown up
Ġhorizont al
Ġarrange ment
Ġenthusia stic
Ġthre w
Ġsunsh ine
Ġseg way
Ġcann on
Ġmega phone
Ġgrow ling
Ġtrot ting
ele ven
flow ers
Ġsen ior
Ġcyc ling
Ġgen er
Ġharves ting
Ġtypewr iter
Ġutens ils
Ġeurope an
gentle man
hor se
Ġcushi on
Ġtam bour
Ġank le
Ġlou is
Ġfrolic s
Ġbystand ers
Ġcroco dile
Ġspons ored
Ġclip board
Ġexch ange
Ġsubst ance
Ġthom as
Ġted dy
Ġreci pe
Ġricks haw
stair s
Ġeiff el
Ġbeyo nd
Ġchamp agne
Ġmasc ara
Ġhandhe ld
Ġskys cra
Ġworkben ch
Ġperio d
commut ers
a h
a cent
b ut
b ird
b ike
c ri
c uses
f o
f eter
f ield
g i
g ame
h ade
i b
l i
l ley
l ider
m ined
o k
o wn
o ver
o klahoma
p i
p ar
p ri
p ong
p aneled
r un
r up
t w
t z
t es
t im
u x
u le
u lo
v ig
w al
w ag
x y
y ellow
Ġ q
Ġ ir
Ġ id
Ġ ur
Ġ ig
Ġ ip
Ġa board
Ġa ctive
ing o
ing er
Ġw on
Ġs an
Ġs ip
Ġs ize
th i
Ġo k
Ġo re
Ġo ar
Ġo il
Ġb ark
Ġb attle
Ġin coming
er ts
er ia
Ġp le
Ġp is
Ġp al
Ġp on
Ġp am
Ġp ops
Ġp uzz
Ġp uffy
Ġp uma
Ġm i
Ġm ad
Ġm ike
le ngth
Ġt ell
Ġt imes
ro s
ro ning
ro ws
ar ation
Ġg inger
Ġd ach
Ġd itch
Ġd rop
Ġd renched
Ġf id
Ġf ists
Ġf erry
Ġf aded
la ble
la dies
Ġh unch
Ġh ook
it ating
it ual
at ers
ck ab
om ing
Ġst em
Ġwi ping
lo ver
lo gy
or n
or ing
or ts
un te
es us
Ġdo d
Ġto wed
on loo
id ge
id ay
Ġbo ut
ch et
te nds
oun ts
Ġre ve
Ġre sc
Ġl ie
itt er
ge ons
ers by
Ġr ul
Ġr ise
Ġr umm
Ġr itual
Ġj ug
Ġj ets
Ġj esus
Ġn i
ea red
oo se
Ġlo ll
Ġlo ving
Ġlo af
Ġbl ues
um ed
Ġsh in
Ġsh ined
Ġfro g
Ġout d
Ġout cro
Ġco b
Ġro ses
ver n
il la
il ly
ce pt
Ġe ight
Ġe gg
Ġe nds
Ġsm ir
Ġla ps
Ġla ug
Ġbe ating
Ġk ore
Ġk itten
Ġher d
ve yor
ks wag
Ġpa p
Ġpa cking
Ġpa ges
Ġch al
Ġch ess
ent ry
ent ial
Ġsw allow
Ġsw ung
Ġpo ke
Ġsome thi
Ġback fl
Ġbrown ish
Ġfor t
Ġne cks
Ġbu d
Ġbu ck
Ġma ster
Ġle is
ble m
Ġyel ls
Ġmo vie
Ġra m
Ġra v
Ġcro cs
Ġcon vert
Ġcon veyor
Ġsp are
Ġsp rints
ig ator
Ġhand made
les cent
Ġca th
Ġca ss
Ġca use
Ġca feter
Ġwork man
Ġsnow bank
ho ld
ho op
Ġcl i
Ġrock et
pp les
und s
und reds
Ġblo wn
do t
Ġsun hat
Ġper cuss
ist ed
ub e
Ġsho ts
Ġbus ily
Ġar id
ff y
Ġund ers
Ġbr and
ol f
Ġpre vent
Ġpre tz
Ġtan ks
Ġac ce
Ġboo t
Ġdark er
Ġhe ight
ip op
Ġarm or
Ġtrain er
Ġunif o
Ġsa ws
Ġpro per
Ġsweat y
Ġte nd
tor y
tor ch
ric t
Ġhelmet ed
Ġve il
Ġstick ers
Ġex tends
Ġex cept
Ġaf ro
Ġmicro pho
Ġcap tain
Ġall igator
Ġprep aration
Ġskateboard ers
Ġri pped
Ġgr in
Ġgr ate
Ġgr illed
Ġcle ats
Ġflow e
ca kes
Ġfire work
co ats
Ġmotorc yc
Ġmark ers
Ġbow tie
Ġlight er
Ġkick box
Ġfla me
Ġdis co
Ġdes cri
Ġsub w
Ġhu rt
Ġhu ckab
Ġcost u
Ġpass ersby
Ġcor d
Ġjo e
Ġjo gg
de red
Ġvehi c
Ġpul lover
Ġkn ow
Ġkn ight
Ġski ps
Ġsqu at
Ġsqu ad
Ġsqu irts
Ġdrum sticks
Ġfo cuses
Ġwr ite
Ġcont ents
Ġcont roller
ctor s
Ġtrail s
Ġhood s
Ġview ed
Ġblow torch
Ġwe ed
Ġwe ird
Ġsil k
Ġvol kswag
Ġinf ants
let es
Ġglo be
Ġdist rict
Ġfun ction
Ġna ils
Ġna vig
mo tion
Ġvolley ba
Ġstud ies
Ġstud ded
Ġstroll ing
Ġti ara
Ġbare ly
wel ve
Ġint ric
Ġdig ital
Ġcut out
Ġrep resent
Ġim port
Ġqu ad
Ġqu art
Ġbusiness men
Ġ2 5
Ġshi sh
Ġcla ps
Ġstream ers
Ġleash ed
Ġvi et
Ġcir cles
Ġdire cting
Ġchain ed
sm ith
so ldi
Ġstraw berry
Ġstraw berries
Ġleg o
Ġleg os
Ġpier ced
Ġeng lish
Ġsto cking
Ġproject ed
Ġcontain s
gu age
Ġvis itors
Ġtu gging
Ġoper ation
Ġtack les
Ġwindows ill
Ġviolin ist
Ġsculpture s
Ġharness ed
Ġtro phy
Ġtro lley
Ġtowel s
Ġcook ies
Ġi roning
Ġter ri
Ġcarp entry
Ġdrawing s
Ġchest ed
Ġspe eding
work men
Ġped al
Ġpajam a
Ġparticip ants
ang ular
Ġja gged
Ġsheep dog
Ġguard ing
Ġ1 3
Ġrac ers
Ġtoo k
Ġshoe less
Ġsum mit
Ġretrie ves
Ġpair s
Ġlab rad
Ġdemonstr ates
Ġmin ivan
Ġprof ile
flo p
Ġadj acent
Ġwashing ton
Ġsaxop h
Ġtw in
Ġtravel s
Ġjewel ery
Ġwarm ers
Ġcond ition
Ġdoll ar
Ġdoll house
Ġbeg inning
Ġprete nd
Ġpin ea
Ġmuzz les
Ġgrand mother
Ġpeace ful
Ġremo ves
Ġstun ts
Ġsleep y
Ġcerem on
Ġgam bling
Ġru ins
Ġsco ops
Ġpizz eria
Ġwakeboard er
Ġtight rope
Ġdro ps
Ġorder ing
Ġmaterial s
Ġbound ing
Ġdesce nd
Ġbillboard s
Ġav ai
Ġmeas ure
Ġsupport ed
Ġsi ppy
Ġportra its
bi ker
bre ros
yo uth
Ġdolph ins
Ġparas ails
Ġcollect ed
Ġfork lif
Ġic ed
Ġwar ming
Ġmass age
Ġscra bble
sho t
Ġlan ter
Ġlett uce
Ġvil lagers
Ġcrash ing
Ġtor n
Ġcurtain s
Ġconf used
Ġhambur ger
Ġoc cup
Ġgoo se
Ġgri ma
Ġfed ora
Ġrecord s
Ġpunch es
Ġdy e
Ġsep ar
Ġstrum s
Ġexercis ing
Ġovers ized
Ġkabo b
Ġsnowmo biles
Ġsol itary
Ġtex as
Ġbon net
Ġfle a
Ġfle x
Ġrevie ws
Ġkee ps
Ġexca vation
Ġara b
Ġara bic
Ġsom breros
Ġmaneu ver
Ġrust y
Ġnur ses
Ġbudd hist
Ġacrobat ics
Ġcharact er
Ġcharact ers
Ġu k
Ġado lescent
Ġnam ed
Ġapparent ly
Ġstrugg le
Ġclas ps
greyhound s
Ġpharm ac
Ġinstall ing
pain ted
Ġinstruction s
Ġcent ral
Ġrecor ding
Ġnood les
Ġmoss y
Ġpiercing s
Ġletter ing
Ġtreadm ill
Ġmes h
rim med
Ġrabb it
Ġvic tory
Ġwaff le
Ġsec ure
Ġpurs u
Ġbathro be
Ġbor der
Ġcud dling
Ġdeter mined
Ġdou ble
Ġkitt y
Ġbroch ure
shop pers
Ġmush room
Ġpatron s
Ġbooksh elf
Ġgallo ping
Ġautomo bile
Ġaccompan ied
phi c
Ġgird er
Ġhop ping
Ġreno v
Ġans wer
Ġlamps hade
Ġlem ons
Ġcorrid or
Ġlocomot ive
Ġtechno logy
Ġtechni que
prot esters
Ġassemble d
Ġparasa iling
Ġsupermark et
Ġskelet on
Ġip od
Ġpam ph
Ġdach sh
Ġhunch ed
onloo kers
Ġreve aling
Ġrul er
Ġloll ipop
Ġlaug hi
Ġkore an
Ġcafeter ia
Ġpercuss ion
Ġpretz els
Ġhuckab ee
Ġimport ant
Ġlabrad or
Ġforklif t
a ss
a ws
a cy
b ra
b ul
b eat
b are
b read
b right
c ir
c im
c are
d irt
e ing
f am
f ives
g ear
g ym
g olf
h ard
h ine
i k
i ro
j ack
k ea
m ountain
m ates
n ie
n ative
o y
o ke
p ick
p ool
p oms
r d
r it
s ers
s ks
s aw
t ch
t ers
t ter
t ation
t welve
v ol
v ous
w on
w et
w are
w ls
w eds
y ers
y ou
z ed
z ards
Ġ et
Ġ ult
Ġa la
Ġa irl
Ġa stro
in i
in ated
Ġw it
Ġw oo
Ġw anting
Ġs in
Ġs es
Ġs ed
Ġs amp
Ġs isters
Ġo wl
an ke
Ġb it
Ġb ind
Ġb ats
Ġb ingo
Ġp oun
Ġp oo
Ġc inder
Ġm y
Ġm ight
hi p
hi kers
Ġt ear
Ġt us
Ġt ip
Ġt attered
ro ts
ro ng
ar ts
nd on
nd ack
Ġg y
Ġg iv
is m
Ġd il
Ġd est
Ġd uff
Ġd ivid
Ġd eath
Ġf ut
Ġf oo
Ġf ling
Ġf ellow
la ce
Ġh en
Ġh eat
Ġh ud
Ġis le
it ed
at ic
at ly
Ġman ner
Ġman ual
ck ers
ck led
om et
Ġst ood
lo cal
ir ie
Ġdo c
Ġdo ts
Ġto en
Ġto es
Ġto te
et ery
ear ch
Ġbo wing
Ġbo ston
Ġpla c
Ġre ct
Ġre aring
Ġl id
Ġl umber
Ġl unges
itt ed
Ġplay i
Ġplay ful
Ġplay house
ut ist
ge on
Ġj ane
Ġj anitor
Ġn es
Ġn uts
Ġgirl friend
Ġyoung ster
Ġpeople s
Ġblack berry
Ġblack smith
Ġlo n
Ġlo st
Ġlo ves
Ġlo nel
Ġlo cked
Ġlo ndon
Ġwat chi
Ġout ing
Ġco la
Ġro mp
Ġro tt
ri ver
ad ult
Ġla ve
Ġla den
Ġgra ce
Ġgra phic
Ġbe gging
Ġwater y
Ġk ill
Ġk ites
Ġk ara
Ġk won
Ġas h
Ġas k
ump ed
Ġta e
Ġta ught
Ġta lent
se curity
Ġpa rent
Ġch or
Ġch anging
Ġch ubby
Ġsw am
Ġsw eep
Ġbro thers
Ġpo ur
Ġpo kes
Ġpo tty
Ġpo ised
ke ys
Ġgre et
Ġsome body
Ġsome what
Ġback up
Ġback lit
Ġcar ve
Ġcar rots
Ġfor d
Ġfor ce
Ġfor ming
bo ats
Ġgreen ish
Ġne atly
Ġbu cks
Ġma chi
Ġor ph
ind ividu
Ġmo ut
Ġtra ys
Ġra king
Ġra ther
Ġra ke
Ġra pp
Ġra gs
Ġra cks
Ġv eter
Ġover hang
Ġcro p
Ġcro tch
Ġsp l
Ġsp ool
Ġsp ell
Ġsp ike
Ġperson nel
ig ently
Ġrid ge
Ġsnow ing
Ġsnow men
Ġsnow storm
ho le
ho ops
Ġrock er
Ġso lo
Ġso lder
Ġso ars
em p
ore s
Ġcam per
Ġsc outs
Ġdr ying
Ġblo ss
Ġgray ish
Ġper ple
ist a
Ġhair style
Ġun cut
Ġit al
ish ing
Ġgu est
ud s
Ġar ched
Ġar gu
Ġar row
Ġhel lo
Ġbr ings
Ġcom b
Ġcom bing
Ġflo rid
Ġflo tation
Ġpar ts
Ġfoot br
Ġtan ned
Ġad d
Ġad iro
Ġwh ack
Ġwh eat
Ġdark ened
Ġen er
Ġbar ren
Ġbar ney
Ġrest room
Ġconstruction s
Ġsuit cases
Ġli ber
Ġli zard
Ġsa les
Ġsa fe
Ġsa ber
sk a
sk iers
Ġche ers
Ġpro ps
Ġpro blem
Ġcomp o
Ġcomp act
Ġsl ice
Ġsl umped
ust er
Ġte thered
Ġband age
Ġbase ba
ric al
Ġfish ermen
Ġfl iers
Ġsign als
Ġsign aling
tt ers
Ġcap es
Ġfr ance
Ġmar riage
Ġmar bles
Ġcan es
Ġcan ad
Ġcan ister
Ġday care
Ġpi lot
Ġno thing
Ġno ise
Ġdri bbles
Ġrestaur ants
ort ers
Ġpart ner
Ġste w
Ġste ers
Ġfire trucks
co al
co ck
co lor
Ġfe els
ey ed
Ġseat ing
Ġdis k
vel in
Ġdes per
Ġmet er
Ġpast a
Ġpast ure
Ġbook bag
loo ks
Ġbear ing
Ġsurf ers
Ġpass ion
Ġpass erby
Ġcell s
Ġhouse hold
Ġcor al
Ġcor ndo
Ġcor gi
Ġcre ate
Ġcre ates
Ġcre ature
Ġjo g
Ġjo in
Ġal ike
Ġal umin
iz er
Ġshoes hine
Ġpra irie
Ġkn itted
Ġcra cked
Ġlot tery
Ġvie ws
sc ri
Ġconvers es
Ġcur led
Ġsky d
ber y
Ġsu gar
Ġcheck out
Ġwe ight
Ġwe igh
Ġrain ing
Ġrain storm
Ġrain coats
roll ing
Ġvol unte
Ġpat rol
Ġstructure s
let te
Ġsee ing
Ġsee ming
art ist
Ġsea sho
Ġmon ks
Ġti ps
group s
Ġpaint ers
Ġmask ed
Ġser ious
Ġcounter top
Ġrep elling
Ġscre ens
Ġim ac
Ġbur ger
Ġbur lap
Ġbur rit
Ġpot ential
Ġhar vest
Ġstream s
Ġvi br
Ġbat ting
ia chi
Ġfol k
Ġdecor ate
Ġveget ation
Ġonloo ker
Ġwash ers
Ġeng age
Ġsto oping
Ġdesk top
Ġret ail
Ġret aining
Ġbull s
Ġpe pper
Ġpe ppers
Ġbra ided
Ġwine glass
lat es
lat ion
mb ling
Ġtu x
for k
Ġfight er
Ġoper ator
Ġstad i
Ġmed itating
Ġstr an
Ġstr ide
Ġcook out
Ġsprink led
Ġmix es
Ġdem anding
Ġi kea
Ġmultico lor
Ġteach es
Ġspe nding
Ġja velin
Ġeye bro
Ġva ulting
Ġkeyboard s
Ġpitch ing
Ġpitch fork
Ġstack ing
Ġown ers
Ġtoss ed
Ġdon ning
Ġfloat ies
Ġprof ession
Ġposs ible
Ġpow ered
Ġrece ive
Ġparach uting
Ġpet als
Ġtravel ers
Ġcelebr ate
Ġplant ed
Ġengine er
Ġnap kin
Ġmas on
Ġpatch es
Ġgrand son
Ġfabric s
crowd s
Ġrou lette
Ġremo ve
Ġinter net
Ġres earch
Ġelev ators
ten nis
Ġdesign ed
Ġgl iding
Ġsimilar ly
Ġdoctor s
Ġexcited ly
Ġodd ly
Ġorgan izing
Ġsco op
Ġdro pped
Ġsna ps
Ġcomm on
Ġwo nder
Ġpress es
Ġya wns
Ġorn am
Ġscream s
Ġlean ed
Ġmotion s
Ġspeed o
Ġsi bling
Ġsund own
Ġgrou ch
Ġevery thing
Ġevery where
Ġkno cked
bi kers
Ġfeat ures
Ġhighchair s
Ġsuper vis
Ġpri est
Ġcru is
Ġmu gs
Ġslic es
Ġbulldo g
po int
tend o
Ġlan es
Ġlan guage
Ġcoast line
Ġoppon ents
Ġturt les
Ġexplo res
Ġexplo sion
Ġsurpr ise
Ġsal vation
Ġcop per
Ġsees aws
Ġsla m
tho use
Ġoc cur
tra in
Ġspir it
Ġaddress ing
Ġattack ing
Ġshie lds
Ġchar coal
Ġsnowmo bile
Ġtex ting
Ġassist ance
Ġsquee ze
Ġcub s
Ġtut us
Ġfam ilies
Ġlimb s
Ġke g
Ġkee ping
Ġtast ing
motorc ycle
Ġextre me
Ġturtle neck
Ġnur sing
Ġretur n
olo g
Ġslow ly
Ġinc ense
Ġpr ide
Ġcit izens
Ġshell s
Ġbroad ly
Ġstrugg ling
Ġpharm acy
rer s
Ġpom poms
Ġpud dles
Ġpeel ing
Ġnin ja
Ġnin tendo
Ġgras ping
Ġsket ch
Ġcomfort able
Ġbarri ers
Ġpurchas ing
gro wn
Ġver izon
Ġcul ture
Ġdom ino
Ġdam aged
Ġdess erts
Ġhun ting
Ġmag ic
Ġvo cal
Ġsunba thing
Ġcomfor ter
Ġprov iding
Ġprogra m
Ġattent ively
Ġseason ing
surf er
Ġwest ern
ero le
Ġner vous
Ġhol iday
Ġcocon uts
tour ists
Ġconcent r
Ġunlo ading
Ġarri ve
Ġcapt ured
Ġbrea thing
Ġsquin ting
Ġweap ons
Ġcrut ches
Ġpenc il
Ġadmire s
Ġhistor ical
Ġque en
Ġwel come
Ġbatt ling
Ġcem etery
Ġmount ed
Ġdent ist
Ġdalm at
Ġlim o
stri ped
Ġmaj or
Ġsnowsho es
Ġcler k
Ġuni que
Ġpolit ical
Ġeyel iner
Ġstradd ling
Ġpengu in
Ġfigur ine
Ġphys ical
Ġsharpen ing
prof essional
Ġshrub bery
Ġsymbo l
Ġtambour ines
Ġskyscra per
Ġir ish
Ġur in
Ġpops icle
Ġginger bread
Ġoutd oo
Ġchal len
Ġbackfl ip
Ġconvert ible
Ġcass erole
Ġacce p
Ġvolkswag en
Ġintric ate
Ġquart et
Ġviet nam
soldi ers
Ġsaxoph ones
Ġceremon ial
Ġavai lable
Ġlanter ns
Ġoccup ied
Ġflex ing
Ġpharmac ist
bare foot
fam ilies
Ġult imate
Ġala ska
Ġses ame
Ġpoun ces
Ġtus ks
Ġgiv en
Ġdil igently
Ġduff el
Ġkara oke
Ġorph ans
Ġperple xed
Ġargu ing
Ġflorid a
Ġfootbr idge
Ġadiro ndack
Ġliber ty
Ġcorndo gs
Ġalumin um
Ġburrit o
Ġeyebro ws
a v
a ult
a cles
b c
b each
c ell
c ars
c yclists
c ier
c ube
d ad
d eling
d eli
e ve
f arm
f rom
f ronts
h el
h ea
h ur
h ad
h undreds
i ped
k ay
m ig
n al
o opy
p re
p ea
p upp
p art
p ipe
p arent
r ide
r ider
s en
s itting
s cre
s bc
t an
t is
t ic
u itt
u ge
v a
v in
v ro
v id
v ag
w all
w ers
w ea
x im
y a
y ed
z ag
Ġ ?
Ġ iv
Ġa id
Ġa ward
Ġa ler
in ter
in ation
in ary
Ġw ants
Ġw ou
Ġs le
Ġs all
Ġs ow
Ġs alm
Ġs ights
th y
Ġo ll
Ġo sc
an ut
Ġb er
Ġb ong
Ġb ins
Ġb ern
re ading
re scent
Ġin k
er ior
er gency
Ġp ens
Ġc eram
Ġm el
Ġm ul
Ġm ong
Ġm ops
hi gan
Ġth r
le in
Ġt umb
Ġt eep
Ġt ests
Ġt iss
Ġt ilts
ro ls
Ġg ain
Ġg ates
Ġg ently
Ġg ang
is ley
Ġd ing
Ġd or
Ġd id
Ġd ie
Ġd ice
Ġd arts
Ġon ward
Ġf ri
Ġf ine
Ġf iring
la ged
Ġh ul
Ġh sbc
en sely
it ive
it ime
at ively
Ġman tis
ck en
Ġst or
Ġst ate
Ġst yl
Ġwi zard
lo n
or ic
or ial
un ion
un if
Ġdo zes
Ġto n
Ġto ned
Ġto pping
Ġto pped
Ġto tter
on o
on se
Ġwhi s
id as
id ated
and s
et e
et ies
Ġbo a
Ġbo om
Ġbo ating
ra ce
ra cial
ed ics
ss t
Ġy ears
Ġy ama
Ġy anke
Ġre en
Ġre eds
Ġre union
Ġl ick
Ġl iner
ic ious
ic ulo
Ġr ival
Ġr ustic
Ġan sw
Ġj ar
Ġj our
Ġj unk
st s
st y
st ing
st ra
st ed
st ones
st umed
Ġn on
Ġn ine
Ġn est
Ġba king
Ġba ke
oo ks
Ġlo b
Ġlo ud
Ġlo cker
Ġlo unges
Ġbl uish
Ġho e
Ġho lder
Ġho using
ur ry
Ġsh ant
Ġsh ares
Ġsh ading
Ġsh amp
Ġfro l
Ġout er
Ġco ur
Ġco als
Ġwal let
Ġwal mart
Ġro c
ver ted
ver pool
il er
ri or
ri ger
am i
Ġe ver
Ġe motion
Ġla ce
Ġla thered
Ġla cross
Ġgra pes
Ġbe e
Ġbe ans
Ġbe ater
ard i
ct u
Ġgroup ed
Ġk et
Ġk im
Ġk lein
im p
im ing
Ġrun way
ve lo
Ġstre ngth
Ġha iling
Ġha wk
Ġta k
Ġta ped
ow s
Ġpa s
Ġpa y
Ġpa ving
Ġpa use
Ġpa ils
Ġpa vil
Ġpa lace
Ġpa isley
Ġch andel
Ġsw irl
Ġsw ad
Ġpo ured
Ġup sca
Ġback pa
Ġback hand
Ġcar ca
Ġcar rier
Ġbrown ies
Ġfor rest
bo rers
Ġne eds
Ġbu ys
Ġbu bb
Ġbu cked
Ġbu oy
Ġma c
Ġma ze
Ġma gn
red ible
Ġor ders
Ġhat e
Ġle i
Ġle ss
ind le
Ġmo ck
Ġmo thers
Ġmo cking
Ġmo sa
Ġtra c
Ġra w
Ġra ging
Ġra ys
Ġra ids
Ġv w
Ġv ers
Ġv ivid
Ġv ast
Ġv uitt
Ġover all
Ġover grown
Ġcro w
ain s
Ġcon c
Ġcon ga
Ġball game
Ġsp out
Ġsp ikes
Ġsp reading
Ġperson al
if orn
Ġhand wr
Ġhand bags
Ġside bur
Ġsn oopy
Ġnear s
orm ed
Ġca sc
Ġca pped
Ġca bles
Ġwork ed
Ġwork men
ian ce
Ġsnow f
Ġsnow ca
ho t
ho oping
Ġwa g
Ġcl inging
Ġcl uster
Ġso us
wd river
Ġfa ux
em ergency
ore scent
pp led
Ġcam ps
Ġcam pa
Ġcam pers
ph ony
Ġsc ri
Ġsc ary
Ġsc ient
Ġoff er
Ġdr unk
Ġclo ses
Ġtop ic
Ġgo th
Ġpic n
Ġsun flowers
Ġhead gear
Ġthat ched
Ġsand s
Ġsand al
ps i
est ig
ist ic
form al
Ġhair y
Ġun to
Ġun ident
Ġread ying
Ġsho uts
Ġsoc c
qu ik
Ġcom bat
Ġflo rescent
Ġwalk ie
ol ian
Ġpar rot
Ġsur geon
ant ed
ant ic
ant ly
Ġpre hist
Ġpre scri
Ġcolo ur
Ġtan g
Ġad ding
Ġad vent
Ġad idas
Ġwh arf
dle d
Ġstri cken
Ġhe ine
Ġten n
Ġbar b
Ġbar re
Ġrest ra
Ġse x
Ġse wer
Ġgame cube
Ġhands aw
Ġtrain ed
Ġsuit e
Ġli verpool
Ġsa u
Ġsa uce
Ġbic ycl
are l
Ġground s
Ġga p
Ġsweat s
Ġcomp letes
Ġsl anted
ust on
Ġband s
met al
Ġmus cle
Ġve g
Ġmic higan
ush ing
ag er
Ġcap ris
Ġmar itime
Ġstore fronts
Ġapp re
Ġapp ly
Ġapp arel
Ġtri o
iv ed
iv ated
Ġall y
Ġpi led
str ide
Ġtre ats
Ġtre ndy
Ġno vel
ere es
Ġart icle
Ġri ot
Ġdri vers
Ġdri bbling
Ġgr an
Ġgr ating
Ġcle ared
Ġfore front
Ġhill top
Ġhigh er
Ġste er
ca ucasian
co stumed
Ġfe ed
Ġsha pes
Ġcow girl
Ġseat tle
Ġdes e
Ġmach ete
Ġbody suit
Ġfrisb ees
Ġbackpack ers
Ġam ounts
Ġam bul
Ġtr ink
we red
Ġcost a
Ġpass age
Ġcell pho
Ġboard ed
Ġbrid ges
Ġatt ired
Ġstone hur
Ġme an
Ġbre eds
Ġstair ca
Ġcor p
Ġcre ation
Ġcre vice
Ġbea uty
Ġbeard s
Ġbott led
Ġal read
be hind
Ġtur f
bble d
Ġkn its
Ġsqu ares
Ġcra yon
Ġcra fting
Ġcra zy
Ġdra wer
Ġfo lders
Ġequ ipped
graph er
Ġcont in
Ġcont rols
uff ed
Ġfour s
Ġfour th
Ġspea kers
Ġhome work
Ġhood ies
Ġsu cking
Ġblow er
pa ved
Ġwe b
Ġstat es
Ġref riger
Ġref erees
Ġclass ical
Ġclass mates
Ġgar ter
Ġreach ed
Ġglo bal
Ġna ps
Ġwin nie
Ġsea horse
Ġform ed
Ġcompet es
Ġeyes had
Ġschool girls
arm ed
Ġpres chool
Ġdock ing
ty pe
zz y
Ġint ensely
Ġsca le
ced es
head ed
ger ly
Ġser v
Ġrep orters
Ġscre wdriver
Ġnet ting
Ġnet ted
Ġcream er
Ġim mig
Ġqu al
Ġneck ed
Ġtalk ie
Ġhar p
Ġspo ons
Ġtrampol i
Ġcand id
Ġcir cus
Ġbath es
Ġgraffiti ed
Ġexam ined
Ġdire ctor
Ġdire cts
Ġwea ve
Ġwea thered
Ġmirro red
Ġmeat s
Ġgolf ers
Ġplatform s
bb ed
Ġshad y
Ġmirror s
Ġda vid
Ġpe anut
Ġlit tered
Ġbra ces
Ġwaters kis
Ġvis it
Ġreflect or
Ġreflect ed
Ġracket s
Ġtu ss
Ġfest iv
Ġfight ers
Ġoper ated
Ġpan cakes
Ġfal con
Ġwaterf a
band s
Ġeat ery
Ġmem orial
Ġtrans por
Ġmed al
ton ed
Ġpea cock
Ġcal vin
Ġcal iforn
Ġsled ge
Ġfair way
Ġsprink les
Ġsprink ling
uck y
Ġcarp enter
Ġprote ct
Ġprote cts
Ġexp osed
Ġwell s
Ġspe eds
Ġspe ckled
Ġligh thouse
Ġass ists
Ġass isting
Ġped aling
Ġartist ic
go ers
Ġmust ard
Ġmust ached
Ġmust ang
Ġeye lash
Ġclean ed
Ġcamouf laged
Ġmom s
Ġhow ling
Ġfriend ly
Ġpitch ers
Ġbou lders
Ġamus ed
ka h
com p
com ple
Ġslo t
Ġdon ut
Ġemb ro
Ġprof ess
Ġdaught ers
Ġhalf way
cit izens
Ġpow dered
ato wn
Ġrece ives
Ġrece ived
Ġparach utist
Ġtw ins
Ġwas te
Ġwarm ly
Ġhear ts
Ġcamp us
Ġappl ied
Ġdoll y
Ġdi am
Ġdi ag
Ġdi lap
Ġfinish es
Ġentertain ers
Ġesca pe
Ġact ively
Ġmove ments
crowd ed
Ġmis sion
Ġchop py
Ġbun k
Ġfar go
Ġstump s
Ġremo deling
Ġbroom s
Ġinter view
Ġcobble d
Ġcobble stones
Ġchin atown
Ġclub s
bal ding
Ġbass ist
Ġsoon er
hood ed
Ġbill s
Ġpee k
Ġgl ides
Ġdel icious
Ġload er
Ġmain tain
Ġspread s
Ġgown s
Ġexpress ions
Ġbul let
Ġintera cts
Ġinv estig
Ġwheelb ar
dan cers
Ġbead ed
Ġfree way
Ġcons ists
Ġcons ults
Ġscru ffy
Ġjoy ous
Ġposition s
Ġsna p
Ġvari eties
Ġhum ans
Ġext erior
Ġbund le
Ġbund les
Ġmotion ing
ula ting
ula ted
Ġut il
Ġpop ping
Ġsail boats
Ġspeed boat
Ġawa it
Ġsli pper
Ġcontest ants
Ġmonitor ing
Ġbell s
Ġmer cedes
Ġge omet
teen age
Ġcott age
Ġmannequ ins
Ġpri zes
Ġmu le
Ġcel ery
Ġmass ive
Ġcameram en
Ġscra ping
Ġbarbecu es
Ġdeli very
Ġfi xt
Ġunf old
Ġpolic y
Ġattend ant
Ġexplo re
Ġlet ting
rid ers
Ġing round
Ġcop ies
Ġdia pers
Ġfocus ing
Ġsla b
Ġoc cas
Ġtick ets
Ġhoo king
Ġhoo kah
Ġstro ke
Ġblind s
Ġpocket s
Ġneed ed
Ġmod els
Ġsilhouet tes
tra ffic
Ġstain less
Ġresp onse
Ġconstru cted
Ġspark ling
Ġclar in
Ġcheese cake
Ġdec ide
Ġtwirl s
bic yclists
Ġ9 3
Ġrush ing
Ġrush es
Ġasce nds
Ġsol ution
Ġske wers
Ġbon nets
Ġgig olo
Ġgig antic
Ġstea ks
Ġke pt
Ġtast es
Ġcontemp lating
Ġscratch es
Ġflu orescent
Ġbreast fe
Ġcabin ets
Ġsym phony
Ġcyl ind
Ġmur der
Ġjud ge
Ġlat in
Ġlat ino
climb ing
Ġretur ns
Ġacrobat ic
Ġarchite ct
snow boarder
Ġinc redible
Ġtoast ing
Ġnam es
Ġpoor ly
Ġdef lated
Ġvideota ping
Ġvideota pes
Ġhorizont ally
Ġunwra ps
Ġcent iped
Ġrecor der
Ġnood le
Ġbad ge
Ġsket ching
Ġrefresh ment
Ġpurchas es
Ġtreadm ills
col lege
dra wn
Ġsling shot
Ġsash es
Ġpear l
Ġcul inary
Ġming le
Ġming ling
Ġgla cier
Ġdess ert
Ġfer ret
Ġfac ility
Ġsurve ying
Ġprogra ms
Ġobsc ured
Ġattent ive
Ġplu gging
Ġstock ings
swim mer
Ġsif ting
Ġmist y
Ġwie lds
Ġcock tail
Ġbrazil ian
Ġvac ation
Ġrespo nding
Ġproud ly
Ġide a
Ġcust ody
Ġtrou ble
Ġgorge ous
Ġrele as
Ġrecre ational
Ġant icip
Ġtravers ing
Ġconso le
Ġsnar ling
rug by
Ġsoa py
Ġperf ect
Ġsitu ation
Ġbarric ade
new ly
Ġexper im
Ġdeal er
Ġama zing
Ġcurrent ly
Ġtromb one
Ġzo oms
Ġtwent ies
chef s
Ġextra vag
Ġfashion able
Ġexcav ator
Ġgener al
ib ility
ule le
Ġig loo
Ġpal let
Ġpuzz le
Ġhook ed
Ġrumm aging
Ġoutcro pping
Ġpoke mon
Ġrav ine
Ġunders hirt
Ġcondition s
Ġgrima cing
Ġuk ulele
Ġpursu ed
Ġmushroom s
Ġsed an
Ġdeath s
Ġtoen ails
Ġrect angular
Ġnes quik
Ġlon gh
Ġlonel y
Ġrott we
Ġlave nder
Ġchor us
Ġswam py
individu als
emp loy
Ġital ian
Ġcompo und
Ġdesper ately
Ġpassion ately
Ġskyd iving
Ġseeming ly
Ġseasho re
Ġvibr ant
Ġwonder ful
Ġdomino es
Ġchallen ge
pea ce
scre en
vro let
wea ther
Ġaler t
Ġwou ld
Ġsall ie
Ġsalm on
Ġsights eeing
Ġosc ar
Ġbern ard
Ġceram ic
Ġmong olian
Ġteep ee
Ġtiss ue
Ġhul k
unif ormed
Ġtopping s
Ġyama ha
iculo us
Ġansw ers
Ġshamp oo
Ġlacross e
Ġkim ono
Ġpavil ion
Ġupsca le
Ġcarca ss
Ġmagn if
Ġmocking bird
Ġmosa ic
Ġvuitt on
Ġhandwr itten
Ġsidebur ns
Ġsnowca pped
Ġcamps ite
Ġcampa ign
Ġunident ified
Ġprehist oric
Ġprescri ption
Ġadvent ure
Ġambul ance
Ġstonehur st
Ġalread y
Ġeyeshad ow
Ġcaliforn ia
Ġdilap idated
Ġgeomet ric
Ġoccas ion
Ġcentiped e
Ġextravag ant
0 2
4 4
a u
a ction
a way
a ps
a ves
a phone
a ired
a cts
a cro
a iled
a ura
b q
b et
b um
b us
b ig
b ee
b as
b ish
b ell
b ones
b mx
c is
c amer
c ooks
d ge
d ri
d as
d ist
d dle
d uring
d ely
e xt
f ro
f la
f ur
f ans
f ace
g al
g uit
g est
g lider
g izer
h l
h era
h ats
j ugg
k et
k art
l in
l ide
l iv
m el
m il
m em
m uzz
n oun
o c
o nd
o rou
o graph
o ffic
o late
o ked
p ark
p ak
p ical
p res
r an
r ine
r ise
r iding
r ised
s in
s om
s and
s age
s wing
s ia
s ung
s ize
s isters
t ar
t ating
t ip
t attoo
u ld
u cks
u late
u lates
v o
w atch
w ash
w ise
y al
y ton
z on
z ens
Ġ 0
Ġ king
Ġ ign
Ġ ug
Ġ xy
Ġa rou
Ġa wn
Ġa ver
Ġa ri
Ġa uth
Ġa ust
Ġa wk
in ar
in side
in ist
in ate
Ġw ore
Ġw rong
Ġs op
Ġs atch
Ġs ession
Ġs late
Ġs cho
Ġs izes
Ġs uds
th ills
th ora
Ġo u
Ġo ak
Ġo me
Ġo ars
an cing
an cial
Ġb is
Ġb um
Ġb ones
Ġb ord
Ġb illow
Ġb itten
Ġb bq
Ġin se
Ġin line
Ġin verted
er ted
er ated
Ġp low
Ġp ly
Ġp iling
Ġp att
Ġp ug
Ġp aneled
Ġp ensive
Ġc y
Ġc ate
Ġc ycle
Ġc uc
Ġc oney
Ġm r
Ġm ind
Ġm orm
Ġm ine
Ġm ardi
hi s
hi ker
hi ef
Ġth er
Ġth igh
Ġth ous
le on
le cts
Ġt um
Ġt rough
ro de
ro pped
ro fo
ar ting
ar ian
Ġg on
Ġg ad
Ġg low
is k
is p
is er
is hi
is ion
Ġd ru
Ġd orm
Ġd ame
Ġd ip
Ġd ipping
Ġd andel
Ġon ion
Ġon ions
Ġf ir
Ġf iling
Ġf ries
Ġf ier
Ġf right
Ġf uch
la m
la ud
la mp
Ġh om
Ġh es
Ġh on
Ġh art
Ġh eeled
Ġh opes
al ized
it an
it ers
it os
Ġman ip
Ġman hole
Ġman ager
Ġof ten
om b
Ġst ee
lo phone
lo ns
ld ed
or ther
or ies
or ary
un t
un ching
un ken
ir a
ir ation
ir cle
Ġdo ve
Ġdo jo
Ġto bo
Ġto wing
Ġto ile
Ġto day
on ist
Ġwhi p
Ġwhi pping
and a
and er
and ex
and alized
Ġbo l
Ġbo ss
Ġbo iling
Ġbo nding
Ġbo ught
Ġbo bbing
Ġbo iled
ra m
ch er
ch os
ed ience
ed ral
rou sel
op ard
op ted
op ened
ss el
Ġy ach
Ġy ong
Ġy arm
Ġpla ster
te am
te ens
Ġre se
Ġre as
Ġre pla
Ġre spe
Ġre vol
Ġl un
Ġl ite
Ġl itter
Ġl ucky
Ġhi pp
Ġhi dd
Ġhi de
ut an
ut er
ge ther
ers ault
ic les
ic ircle
Ġr v
Ġr in
Ġr at
Ġr ican
Ġr uff
Ġan noun
Ġj ea
Ġj ay
st age
el t
el er
el ine
Ġn ow
Ġn orm
Ġn ation
Ġn uzz
Ġn orther
ea ker
Ġyoung sters
Ġba red
Ġba gg
Ġba gged
Ġlo op
Ġlo ved
Ġlo lly
Ġlo wered
Ġlo aves
Ġlo dge
gh ts
Ġbl uff
um ers
Ġho ur
Ġho lly
Ġho isted
Ġho sted
Ġho uston
ur istic
Ġsh rine
Ġfro wning
Ġout ward
Ġco de
Ġco ins
Ġred bull
Ġwal ing
Ġwal led
Ġro ver
Ġro ping
Ġro bed
Ġro tating
Ġro yal
us tered
the med
ri b
ri otic
am s
am edics
Ġe ff
Ġsm ell
Ġsm eared
ad or
Ġla s
Ġla the
Ġla kes
Ġla tt
Ġla mb
Ġla borers
Ġgra de
Ġgra ze
Ġgra pple
Ġbe hi
ct ic
Ġk en
Ġk erc
Ġk hera
im ages
Ġdown stairs
Ġstre aked
Ġas ide
Ġas par
Ġta sks
se ated
Ġpa ve
Ġpa ired
Ġpa cket
Ġpa using
Ġch em
Ġch ests
Ġch ats
Ġch ops
to gether
ie f
Ġstreet light
Ġstreet lights
ul ke
Ġpo ll
Ġpo und
Ġpo ker
Ġpo tted
Ġback ed
Ġback ya
Ġcar ying
Ġcar rot
Ġcar av
Ġfor wards
bo tt
ting uish
Ġdress y
ack le
Ġma e
Ġma ker
Ġhat ted
Ġhat chet
Ġle arn
Ġle opard
ind s
Ġthrough out
Ġtra iling
Ġtra ff
Ġtra ding
Ġtra de
Ġra sh
Ġra gged
Ġra mps
uit e
Ġv in
Ġv ent
Ġv ul
Ġv ine
Ġv ows
Ġv andalized
Ġgrass es
Ġcro pped
Ġcro chet
Ġcro oked
Ġcon if
Ġcon ven
Ġcon front
Ġsp in
Ġsp ear
Ġsp ig
Ġsp aring
Ġsp rin
Ġsp illed
Ġsp andex
Ġrid iculous
Ġsn ail
Ġother wise
Ġsk ill
Ġbeach front
Ġca ct
Ġca ul
Ġca ges
Ġca uld
Ġca rousel
ian a
ho es
ho ckey
Ġwa ists
Ġso le
Ġso ur
Ġso il
Ġso das
Ġfa ced
Ġfa uc
Ġtable t
dy ed
ph on
Ġsc an
Ġsc ar
Ġdr illed
Ġdr unken
Ġclo s
Ġclo ak
by e
Ġgo gg
Ġgo vern
do tted
Ġsun lit
Ġsun glass
Ġsun hats
Ġsun rise
era cy
Ġclimb i
Ġhead phone
Ġhead lamp
Ġsand box
Ġsand pit
ps y
Ġper ches
est er
as an
as ant
form er
Ġun it
Ġun but
Ġun crowded
Ġsho cked
Ġsit ar
Ġsit es
Ġalo ud
stru cted
qu es
qu ets
Ġgu ided
Ġbus es
Ġbus ch
shirt ed
ff od
Ġhel ium
Ġbr indle
Ġflo ored
Ġwalk er
Ġwalk ers
ol ic
Ġunder pass
Ġpar ag
Ġpar amedics
ant ically
Ġpre y
ha ust
ha waiian
Ġad opted
ward ess
gg an
gg ers
Ġstri py
Ġdark ness
Ġmountain eer
Ġhe al
Ġhe bre
Ġen for
Ġen cir
Ġbar ing
Ġbar bed
sh e
sh es
sh ell
Ġrest aura
Ġse qu
Ġwind s
Ġwind y
Ġwind surfer
Ġhands ome
Ġarm ed
Ġlea ve
Ġli vely
Ġli zards
Ġunif or
Ġsa c
Ġsa uc
Ġsa ils
Ġhor s
Ġche vy
Ġche vrolet
Ġbal tim
per ing
Ġpro w
Ġpro mo
Ġpro ced
Ġpro ba
Ġpro jects
Ġsweat suit
Ġcomp lect
Ġcomp ute
Ġcomp ass
Ġcomp rised
Ġwindow less
Ġsl ush
Ġsl ips
ne cked
ell er
Ġte ther
Ġdan ci
ric a
ric ans
Ġfl ipped
Ġstick er
Ġex tinguish
Ġex haust
Ġsign al
Ġaf ar
Ġaf rica
cks ack
ag us
Ġob je
Ġob liv
Ġob edience
Ġcou ld
Ġcap ri
Ġfr ing
Ġfr illy
Ġfr antically
Ġmar l
Ġmar ches
Ġmar ina
Ġmar iachi
Ġcan ned
Ġphoto gra
Ġset up
Ġset ter
Ġset ti
Ġapp laud
Ġday s
Ġday light
Ġtri ps
Ġtri be
iv il
Ġpi ping
str ated
Ġtre k
Ġno dd
ple ss
Ġri ghts
Ġdri ft
Ġdri fting
ort ment
Ġcle ars
Ġfore arm
Ġfore grou
Ġcross bones
Ġthro ne
Ġhill y
Ġcoo ling
Ġhigh ly
Ġhigh light
Ġvest ed
Ġpart ly
Ġpart ition
Ġste ins
Ġste wardess
co b
Ġfe eling
ey e
Ġsha wls
Ġcow or
Ġlight ly
Ġkick er
Ġcloth s
Ġfla ts
Ġdis pen
Ġdis ney
Ġdes olate
Ġdes erted
Ġmet rop
Ġpast ry
Ġbook case
ject ed
ron a
Ġbackpack ing
Ġhu gged
Ġev ents
pla ying
pla yers
Ġcell ular
Ġboard wa
Ġind ic
Ġme and
Ġme als
Ġpol ar
Ġpol ish
Ġpol ished
Ġbre ed
Ġcor sage
Ġcre pe
Ġcre me
Ġcre scent
Ġjo ke
Ġjo ins
Ġjo ined
Ġjo bs
de f
Ġal i
Ġal low
Ġal lowing
Ġwheel ing
Ġwheel ers
con cer
iz en
ker chi
Ġpl ushi
Ġpra yer
Ġcount y
Ġkn icks
Ġkn aps
Ġsqu a
Ġsqu id
Ġatte nds
Ġcra ckers
Ġdra m
Ġdra gs
Ġdra pped
Ġdra gged
Ġdra yton
Ġfo lder
Ġsmo ck
Ġsmo cks
Ġsmo ked
na ils
Ġshore s
ition ing
Ġshort ly
Ġed ges
Ġwr ang
Ġcont act
fe w
Ġequip me
Ġphotograph y
Ġstru ctu
Ġwet s
Ġcur lers
Ġanim ated
Ġroof ing
Ġroof er
Ġsky di
Ġstra ining
Ġstra pless
Ġcheck er
Ġwe ld
Ġwe lders
Ġwe ndy
Ġsil ky
br ides
Ġstat ute
Ġcup board
Ġwed di
Ġpat rolling
Ġpat riotic
top less
Ġstop light
Ġmart ini
Ġwin ning
Ġsea s
Ġsea side
Ġsea shell
Ġcompet itor
Ġcompet itors
out side
Ġaud itioning
Ġmon ster
Ġban ks
Ġban gs
Ġban quet
Ġban ister
Ġstation ary
Ġhapp en
Ġhapp ened
Ġnew sst
Ġcol lage
Ġcol ander
zz le
Ġint imate
Ġdig ger
Ġear n
Ġrela t
Ġchi pping
Ġchi lly
Ġfix ed
cu red
asian s
Ġim press
Ġbur n
Ġbur y
Ġbur ro
Ġbur ns
Ġland ed
Ġland mark
Ġqu ilt
Ġqu ilted
Ġty e
Ġty pical
Ġneck ties
Ġtent atively
Ġcast les
Ġtalk i
Ġvar ied
Ġ2 2
Ġ2 8
Ġgraff i
Ġshi pping
Ġspo tters
ugg ed
Ġstream ing
Ġvi a
Ġbat ons
Ġconversation s
os ure
ught er
Ġbath ed
Ġgard ens
Ġgro ws
od ian
Ġdire cted
Ġvideo grapher
Ġdecor ation
Ġtub ing
Ġtub es
Ġtub as
Ġwra ps
Ġindian s
Ġstuff ing
Ġleg al
Ġgolf ing
Ġcr isp
Ġtou ched
Ġeng land
Ġway s
Ġtun ing
Ġtun es
Ġda ffod
Ġcontain ed
Ġpe p
Ġpe ws
Ġpe psi
Ġpe bbled
Ġfur ther
Ġlit eracy
Ġpost ed
Ġspect ator
Ġspect acles
gu ards
Ġwaters ide
Ġcover ings
Ġcho ke
Ġtu gs
Ġtu cked
Ġnot re
Ġnot ic
for d
Ġpan els
ma ids
Ġviolin ists
pan ese
Ġobser ved
Ġgood bye
Ġhorses hoe
Ġhorses hoes
Ġflower ing
Ġtrans parent
Ġspr ite
Ġstr and
Ġstr ides
Ġpea king
Ġpea ks
Ġfair ground
Ġz ara
clo wn
Ġpond ers
Ġprote cting
Ġshadow y
Ġshadow ed
Ġea sy
Ġea gerly
Ġwrest les
Ġwrest ler
Ġprin ts
Ġsword fish
Ġspe cim
sp orts
sp eaker
Ġstar ted
Ġstar bu
work man
Ġass ortment
Ġped ic
Ġbalcon ies
Ġparticip ant
Ġparticip ates
Ġja w
Ġadvertis es
go ing
Ġpack ages
Ġrac i
Ġrub bing
Ġsurfboard s
Ġspray er
Ġmess ily
stre am
stand ing
Ġappro ached
Ġappro pri
Ġpump s
Ġaccordion s
Ġpian ist
Ġdish eve
Ġclown s
com es
Ġes cor
Ġport a
Ġport ion
Ġfinger nails
Ġwheelchair s
Ġsquare pants
bla der
Ġround s
Ġround ing
Ġdon ations
Ġdon keys
Ġcha i
Ġtric yc
Ġdump ing
Ġfan ny
Ġori g
Ġtw isting
Ġcoach ing
Ġcoach es
Ġtravel er
Ġcab oose
Ġjewel s
Ġhear d
Ġrollerbla de
Ġdun k
Ġsta i
Ġraft ers
Ġappear ing
Ġdi or
Ġentertain er
Ġrough ly
Ġemer ge
Ġgrand child
Ġgrand father
Ġpeace fully
chest ed
Ġrou te
Ġrou ti
Ġmis sed
Ġmis si
Ġmis cell
Ġlay er
Ġlay ers
Ġremo ved
Ġloom s
Ġloom ing
Ġrollersk aters
Ġinter rup
Ġspar sely
Ġplan ks
Ġpati ents
Ġelev ation
Ġble ache
Ġpee ps
lesc ents
Ġheadband s
Ġsocial ize
Ġreflection s
Ġdel ivers
Ġload s
Ġnote pad
Ġfet ches
Ġfly er
Ġhind u
Ġliqu or
Ġru cksack
Ġbackd ropped
Ġorgan ized
Ġsco oping
Ġscru b
Ġscru bbing
Ġwakeboard s
Ġposition ed
Ġwild flowers
Ġatv s
Ġroo ts
Ġsna pped
af ter
af ricans
Ġsup erman
Ġfru strated
Ġhum mer
Ġhum orou
Ġlink ed
Ġjet ty
Ġattra cts
Ġterra ce
Ġassem bles
Ġcrown s
Ġelectron ics
Ġpower ful
Ġav i
Ġpop ulated
Ġmeas ured
Ġtooth pick
Ġrout ines
Ġwand er
Ġwand ers
Ġsund ay
Ġthin king
Ġsandwi ches
Ġsli ppers
Ġvacuum s
cif ic
Ġge nder
Ġbreakdan ces
Ġsuper vision
Ġpri ze
Ġcru st
Ġang les
Ġleap fro
Ġslic ed
Ġcalm ly
po tty
Ġic icle
Ġwar ning
Ġwar rior
Ġbron ze
Ġnewly weds
Ġbarbecu ed
Ġdeli ver
bat ic
ham mer
Ġident ically
Ġsem inar
Ġsem icircle
Ġcool er
Ġcoast ing
Ġmail man
Ġclut ches
Ġunf o
Ġattend ees
Ġcrash es
Ġexplo ring
Ġcongreg ate
Ġdet ails
Ġdet ailed
Ġfea thers
Ġfounta i
Ġador able
Ġbicyc ler
Ġfoam y
ilor s
wear ing
Ġpir ates
Ġlear ns
Ġleot ards
Ġconf ronts
Ġbutch ering
Ġsidel ine
Ġinstru cting
Ġgri m
Ġfed ex
Ġstro kes
tra sh
Ġbla de
Ġbla zer
Ġmitt ens
Ġlaunch es
Ġorang utan
Ġspark ler
Ġdec iding
Ġdec ided
Ġmattress es
pho to
Ġ9 0
Ġovers eeing
Ġsty rofo
Ġasce nd
Ġchar ging
Ġspring s
Ġsnowmo b
Ġsol id
Ġtex ts
Ġtread s
Ġassist ed
Ġcub e
Ġmill er
Ġstea dy
Ġstea ming
Ġran ger
Ġroast ed
Ġtast y
Ġswe ets
Ġcontemp orary
Ġexpla ins
Ġartif acts
motorc ycles
motorc yclist
Ġsom ersault
Ġmaneu vers
Ġlower ing
Ġbeat en
Ġwrist watch
climb er
Ġretur ning
Ġregion al
Ġvert ically
Ġsar is
Ġsam sung
Ġpr un
Ġcit izen
Ġmounta i
Ġfit ness
Ġrif les
Ġroman tic
Ġlate x
Ġbroad way
Ġbust ling
Ġdef ensive
roller blader
Ġclas ping
Ġfatig ue
Ġunwra pping
pain ters
Ġpom mel
Ġpud d
Ġpeel er
Ġsunsh ade
Ġprop ane
Ġcann ot
Ġrefresh ing
Ġrefresh ments
Ġbutt ons
Ġgrow ls
Ġquestion ing
fish ermen
lif ier
Ġamp lifier
Ġtin ted
Ġfin ancial
Ġfer ns
Ġrig ging
Ġworshi pers
Ġvic tim
Ġspi king
Ġspi ked
Ġspi ky
Ġwaff les
Ġsunba the
Ġsurve ys
Ġcapture s
Ġflash ing
Ġimpro ve
Ġimpro vement
Ġimpro vis
Ġcommunic ating
swim mers
surf ers
Ġmarshmallow s
ja panese
Ġox en
Ġdug out
Ġdivers e
Ġwie lding
Ġanch or
Ġanch ors
Ġcocon ut
Ġgrave yard
tour ist
Ġattach ing
Ġbrea ks
Ġsquin ts
Ġlandsca ped
Ġweap on
Ġcrut ch
Ġpenc ils
Ġintervie ws
Ġintervie wed
grand father
mar ching
mart ial
Ġide as
Ġaff ection
Ġcust odian
Ġtrou sers
Ġtem ple
Ġtem por
Ġstead ies
Ġrea cting
Ġshut tered
Ġlass o
Ġlass os
Ġcaricature s
Ġlemon ade
Ġtravers e
Ġsnows uits
Ġsitu ated
Ġaccess ories
Ġexecut es
Ġdefe nding
Ġama zed
Ġpreser vers
Ġpossession s
Ġtwent y
Ġentry way
Ġparasail er
Ġexcav ating
Ġgrownup s
Ġenthusiastic ally
Ġcannon ball
Ġlouis iana
pi geons
tw in
Ġore os
Ġple thora
Ġpis a
Ġpis to
Ġpon cho
Ġpon chos
Ġtell s
Ġfid dling
Ġdod ging
Ġresc u
Ġresc ue
Ġni pple
Ġswallow ing
Ġcath edral
Ġcath olic
Ġproper ty
Ġkickbox ing
Ġdescri be
Ġjogg er
Ġnavig ate
Ġterri ble
Ġpinea pple
Ġpinea pples
Ġsepar ated
Ġsecure ly
Ġrenov ating
Ġpamph let
Ġpamph lets
Ġdachsh und
Ġdachsh unds
bright ly
Ġairl ine
Ġsamp les
Ġpoo h
Ġtear ing
Ġgy psy
Ġdest ination
Ġfut uristic
Ġfoo thills
Ġfling s
Ġhen na
Ġhud dles
Ġplac id
Ġrapp elling
Ġveter ans
Ġspl its
Ġsolder ing
Ġener gizer
Ġcanad ian
Ġvolunte er
Ġstran gers
Ġprofession als
Ġmason ry
Ġornam ent
Ġcruis ing
Ġoccur ring
olog ical
Ġprogram mes
Ġconcentr ating
Ġdalmat ians
Ġaccep ts
hea vy
kay aker
va ulting
inter racial
Ġsow ing
Ġoll ie
Ġbong o
Ġpens ively
Ġthr ill
Ġtumb ling
Ġding y
Ġdor itos
Ġfri zzy
Ġreen act
Ġlob ster
Ġloud speaker
Ġshant y
Ġever green
Ġket tle
Ġpas tel
Ġchandel iers
Ġswad dled
Ġsnowf alls
Ġwag ons
Ġscri pt
Ġcolour ful
Ġtang led
Ġheine ken
Ġveg as
Ġtrink ets
Ġimmig ration
Ġtuss le
Ġtranspor ting
Ġsledge hammer
Ġeyelash es
comp et
Ġprofess or
Ġdiam ond
Ġdiag ram
Ġinvestig ating
Ġwheelbar rows
Ġfixt ures
Ġclarin ets
Ġanticip ation
Ġrottwe iler
employ ees
peace ful
Ġprescription s
acro batic
bas ket
camer am
ext re
guit ar
mil itary
mem bers
muzz led
tattoo ed
Ġxy lophone
Ġawn ings
Ġaver age
Ġauth or
Ġaust ral
Ġawk ward
Ġsatch el
Ġome let
Ġbord ers
Ġply wood
Ġpatt ies
Ġtum bles
rode o
Ġgad get
Ġfier ce
Ġfright ened
Ġfuch sia
Ġhart man
Ġtobo ggan
Ġtoile ts
Ġyarm ulke
Ġrese mbling
Ġhidd en
Ġnuzz ling
Ġnorther n
Ġbagg age
Ġholly wood
Ġlakes ide
Ġlatt ice
Ġkerc hief
Ġaspar agus
Ġpound ing
Ġcarav an
Ġcrochet ed
Ġconven ience
Ġspig ot
Ġcauld ron
Ġgovern ment
Ġunbut toned
Ġhebre w
Ġenfor cement
Ġsauc ers
Ġbaltim ore
Ġpromo ting
Ġproba bly
Ġcomplect ed
Ġobliv ious
Ġhighlight ed
Ġmetrop ol
kerchi ef
Ġplushi e
Ġknaps ack
Ġskydi ver
brides maids
Ġnewsst and
Ġdaffod ils
Ġstarbu cks
Ġdisheve led
Ġmiscell aneous
Ġhumorou s
Ġleapfro g
Ġstyrofo am
basket ball
1 0
9 5
a a
a e
a o
a round
a ks
a ke
a pp
a gg
a kers
a pes
a bly
b ri
b one
b ans
b ating
b ub
b ud
b eam
b ush
b rimmed
b uds
c la
c il
c ce
c ling
c age
c cess
c ards
c col
c orted
c uffed
c ivil
d om
d am
d em
d ant
d ging
d ance
d hist
d uty
e lder
e ven
e bra
f i
f s
f ar
f un
f two
f ree
f ig
f ter
f ol
f ant
f iving
f ou
f ighting
f ied
f light
f lection
f inder
f lowing
g l
g un
g ard
g ent
g les
g room
g od
h d
h u
h y
h ing
h an
h et
h ome
h ow
h as
i ar
i ld
i ut
i ver
i ety
i ors
j anitor
k ist
k ies
k arate
l r
l om
l ink
l ines
l ife
m y
m al
m om
m ore
m boy
m ca
m bs
m imes
n at
n ear
n ies
n ial
n aked
n iture
n umber
o ling
o dd
o ugh
o cra
o eu
o shes
p at
p ink
p ine
p our
p ite
p rin
q a
r ank
s un
s people
s ive
s led
s light
s que
s lr
t u
t all
t il
t ree
t ying
t if
t ig
t ile
u a
u k
u ss
u ct
u ve
u ating
u ches
v ial
v ance
v iz
v ia
v ise
v res
w is
w king
w ind
w led
x iously
z ine
z ance
â Ģ
Ġ $
Ġ x
Ġ nd
Ġ lack
Ġ il
Ġ elf
Ġ 00
Ġa u
Ġa te
Ġa us
Ġa ble
Ġa pe
Ġa ven
Ġa wards
Ġa ston
Ġa ctors
Ġa stride
in terest
in fant
Ġw re
Ġw is
Ġw ad
Ġw ent
Ġw em
Ġs wo
Ġs ant
Ġs ons
Ġs bar
th al
th at
th es
th on
th rough
th row
Ġo d
Ġo h
Ġo v
Ġo hi
an er
an qu
an cis
an has
an more
Ġb one
Ġb arge
Ġb lee
Ġb less
Ġb erry
Ġb inky
re ar
re ll
re sc
re ctly
re flection
Ġin ward
Ġin sp
Ġin comple
er ie
er ves
er many
er ries
er ature
Ġp c
Ġp hi
Ġp ers
Ġp ip
Ġp ric
Ġp ats
Ġp ane
Ġp lowing
Ġp lent
Ġp anda
Ġc d
Ġc in
Ġc ly
Ġc ult
Ġc ycles
Ġc ater
Ġc alls
Ġc ops
Ġc ds
Ġc uffs
Ġm p
Ġm ut
Ġm oo
Ġm ort
Ġm ia
Ġm ills
Ġm imes
Ġm ama
Ġm oose
hi re
hi es
hi king
hi stic
Ġth ra
Ġth ink
Ġth ru
Ġth ong
Ġth ou
le l
le ag
le ap
Ġt ir
Ġt and
Ġt il
Ġt im
Ġt ink
Ġt iling
Ġt ud
Ġt ears
Ġt ors
ro en
ro ck
ro of
ro ading
Ġthe n
Ġthe at
ar i
ar at
ar ch
ar se
ar aner
nd a
nd ar
nd ed
nd ant
nd ering
Ġg or
Ġg ian
Ġg irt
Ġg lee
Ġg ey
Ġg rie
Ġg reek
Ġg ushing
Ġg het
Ġg ermany
is y
Ġd w
Ġd ear
Ġd ul
Ġd ying
Ġd art
Ġd ash
Ġd ung
Ġd ata
Ġd uty
Ġd rug
Ġd hl
Ġd slr
Ġon ce
Ġon going
Ġf t
Ġf u
Ġf um
Ġf itting
Ġf if
Ġf und
Ġf ool
Ġf ry
Ġf ins
Ġf anta
Ġf elled
la s
la ro
la ma
la yed
Ġh oping
Ġh undreds
al ists
al ia
al uating
al lel
en e
en er
en ous
en gers
Ġis ra
Ġis lam
it a
it z
it ate
it ute
it ively
it jack
at ening
at ically
at ulate
Ġman i
Ġman or
Ġman ure
Ġman do
Ġman ually
Ġman sion
om in
om ed
Ġst u
Ġst ic
Ġst ony
Ġst ages
Ġst aking
Ġst aging
Ġst ubby
Ġst ances
Ġst anmore
Ġwi gs
Ġwi cket
Ġwi ring
Ġwi pes
Ġwith e
lo ne
or ting
or ter
un e
un et
ir ator
Ġdo o
Ġdo se
Ġdo cks
Ġdo wel
Ġdo ns
Ġto ed
Ġto il
Ġto ting
Ġto ne
Ġto ba
Ġto ddle
on ers
Ġwhi ps
Ġwhi sk
Ġwhi ms
id ers
id ering
et ic
et eer
Ġbo t
Ġbo bs
Ġbo bbed
Ġbo cce
ra it
ra se
ra cing
ra cted
ra fting
ra ised
ch ur
ch rist
ch eting
ed ic
ed ded
wo w
Ġare as
op er
op en
ss ing
ss ed
ss ell
ss ils
Ġy oun
Ġy out
Ġy mca
Ġpla ins
rt een
te re
Ġat ri
Ġre el
Ġre nt
Ġre ind
Ġre form
Ġre qu
Ġre ins
Ġre ced
Ġre ma
Ġre cent
Ġre ef
Ġre sem
Ġl itt
Ġl ur
Ġl ig
Ġl isting
Ġl imes
Ġl illy
Ġl lama
Ġdog house
Ġdog gy
itt i
itt ery
Ġplay hou
Ġhi ssing
ut cra
ge ant
ic als
ic emen
ic ular
Ġr ick
Ġr ite
Ġr attle
Ġr ugged
Ġan xiously
Ġj r
Ġj al
Ġj am
Ġj im
Ġj ig
Ġj erry
Ġj esters
Ġj ester
st ack
st oned
st acks
el p
el la
el un
el ves
irl y
Ġn urs
Ġn umer
Ġn utcra
ide red
ea st
ea led
ea ster
Ġba gging
Ġba sed
Ġba za
Ġba sin
oo led
Ġblack s
Ġblack board
Ġblack top
Ġblack jack
Ġlo s
Ġlo se
Ġlo cking
um e
Ġho es
Ġho ly
Ġho ling
Ġho ist
Ġho sing
Ġho ists
Ġho ds
Ġho urs
Ġho isting
Ġho bby
ur y
Ġsh ri
Ġsh ine
Ġsh uff
Ġfro wn
Ġfro wns
Ġfro thy
Ġfro sting
Ġblue ish
Ġout run
Ġout lines
Ġco in
Ġco al
Ġco ts
Ġco ord
Ġco zy
Ġco rona
Ġco arse
Ġco oper
Ġchild hood
Ġred ish
Ġwal ma
Ġwal lets
Ġro b
Ġro m
Ġro le
Ġro ped
il le
round ed
the ater
ri ff
Ġe re
Ġe cle
Ġe gy
Ġe jected
Ġsm elling
Ġsm ores
ad o
ad s
nt able
Ġla w
Ġla ter
Ġla dle
Ġla tte
Ġla cy
Ġla go
Ġla ura
Ġla unching
Ġla mbs
Ġgra in
Ġgra ins
Ġgra ham
Ġbe gs
Ġbe ats
Ġbe mus
Ġbe come
Ġbe comes
ct uring
ct ac
Ġk r
Ġk it
Ġk il
Ġk art
Ġk ung
Ġk urt
Ġk ah
Ġk elp
im al
im eter
im araner
Ġdown ed
Ġdown wards
Ġdown stream
Ġher bs
Ġher ds
ve nd
ve lator
Ġha zy
Ġas ho
ump h
Ġta p
Ġta bby
Ġta vern
Ġta ssel
se iling
se lor
Ġpa i
Ġpa ren
Ġpa cks
Ġpa used
Ġpa ste
Ġpa god
Ġpa kist
Ġch oo
Ġch ore
Ġch ute
Ġch els
Ġch unk
Ġch ris
Ġch anting
Ġch ores
Ġch ucks
Ġch erries
to y
to ise
ie ving
side walk
ent a
ul ter
Ġsw at
Ġsw amp
Ġsw ap
Ġsw erves
Ġbro ok
Ġbro ccol
Ġpo ling
Ġpo uch
Ġpo tters
Ġpo laro
ress ed
Ġup s
Ġup coming
Ġup stairs
Ġup raised
Ġgre n
Ġback ing
Ġback side
Ġcar ab
Ġfor ked
bo und
Ġgreen s
Ġgreen house
Ġne c
Ġne eding
Ġbu gg
Ġbu zz
Ġbu zy
Ġma ps
Ġma kers
Ġma cy
Ġma uve
red head
Ġor bs
Ġle wis
Ġle cturing
rough t
rough ly
ind y
ind fold
ble y
ble ms
Ġyel l
Ġmo th
Ġmo tt
Ġmo vement
Ġmo sque
Ġmo tif
ay s
Ġyellow ed
Ġtra velator
Ġra kes
Ġra fter
Ġv at
Ġv es
Ġv el
Ġv ans
Ġv ess
Ġv iz
Ġv ista
Ġover flowing
Ġgrass land
Ġcro cks
Ġcro ok
Ġcro cheting
ain t
Ġcon o
Ġcon ver
Ġcon ce
Ġcon tor
Ġcon ical
Ġcon gr
Ġsp un
Ġsp ill
Ġsp ong
Ġsp arrow
Ġsp here
Ġsp urs
Ġsp ices
if ic
ig uring
ig zag
ig enous
Ġhand ra
Ġhand ful
Ġhand kerchief
Ġhand cuffed
ink led
Ġside car
Ġside wal
Ġsn are
Ġsn ugg
Ġsn ok
ll ing
orm ous
ure ly
Ġjack s
ee ping
Ġsk ins
Ġsk aters
Ġca bs
Ġca ged
Ġca using
Ġjacket ed
Ġwork i
ian ces
Ġsnow ed
Ġsnow dri
Ġwa vy
Ġcl ue
Ġcl ips
Ġcl icking
Ġcl imate
Ġcl ipped
Ġcl ustered
Ġso u
Ġso x
Ġso ck
Ġso wn
Ġso aring
Ġfa iling
Ġfa thers
Ġfa sc
Ġfa una
Ġfa ith
Ġfa irly
Ġtable ts
em s
ore tte
pp ard
pp ling
pp olo
Ġcam o
Ġcam er
Ġcam cor
Ġcrowd ing
ans ive
Ġpink ie
Ġshor th
people s
Ġbi k
Ġbi bs
Ġsc ree
Ġsc are
Ġsc ares
Ġsc out
Ġsc ope
Ġsc rim
Ġsc oring
Ġdr ills
Ġwood y
Ġclo ser
Ġclo aks
Ġblo ody
Ġblo oming
cer y
ction s
Ġgo tt
Ġgo ndo
eat ing
do zens
Ġsun ning
Ġhead line
Ġthat ching
Ġsand a
Ġsand ing
Ġsand ed
Ġper ch
Ġper uses
as ure
ist ration
Ġhold ers
form ers
pe ctac
Ġhair nets
Ġun h
Ġun its
Ġun pack
Ġun ise
Ġun com
Ġun sha
Ġun ited
Ġun paved
Ġun opened
Ġun til
board ers
ish es
Ġsho v
Ġsho ve
Ġalo ha
Ġalo ft
qu is
qu ely
qu arter
Ġar ches
Ġar rest
Ġar che
Ġar rows
ire s
ire ment
Ġhel m
Ġbr ic
Ġbr ill
Ġbr unet
Ġcom ic
Ġflo ra
Ġunder pants
Ġpar c
Ġpar ading
Ġpar allel
Ġsur v
Ġsur geons
Ġpool s
Ġpool side
Ġtoy ot
Ġcolo nial
Ġfoot pa
mp ol
Ġbench ing
Ġad vo
Ġad hd
Ġmouth ed
Ġmouth guards
Ġwh ine
Ġac hi
Ġac ts
Ġdark ly
Ġmountain e
Ġroad s
Ġswing i
Ġhe el
Ġboat er
Ġmid a
Ġmid d
Ġmid get
Ġmid riff
Ġface book
Ġen count
Ġen ough
Ġen ormous
Ġbar tend
Ġbar ista
sh ing
sh eep
sh ackle
Ġrest ara
Ġse ed
Ġse ren
Ġse ws
Ġse lect
Ġse xy
Ġse cured
Ġarm chair
Ġarm bands
Ġlea v
Ġlea ped
Ġsuit es
Ġli la
Ġli king
Ġli ves
Ġli kes
Ġli ken
Ġsa id
Ġsa ver
Ġsa rong
sk in
are es
Ġfootball ers
ign s
ign ment
ach ing
Ġbal m
Ġbal ck
Ġbal loo
per y
Ġground ed
mer ized
Ġroom ful
Ġga ug
Ġga gnant
Ġpro min
Ġpro motion
sing ers
Ġsweat ing
Ġsweat band
umb ers
Ġcomp osed
Ġsl um
Ġsl ick
Ġsl ipping
ne gro
Ġte hel
Ġbase man
Ġdan e
Ġfish net
Ġcatch ers
young er
young sters
Ġslee k
Ġfl ank
Ġfl ung
Ġfl ights
Ġfl utes
Ġve ils
Ġex its
Ġex cer
Ġex pen
Ġex cers
Ġex chan
Ġex agg
Ġsign age
ush ed
Ġmicro wa
ill er
Ġob ese
Ġob tain
Ġob structed
Ġcou gh
jo hn
jo ggers
Ġag ent
Ġag ony
wing s
Ġfr ancis
Ġmar x
Ġmar y
Ġmar ks
Ġmar gar
Ġcan apes
Ġapp arat
Ġreading s
Ġtri ed
Ġtri ms
Ġtri angular
Ġtri umph
Ġpi ke
Ġpi lots
Ġde cks
Ġde cre
Ġde velo
Ġde leon
Ġde bating
Ġtre ating
Ġtre ated
Ġtre asure
Ġno zzle
ple ts
Ġshe per
Ġshe ppard
aur ant
Ġart icles
Ġri pe
Ġdri pping
Ġdri fts
Ġdri ftwo
ort un
Ġlake front
Ġgr id
Ġfore he
Ġthro at
Ġthro ng
Ġhigh lights
Ġpath w
ial s
Ġpart ake
Ġpart icular
Ġste pped
ca p
ca fe
ca cy
Ġfire ball
co ated
Ġfe el
Ġfe ild
Ġsha red
Ġsha ping
Ġinstrum en
Ġbow ed
Ġbow ties
Ġfla ps
Ġfla tt
Ġfla mboy
Ġdis aster
Ġdis interest
Ġdes pite
Ġmet ers
Ġpast or
Ġbook lets
Ġbook bags
Ġdoor bell
Ġmach e
io s
Ġsub ur
Ġsub ject
Ġev aluating
Ġbrick ed
Ġam c
Ġam ber
Ġam ster
Ġsurf a
Ġsurf boa
Ġtr anqu
pla yer
we iser
Ġcost co
Ġpass er
ank ment
Ġcell ar
Ġboard er
Ġind igenous
Ġme nding
Ġme lons
Ġcor rectly
ican a
Ġcre ws
Ġcre ated
Ġcre sts
Ġjo king
Ġjo kes
Ġjo ey
Ġjo ule
Ġbea ming
Ġbea ker
Ġbea rer
Ġcart ons
de cor
Ġal ter
Ġal arm
Ġal ien
Ġal tar
Ġal pine
gra ss
Ġsubway s
iz z
iz ers
iz able
Ġpl us
Ġpul pit
Ġtur bu
Ġtur bans
Ġtur ntable
Ġpra y
Ġpra ys
Ġpra yers
Ġcount ries
Ġap r
Ġpoin ter
Ġpoin ty
Ġbox y
Ġdrum mers
Ġdrum stick
Ġcra g
Ġcra ck
Ġcra mp
Ġcra dle
Ġcra cker
Ġcra yo
Ġdra b
Ġdra ft
Ġdra pes
Ġdra fting
Ġdra pery
Ġfo al
Ġfo urt
Ġfo ssils
cor n
Ġwhat s
Ġshore bre
graph ers
Ġed ged
Ġwr ists
Ġcont ently
Ġcont rolling
sc uba
sc antily
sc ient
ones ian
Ġhit ch
Ġfil m
Ġfil le
Ġfil ter
Ġpract ition
Ġcur vy
Ġcur rents
Ġcur iously
Ġroof ed
Ġview ers
Ġview finder
ber g
Ġpad dy
Ġsu i
Ġsu cks
Ġsu ccess
Ġblow ers
Ġstra p
Ġstra itjack
Ġcheck point
pa st
Ġcourt s
Ġwe bs
Ġwe ights
Ġwe imaraner
br and
Ġkis sed
Ġcup cake
Ġcup cakes
Ġref u
Ġref use
Ġref inery
Ġsetting s
Ġclass ro
Ġwed ded
Ġpat ro
Ġinf o
Ġinf lating
Ġgar ba
Ġpick ed
let ic
Ġdist orted
Ġdist rib
Ġdist racted
Ġmart ins
Ġbasketball s
Ġbird cage
Ġfun ky
Ġna val
Ġna thal
Ġcigare t
mo s
mo thers
Ġwin ks
Ġsea wall
Ġcoll ide
Ġcoll ision
Ġcompet itive
Ġcement ing
Ġcement ed
Ġstud s
tte red
Ġaud ien
Ġcheer i
Ġcheer fully
Ġbeautiful ly
bor der
Ġmon th
Ġmon arch
Ġti pped
Ġti bet
enter tain
Ġscarf s
Ġinstrument alists
Ġban g
Ġban ging
Ġbare s
Ġhapp iness
construction s
Ġemp ties
Ġemp tying
zz i
zz ling
Ġpaint i
Ġint ent
Ġear piece
Ġear buds
ger man
Ġser ver
Ġser iously
Ġchi m
Ġchi ef
Ġchi hu
Ġcut outs
Ġput t
cu its
cu zzi
Ġrep el
Ġrep tile
Ġrep orter
Ġim itation
Ġbur nt
Ġbur ners
Ġbur qa
Ġneck tie
Ġcast anhas
Ġpot ter
Ġspra wled
Ġ2 0
Ġ2 3
Ġ2 4
Ġ2 9
Ġmult it
Ġmult ira
Ġsculp t
Ġshi ps
Ġcla us
Ġcand l
Ġbat man
Ġbat tery
Ġcir que
os ol
Ġled ges
Ġvide os
Ġgro wing
Ġshallow s
Ġdire ct
ba bs
Ġopp ortun
Ġdecor ating
ness es
Ġwra pper
ens ion
Ġtime out
Ġsilver ware
ace an
Ġtrash c
Ġpadd lers
Ġpresent ed
Ġpull er
Ġcr ushing
Ġsto ops
Ġscaffo ldi
Ġscaffo lds
Ġrepair man
fore ign
Ġtun ic
Ġret re
Ġret ro
Ġret ri
Ġret irement
Ġda le
Ġda wn
Ġda ve
Ġda ffy
Ġda ppled
Ġpe w
Ġpe cul
Ġpe bbles
Ġpe ndant
Ġpost al
Ġpost cards
gu ests
Ġbra ke
Ġbra cing
Ġbra iding
Ġbra vely
Ġchur ning
Ġwaters p
Ġwaters kies
Ġvis ual
Ġvis ibility
Ġreflect ors
Ġele ven
len ce
Ġcho ice
Ġprodu ction
Ġprodu cing
Ġobsta c
Ġsus pic
Ġfight i
Ġlog os
Ġscreen ed
Ġpan es
Ġpan ting
Ġenjoy ment
Ġfal se
Ġtack ler
Ġtunnel s
Ġdeep ly
Ġfen ces
Ġtrans action
Ġmed ian
Ġmed als
Ġtro op
Ġstr ung
Ġsnowboard ers
Ġclear ly
Ġsled s
Ġwalkway s
Ġinflat es
Ġdeck ed
Ġz i
Ġz uc
Ġz no
Ġz ebra
Ġz igzag
Ġdem ocra
Ġexp osing
Ġexp osure
Ġexp ansive
Ġea gle
Ġwrest lers
Ġpen zance
Ġprin ce
Ġteach ers
Ġden se
Ġsuspe nds
Ġ3 0
Ġ3 6
Ġ3 44
Ġange les
Ġspe nd
Ġspe cific
Ġbandan nas
Ġinclud e
Ġass orted
Ġass ignment
Ġped dle
Ġped als
Ġhal o
ang le
ang es
ang led
Ġja cuzzi
fa cing
fa ced
fa ctory
Ġ1 4
Ġ1 9
Ġfig uring
Ġyo ked
Ġpack aging
blo ck
Ġhay ride
Ġclean ers
bro ken
Ġmat ure
Ġrub bish
Ġsurfboard er
Ġmom ents
stre wn
Ġshoe ing
gre t
vis itors
vis ibility
Ġsum m
Ġfra ming
Ġfra mes
Ġva se
Ġva ults
Ġva ulter
Ġappro xim
Ġbread s
Ġbread ed
Ġretrie vers
Ġkeyboard ist
Ġinspe ctor
Ġbou quets
Ġcarpet ing
cro pped
Ġdish ed
Ġdish wash
Ġprot ru
Ġes press
Ġes corted
Ġcri ck
Ġcri me
Ġchrist ian
Ġslo th
Ġslo ping
Ġpillow case
Ġmop eds
Ġhur rying
Ġhur ry
Ġhur ried
Ġjugg lers
Ġdemonstr ate
cur ly
Ġmin ute
Ġmin isk
Ġmin imal
Ġdon ation
Ġdon ates
Ġemb edded
Ġemb ankment
Ġfloat ation
Ġtransport ati
fire man
Ġshot gun
Ġsim ple
Ġpow ders
Ġfan ning
ath lete
ath letes
ath letic
Ġtw ists
Ġtravel ling
Ġcab ins
Ġcelebr ates
Ġhear ing
Ġcamp ground
Ġappl iance
Ġappl iances
Ġdun ks
Ġsta ying
Ġbeg un
Ġspace man
Ġprete ens
Ġaut o
Ġdi et
Ġfarm land
Ġentertain ed
Ġentertain ment
wi i
Ġpin stri
pher nal
Ġhang out
Ġesca ping
Ġpatch ing
Ġfold out
Ġframe work
Ġleaf s
Ġponytail s
Ġsupp orts
Ġmis ses
Ġtho roughly
Ġlar go
Ġlar gest
Ġchop ped
Ġhandstand s
Ġunic ycles
Ġcurb side
Ġfar ther
Ġfar ming
Ġmound s
Ġpaddle d
Ġrollersk ate
Ġres ur
Ġres ults
Ġspar se
Ġsleep i
Ġdep ot
Ġdep arting
Ġplan es
Ġplan et
Ġplan ter
Ġbass et
Ġbass inet
Ġlamp ard
Ġgymnast i
bl urry
bl indfold
Ġaqu atic
Ġble nder
Ġpee ing
Ġgam ing
Ġdesign er
Ġstrange ly
Ġsad ly
Ġgl ances
Ġgl imp
Ġgl ittery
Ġdel ight
Ġreg ular
Ġreg alia
Ġreg istration
Ġmain ly
Ġcolla ps
Ġcolla bor
Ġexpress ing
Ġexpress es
Ġcondu ct
Ġcondu cted
da ppled
shi p
Ġph eas
Ġph rase
Ġprotest er
Ġmow s
Ġfly ers
Ġrel ief
Ġrap id
Ġliqu ids
Ġlibr arian
dan cing
iss ion
Ġdread s
Ġru ssell
Ġorgan ize
Ġmou thing
Ġcons ult
Ġcons ulting
Ġcons umed
Ġcons umers
Ġscru bby
Ġcompan ions
Ġjoy fully
Ġheart beat
Ġdro ney
Ġdro oling
Ġdro plets
Ġwild ly
Ġcomm uting
Ġcomm uter
Ġtrop hies
Ġtrop icana
pro of
Ġwo ndering
Ġpress ing
Ġpress ed
Ġgas ps
Ġhut s
Ġhum or
Ġbean bags
Ġhandle bar
Ġsnea ker
Ġrainbow s
Ġspot ting
Ġinform al
Ġinform ally
Ġshel tered
Ġbund t
Ġbund ling
Ġarch ae
Ġpower point
Ġais les
Ġpop ular
Ġpop corn
Ġadm inist
Ġdisc s
Ġdisc ount
Ġtrump ets
cra zy
Ġwand s
Ġwand ering
Ġsi lence
Ġgrou cho
Ġevery body
Ġforehead s
Ġkno ll
Ġkno cks
Ġkno bs
Ġkno tted
Ġcontest ant
wheel ers
Ġiron s
bi kes
cif ix
Ġbell hop
Ġbell bott
Ġinner tu
Ġge orge
Ġge nders
Ġfeat ure
Ġcollect or
Ġbreakdan cer
Ġfurn ished
Ġsuper vise
Ġ5 2
Ġsear ches
Ġpri mit
Ġcru dely
Ġcru cifix
Ġdu ke
Ġdu cking
Ġdu eling
Ġstom p
Ġris ers
Ġapple bee
Ġbulldo gs
mus lim
po le
po or
po ss
po ses
vil lagers
Ġbron c
Ġscra p
Ġscra pe
Ġscra per
Ġscra mbling
Ġarr anging
Ġtrim mer
Ġtrim med
Ġflat bed
Ġlisten ers
Ġtripod s
Ġident if
Ġcool ers
Ġfi les
Ġfi ber
Ġlan yard
Ġlabor ing
Ġclut ching
Ġattend ed
Ġattend ants
Ġcrash ed
Ġcontrol led
pass erby
pass engers
Ġexplo itation
abo ut
fema les
hand ling
hand led
Ġsy rup
Ġtor toise
Ġsteam y
ution ary
Ġsnork els
Ġador n
Ġsection s
Ġcraft zine
Ġseag ul
Ġchisel s
Ġcurtain ed
nam ic
Ġsal t
Ġcop y
Ġcop ying
Ġmal lets
Ġdj ing
Ġbelong ing
Ġconf etti
Ġconf iguring
Ġaquarium s
Ġinnertub es
Ġmerch ant
ta iled
Ġill ust
Ġsla bs
Ġsla tted
Ġsla lom
Ġcall ing
Ġtru th
Ġtru dging
Ġtick ling
Ġgri p
Ġgri ps
Ġgri pping
Ġhoo ker
rail road
Ġanti qu
Ġgradu ate
Ġneed les
Ġbrief s
Ġmarble d
Ġmex ico
Ġbrace lets
Ġsyn thes
tra mpol
Ġbla des
Ġbla zing
Ġinst itute
Ġhy dra
Ġdoberman s
Ġresp irator
Ġlaunch er
Ġlaunch ed
Ġkio sks
Ġbuff er
Ġconstru ct
Ġsound board
Ġdec als
Ġdec ides
Ġtreat ment
Ġattack ed
Ġshie ld
Ġcello s
bic yclist
cas ually
custom er
Ġ8 02
Ġaer osol
Ġsty les
Ġchar ades
Ġbuy er
Ġeasel s
Ġavo ids
Ġbon fire
Ġcub es
Ġgig gling
Ġgest ic
Ġdad s
Ġstea k
Ġethnic ity
Ġethnic ities
Ġke gs
Ġke babs
Ġkee per
Ġswe eter
Ġcontemp lates
Ġcontemp lation
Ġspa ces
Ġjackham mers
Ġmarsh y
Ġdrain age
Ġdrain pipe
motorc yclists
cow boys
fort able
Ġsom et
Ġdre ams
Ġhung ry
Ġhusk ies
Ġmaneu vering
Ġrust ing
Ġrust ed
Ġelabor ately
Ġlat ter
Ġbudd ist
Ġbudd ha
Ġpara phernal
ski ing
Ġwrist bands
climb ers
firefight er
Ġdepic ts
Ġdepic ted
Ġsaddle d
Ġtechnic al
snow y
tie red
Ġu w
Ġado be
Ġado lescents
Ġsam ple
Ġsam ura
Ġpr ancing
Ġcit roen
Ġgal oshes
cho ir
Ġhip sters
Ġfootp rin
Ġacc eler
Ġdef ense
Ġclas ped
Ġvideota ped
Ġillumin ate
Ġinstructor s
Ġpyra m
Ġunwra p
Ġunwra pped
Ġenthusia st
Ġenthusia sts
fl uffy
sa ilors
Ġthre atening
Ġfre ight
Ġfre est
Ġfre ak
Ġstitch ing
Ġgras ps
Ġunus ually
Ġcomfort ably
Ġseg ment
Ġwindbre akers
Ġprop elled
Ġtext ile
Ġelegant ly
gro cery
Ġver dant
Ġpear ls
Ġcyc lone
Ġmes merized
Ġgla res
Ġgen etic
Ġdam age
Ġfin ley
Ġfin ally
Ġworshi ping
Ġmag enta
Ġlevel s
Ġmoon walk
Ġrabb its
Ġcomfor ts
Ġcomfor ting
Ġsec ures
Ġprov ide
Ġprov ides
Ġobsc uring
Ġflash light
Ġplu gs
Ġplu cking
Ġofficial s
Ġharves ts
Ġtypewr iters
Ġeast pak
Ġutens il
Ġsnorkel er
Ġcommunic ates
swim ming
picture s
pad s
Ġsif t
Ġsif ter
Ġox ford
Ġbor dered
Ġbump er
Ġpuck ering
Ġcud dles
high way
Ġdeter gent
Ġstorm y
Ġdou bles
Ġlin king
Ġlin ens
Ġanch ored
uma bly
Ġcock tails
Ġcock pit
Ġem itting
Ġem ph
Ġgrave led
Ġkitt ens
Ġconcent ration
Ġarri val
Ġcapt ivated
Ġshould e
outdoor s
Ġbooksh elves
Ġvac ant
Ġintervie wing
Ġrespo nders
grand mother
Ġautomo biles
Ġhistor ic
ien cing
mar iachi
Ġque ue
Ġab stra
Ġab seiling
Ġaff air
Ġbatt les
Ġpor to
Ġpant ies
Ġcoun selor
Ġcem e
Ġdent ists
Ġdalm ation
Ġstead ily
Ġrea ction
Ġrem aining
Ġrem ains
Ġrele ase
Ġrecre ation
Ġlim ous
Ġant lers
Ġnational ities
Ġshut tle
Ġmaj orette
Ġconso les
Ġsnar ls
Ġcler gy
Ġuni quely
Ġbarric aded
Ġexper iencing
Ġexecut ive
Ġdefe nd
Ġpolit ics
Ġeyel id
Ġstradd les
Ġpreser ves
Ġdinosaur s
Ġtromb onist
Ġzo om
Ġdemol ition
Ġdemol ished
Ġdemol ishing
Ġpengu ins
Ġspecial ized
Ġ10 4
Ġfigur ines
Ġphys ically
prof ile
Ġsymbo ls
Ġenthusiastic al
Ġtambour ine
ah ua
over head
pri est
wal king
Ġq uite
Ġid le
Ġsan itation
Ġore o
Ġple asant
Ġpuzz led
Ġmi les
Ġmi ami
Ġfid dles
Ġstem s
Ġni bbling
Ġegg pl
Ġsmir king
Ġsmir ks
Ġpap asan
Ġbud weiser
Ġmaster piece
Ġleis urely
Ġram shackle
Ġunders ide
Ġbrand ishing
Ġkickbox er
Ġdisco vers
Ġjogg ers
Ġsquat ted
Ġnavig ating
Ġrepresent ing
Ġrepresent ative
Ġcondition er
Ġmeasure ment
Ġgrima ces
Ġsepar ating
Ġarab ian
Ġrenov ations
Ġipod s
beat er
cir cle
cim er
dirt y
pick er
Ġet ching
Ġwit nesses
Ġsin king
Ġsin ks
Ġsamp ling
Ġbind i
Ġbind ers
Ġgy ro
Ġdivid er
Ġdivid ed
Ġfut ure
Ġfling ing
Ġhen ry
Ġheat ed
Ġhud dling
Ġdoc um
Ġdoc ument
Ġmout ain
Ġspl itting
Ġbloss oms
Ġbloss oming
Ġwhack ing
Ġener gy
Ġsales man
Ġcanad a
Ġweigh ing
Ġweigh ed
Ġvolunte ers
Ġharvest ed
Ġstran ger
Ġprofession ally
Ġsibling s
Ġsupervis ing
Ġsupervis ed
olog ist
Ġvocal ist
Ġconcentr ates
Ġdalmat ian
Ġurin al
Ġurin ating
Ġaccep ting
Ġvietnam ese
farm ers
pre teen
pupp y
pupp eteer
part icip
sen ior
zag a
Ġiv y
Ġber ries
Ġmel ts
Ġmul ch
Ġstor age
Ġstyl ist
Ġstyl ish
Ġton ka
Ġwhis pering
Ġyanke e
Ġyanke es
Ġlick ed
Ġjour ney
Ġjour nal
sty led
Ġnest led
Ġfrol icks
Ġfrol icking
Ġbee ch
Ġswirl ing
Ġbubb l
Ġmac book
Ġless ons
Ġvers ion
Ġconc ession
Ġcasc ading
Ġcasc ades
Ġsous aphone
Ġscient ist
Ġscient ists
Ġoffer ings
Ġpicn icking
Ġrestra ined
Ġsau cer
Ġbicycl ers
Ġappre he
Ġnovel ty
Ġgran ite
Ġcontin ue
Ġcontin ues
Ġrefriger ated
Ġrefriger ator
Ġserv ices
Ġqual ified
Ġfestiv ities
comple ted
Ġembro idering
Ġembro idered
Ġmission ary
Ġutil izes
Ġunfold s
Ġunfold ed
Ġbreastfe ed
Ġbreastfe eding
Ġcylind ers
Ġcylind rical
Ġarchitect ural
Ġreleas ed
newly weds
Ġexperim ent
Ġlongh aired
Ġmagnif ying
Ġmagnif ier
bus y
fur niture
jugg ler
offic ials
pres ident
zon a
Ġign oring
Ġug gs
Ġari zona
Ġsop histic
Ġbillow ing
Ġinse ct
Ġcate rer
Ġcuc umber
Ġmind ing
Ġmorm on
his panic
Ġther mos
Ġthigh s
Ġthous ands
Ġgon zaga
Ġdandel ions
Ġhom es
Ġmanip ulating
Ġstee red
Ġyach ts
Ġrepla ced
Ġrespe ctive
Ġrevol utionary
Ġlun ging
Ġhipp ie
Ġrin sing
Ġruff led
Ġannoun cement
Ġnorm al
Ġeff ort
Ġken nel
Ġpave me
Ġchem icals
Ġvin ci
Ġvul ture
Ġconif er
Ġsprin ting
Ġcact us
Ġcaul king
Ġsole il
Ġsour ce
Ġfauc et
Ġscan ning
Ġgogg l
Ġparag lider
Ġheal th
Ġencir cling
Ġsequ ence
Ġproced ure
Ġslush y
Ġmarl ins
Ġtrek king
Ġnodd ing
Ġcowor ker
Ġdispen sers
Ġindic ates
Ġmeand ering
def ensive
Ġali ens
Ġallow ed
concer t
Ġdram atic
Ġwrang ling
Ġwets uits
Ġanimated ly
Ġchecker board
Ġseashell s
Ġburro wing
Ġspecim en
Ġpedic ure
Ġappropri ate
Ġescor ting
Ġinterrup ted
Ġcrust acean
Ġunfo lding
trash y
photo graphers
Ġsnowmob iling
Ġprun ing
Ġimprove ments
Ġimprovis ed
Ġtempor ary
Ġpisto l
Ġreenact ment
compet itive
cameram an
extre me
Ġauthor ity
Ġaustral ian
Ġgadget s
Ġmetropol itan
app ear
bub bles
bud dhist
dem onstr
fig ure
fou rteen
home less
oeu vres
slight ly
tig er
wind ow
âĢ Ļ
Ġ00 95
Ġaus tere
Ġaven ue
Ġwre cked
Ġwad ers
Ġwem bley
Ġsbar ro
Ġohi o
Ġblee cker
resc ue
reflection s
Ġinsp iration
Ġincomple te
Ġplent y
Ġcult ivated
Ġmoo red
Ġthru st
Ġthou ght
leag ue
Ġtand em
Ġtil ting
Ġtink er
Ġtud or
Ġtors o
Ġtheat rical
Ġgor illa
Ġgian ts
Ġglee fully
Ġgey ser
Ġghet to
Ġdul cimer
Ġdung arees
Ġisra eli
Ġislam ic
Ġmando lin
chur ch
christ mas
Ġyout ube
Ġatri um
Ġrent al
Ġreind eer
Ġreced ing
Ġresem bles
Ġrick ety
Ġjam ming
Ġnumer al
Ġnutcra cker
easter n
Ġbaza ar
Ġshri mp
Ġshine y
Ġecle ctic
Ġlago on
Ġkah ki
Ġasho re
Ġpagod a
Ġpakist an
Ġchore ograph
Ġchels ea
Ġbroccol i
Ġcarab iner
Ġmott led
Ġvess el
Ġcongr atulate
Ġspong es
Ġsphere s
Ġsidewal ks
Ġsnok el
Ġsnowdri ft
Ġfasc inated
Ġcamcor der
Ġgott en
Ġgondo la
pectac led
Ġunise x
Ġuncom fortable
Ġunsha ven
quarter back
Ġarche ologist
Ġbrill iant
Ġtoyot a
Ġfootpa th
Ġadvo cacy
Ġencount er
Ġbartend er
Ġrestara unt
Ġliken ess
Ġgaug es
Ġpromotion al
Ġtehel ka
Ġexpen sive
Ġexchan ging
Ġexagg erated
Ġmicrowa ve
Ġfrancis co
Ġmargar ita
Ġapparat us
Ġdecre pit
Ġdriftwo od
Ġdisinterest ed
Ġamster dam
decor ated
Ġturbu lent
Ġcrayo la
Ġfourt een
Ġshorebre ak
scient ists
Ġstraitjack et
Ġwebs ite
Ġnathal ie
Ġtibet an
Ġchihu ahua
Ġmultira cial
Ġpecul iar
Ġsuspic iously
Ġzno cob
Ġdemocra cy
Ġ344 3
Ġapproxim ately
Ġespress o
Ġpinstri pe
blindfold ed
Ġglimp se
Ġpheas ant
Ġarchae ological
Ġbellbott oms
Ġprimit ive
Ġsynthes izer
Ġ802 6
Ġparaphernal ia
Ġsamura i
Ġabstra ct
Ġsophistic ated
