{"<s>":0,"<pad>":1,"<e>":2,"<unk>":3,"<mask>":4,"!":5,"\"":6,"#":7,"$":8,"%":9,"&":10,"'":11,"(":12,")":13,"*":14,"+":15,",":16,"-":17,".":18,"/":19,"0":20,"1":21,"2":22,"3":23,"4":24,"5":25,"6":26,"7":27,"8":28,"9":29,":":30,";":31,"<":32,"=":33,">":34,"?":35,"@":36,"A":37,"B":38,"C":39,"D":40,"E":41,"F":42,"G":43,"H":44,"I":45,"J":46,"K":47,"L":48,"M":49,"N":50,"O":51,"P":52,"Q":53,"R":54,"S":55,"T":56,"U":57,"V":58,"W":59,"X":60,"Y":61,"Z":62,"[":63,"\\":64,"]":65,"^":66,"_":67,"`":68,"a":69,"b":70,"c":71,"d":72,"e":73,"f":74,"g":75,"h":76,"i":77,"j":78,"k":79,"l":80,"m":81,"n":82,"o":83,"p":84,"q":85,"r":86,"s":87,"t":88,"u":89,"v":90,"w":91,"x":92,"y":93,"z":94,"{":95,"|":96,"}":97,"~":98,"¡":99,"¢":100,"£":101,"¤":102,"¥":103,"¦":104,"§":105,"¨":106,"©":107,"ª":108,"«":109,"¬":110,"®":111,"¯":112,"°":113,"±":114,"²":115,"³":116,"´":117,"µ":118,"¶":119,"·":120,"¸":121,"¹":122,"º":123,"»":124,"¼":125,"½":126,"¾":127,"¿":128,"À":129,"Á":130,"Â":131,"Ã":132,"Ä":133,"Å":134,"Æ":135,"Ç":136,"È":137,"É":138,"Ê":139,"Ë":140,"Ì":141,"Í":142,"Î":143,"Ï":144,"Ð":145,"Ñ":146,"Ò":147,"Ó":148,"Ô":149,"Õ":150,"Ö":151,"×":152,"Ø":153,"Ù":154,"Ú":155,"Û":156,"Ü":157,"Ý":158,"Þ":159,"ß":160,"à":161,"á":162,"â":163,"ã":164,"ä":165,"å":166,"æ":167,"ç":168,"è":169,"é":170,"ê":171,"ë":172,"ì":173,"í":174,"î":175,"ï":176,"ð":177,"ñ":178,"ò":179,"ó":180,"ô":181,"õ":182,"ö":183,"÷":184,"ø":185,"ù":186,"ú":187,"û":188,"ü":189,"ý":190,"þ":191,"ÿ":192,"Ā":193,"ā":194,"Ă":195,"ă":196,"Ą":197,"ą":198,"Ć":199,"ć":200,"Ĉ":201,"ĉ":202,"Ċ":203,"ċ":204,"Č":205,"č":206,"Ď":207,"ď":208,"Đ":209,"đ":210,"Ē":211,"ē":212,"Ĕ":213,"ĕ":214,"Ė":215,"ė":216,"Ę":217,"ę":218,"Ě":219,"ě":220,"Ĝ":221,"ĝ":222,"Ğ":223,"ğ":224,"Ġ":225,"ġ":226,"Ģ":227,"ģ":228,"Ĥ":229,"ĥ":230,"Ħ":231,"ħ":232,"Ĩ":233,"ĩ":234,"Ī":235,"ī":236,"Ĭ":237,"ĭ":238,"Į":239,"į":240,"İ":241,"ı":242,"Ĳ":243,"ĳ":244,"Ĵ":245,"ĵ":246,"Ķ":247,"ķ":248,"ĸ":249,"Ĺ":250,"ĺ":251,"Ļ":252,"ļ":253,"Ľ":254,"ľ":255,"Ŀ":256,"ŀ":257,"Ł":258,"ł":259,"Ń":260,"Ġa":261,"in":262,"ing":263,"Ġw":264,"Ġs":265,"th":266,"Ġo":267,"an":268,"Ġb":269,"re":270,"Ġin":271,"er":272,"Ġp":273,"Ġc":274,"Ġm":275,"hi":276,"Ġth":277,"le":278,"Ġt":279,"ro":280,"Ġthe":281,"ar":282,"nd":283,"Ġg":284,"is":285,"Ġd":286,"Ġon":287,"Ġf":288,"la":289,"Ġh":290,"al":291,"Ġand":292,"en":293,"Ġis":294,"it":295,"at":296,"Ġman":297,"Ġof":298,"ck":299,"om":300,"Ġst":301,"Ġwi":302,"Ġwith":303,"lo":304,"ld":305,"or":306,"un":307,"es":308,"ir":309,"Ġdo":310,"Ġto":311,"on":312,"Ġwhi":313,"id":314,"and":315,"Ġwom":316,"et":317,"ear":318,"Ġbo":319,"ra":320,"ch":321,"ed":322,"rou":323,"Ġ,":324,"king":325,"wo":326,"Ġare":327,"Ġwoman":328,"op":329,"ss":330,"Ġy":331,"Ġpla":332,"rt":333,"te":334,"Ġat":335,"oun":336,"Ġre":337,"all":338,"Ġl":339,"two":340,"Ġdog":341,"itt":342,"hirt":343,"Ġplay":344,"Ġhi":345,"ut":346,"Ġwear":347,"ge":348,"ers":349,"ic":350,"eop":351,"eople":352,"Ġwearing":353,"Ġr":354,"Ġan":355,"Ġstand":356,"Ġshirt":357,"wn":358,"Ġj":359,"oung":360,"Ġboy":361,"st":362,"el":363,"Ġwhite":364,"irl":365,"Ġn":366,"ide":367,"Ġgirl":368,"ea":369,"Ġyoung":370,"Ġba":371,"lack":372,"Ġpeople":373,"ue":374,"oo":375,"Ġblack":376,"Ġlo":377,"gh":378,"Ġbl":379,"um":380,"Ġho":381,"Ġwat":382,"ur":383,"Ġsh":384,"Ġfro":385,"Ġblue":386,"hild":387,"Ġwhile":388,"Ġout":389,"Ġco":390,"ther":391,"lding":392,"Ġhis":393,"itting":394,"Ġchild":395,"ts":396,"Ġred":397,"Ġsitting":398,"Ġwal":399,"Ġro":400,"ver":401,"Ġstanding":402,"Ġplaying":403,"il":404,"us":405,"ce":406,"round":407,"up":408,"Ġloo":409,"the":410,"ri":411,"Ġmen":412,"am":413,"Ġe":414,"Ġsm":415,"ad":416,"nt":417,"Ġla":418,"ree":419,"Ġgra":420,"Ġbe":421,"roup":422,"low":423,"Ġfront":424,"ard":425,"Ġwater":426,"ct":427,"Ġgroup":428,"Ġk":429,"im":430,"ome":431,"Ġdown":432,"Ġher":433,"Ġrun":434,"Ġholding":435,"ve":436,"ks":437,"Ġstre":438,"Ġwor":439,"Ġha":440,"Ġas":441,"ump":442,"Ġta":443,"se":444,"ion":445,"ow":446,"Ġpa":447,"Ġch":448,"to":449,"ie":450,"Ġstreet":451,"Ġwalking":452,"side":453,"ittle":454,"ent":455,"ul":456,"Ġsw":457,"Ġbro":458,"Ġjump":459,"Ġpo":460,"ke":461,"ress":462,"Ġup":463,"Ġgre":464,"Ġlittle":465,"ood":466,"Ġsome":467,"Ġback":468,"Ġcar":469,"Ġbrown":470,"its":471,"ying":472,"ren":473,"Ġby":474,"each":475,"Ġfor":476,"bo":477,"ting":478,"Ġgreen":479,"one":480,"ark":481,"Ġdress":482,"Ġne":483,"Ġbu":484,"ack":485,"Ġma":486,"red":487,"Ġor":488,"Ġhat":489,"Ġle":490,"rough":491,"ind":492,"Ġone":493,"ble":494,"Ġyel":495,"ning":496,"Ġthrough":497,"arge":498,"Ġmo":499,"ay":500,"Ġyellow":501,"Ġtra":502,"Ġra":503,"Ġlarge":504,"Ġlooking":505,"uit":506,"three":507,"Ġv":508,"Ġoutside":509,"Ġover":510,"erson":511,"ght":512,"Ġgrass":513,"Ġcro":514,"Ġchildren":515,"ain":516,"Ġrunning":517,"Ġsmall":518,"Ġtwo":519,"Ġcon":520,"man":521,"Ġball":522,"Ġsp":523,"Ġperson":524,"air":525,"if":526,"Ġwomen":527,"ig":528,"Ġhand":529,"lass":530,"ink":531,"Ġside":532,"Ġfrom":533,"Ġrid":534,"Ġsn":535,"ru":536,"Ġinto":537,"ll":538,"ng":539,"Ġnear":540,"ange":541,"xt":542,"orm":543,"ure":544,"Ġwatch":545,"ly":546,"Ġother":547,"ball":548,"Ġnext":549,"Ġjack":550,"les":551,"ee":552,"Ġsk":553,"thing":554,"Ġbeach":555,"Ġorange":556,"Ġca":557,"Ġtheir":558,"Ġjacket":559,"Ġbui":560,"Ġwork":561,"ving":562,"other":563,"ian":564,"Ġjumping":565,"Ġsnow":566,"Ġanother":567,"lder":568,"Ġbuilding":569,"ho":570,"Ġfie":571,"Ġwa":572,"Ġcl":573,"Ġdogs":574,"Ġrock":575,"Ġso":576,"ight":577,"ount":578,"ground":579,"wd":580,"Ġfa":581,"Ġtable":582,"Ġstands":583,"em":584,"Ġaround":585,"Ġfield":586,"ore":587,"pp":588,"Ġcam":589,"Ġcrowd":590,"dy":591,"ick":592,"lasses":593,"ead":594,"ph":595,"alk":596,"ans":597,"Ġpink":598,"Ġdressed":599,"yc":600,"Ġshor":601,"Ġsits":602,"people":603,"Ġbi":604,"Ġsc":605,"und":606,"Ġoff":607,"Ġdr":608,"Ġwood":609,"Ġclo":610,"by":611,"Ġblo":612,"ine":613,"Ġtop":614,"hind":615,"cer":616,"Ġbehind":617,"ling":618,"ction":619,"Ġgirls":620,"Ġgo":621,"eat":622,"do":623,"Ġworking":624,"Ġriding":625,"ool":626,"iling":627,"Ġpic":628,"ture":629,"rying":630,"Ġsun":631,"era":632,"imb":633,"walk":634,"ping":635,"oot":636,"age":637,"Ġlooks":638,"Ġpark":639,"Ġclimb":640,"Ġtal":641,"Ġ'":642,"Ġwall":643,"way":644,"Ġair":645,"Ġhead":646,"Ġthat":647,"ountain":648,"Ġsand":649,"Ġbackground":650,"Ġcamera":651,"ating":652,"Ġshorts":653,"ps":654,"Ġgray":655,"Ġguit":656,"Ġper":657,"est":658,"as":659,"our":660,"ist":661,"Ġhold":662,"Ġsidewalk":663,"form":664,"Ġboys":665,"pe":666,"Ġswim":667,"ate":668,"Ġguitar":669,"Ġje":670,"Ġhair":671,"ub":672,"Ġun":673,"Ġpicture":674,"Ġit":675,"ves":676,"Ġtalking":677,"Ġread":678,"board":679,"ants":680,"ish":681,"ity":682,"Ġsho":683,"Ġsomething":684,"Ġblond":685,"Ġsit":686,"Ġhim":687,"Ġalo":688,"stru":689,"irt":690,"Ġhas":691,"Ġsoc":692,"qu":693,"Ġplays":694,"Ġgu":695,"Ġbus":696,"ud":697,"shirt":698,"Ġar":699,"ff":700,"Ġsmiling":701,"door":702,"struction":703,"uth":704,"Ġsoccer":705,"Ġbaby":706,"ire":707,"Ġwalks":708,"Ġhel":709,"ame":710,"ice":711,"ter":712,"ycle":713,"Ġholds":714,"Ġund":715,"Ġbr":716,"lee":717,"cing":718,"Ġcom":719,"Ġflo":720,"Ġwalk":721,"Ġben":722,"Ġtoge":723,"veral":724,"Ġperform":725,"ol":726,"Ġunder":727,"Ġpar":728,"Ġglasses":729,"Ġjumps":730,"Ġjeans":731,"Ġsur":732,"Ġpool":733,"atch":734,"Ġtoy":735,"ant":736,"Ġalong":737,"Ġpants":738,"Ġtogether":739,"Ġchair":740,"Ġpre":741,"Ġcolo":742,"Ġolder":743,"Ġfoot":744,"kes":745,"Ġfood":746,"ive":747,"ha":748,"mp":749,"Ġtan":750,"ped":751,"Ġbri":752,"ation":753,"Ġasian":754,"Ġbench":755,"Ġad":756,"Ġmouth":757,"gs":758,"Ġwh":759,"Ġcity":760,"Ġac":761,"ward":762,"dle":763,"Ġruns":764,"gg":765,"Ġthem":766,"Ġstri":767,"Ġboo":768,"Ġguy":769,"Ġdark":770,"Ġlady":771,"phone":772,"Ġbike":773,"Ġmountain":774,"Ġplayer":775,"Ġkid":776,"Ġroad":777,"four":778,"led":779,"Ġoutdoor":780,"Ġswing":781,"Ġhe":782,"Ġboat":783,"Ġtree":784,"Ġten":785,"Ġmid":786,"ip":787,"Ġface":788,"Ġen":789,"Ġbar":790,"sh":791,"iting":792,"Ġrest":793,"Ġlong":794,"Ġeach":795,"Ġse":796,"nis":797,"Ġwind":798,"Ġabo":799,"Ġgame":800,"Ġconstruction":801,"Ġhands":802,"Ġtennis":803,"Ġarm":804,"dd":805,"Ġlea":806,"Ġtrain":807,"Ġsuit":808,"Ġli":809,"Ġits":810,"Ġunif":811,"Ġsa":812,"Ġarea":813,"sk":814,"Ġpain":815,"Ġbic":816,"are":817,"Ġuniform":818,"Ġget":819,"Ġfootball":820,"ming":821,"Ġcoat":822,"ign":823,"Ġhor":824,"Ġwatching":825,"ach":826,"Ġche":827,"Ġus":828,"wom":829,"Ġbal":830,"Ġdirt":831,"per":832,"ence":833,"Ġcarrying":834,"Ġground":835,"Ġclimbing":836,"Ġbeing":837,"mer":838,"Ġroom":839,"Ġga":840,"Ġpro":841,"sing":842,"Ġsweat":843,"umb":844,"Ġcomp":845,"Ġ\"":846,"Ġtaking":847,"Ġwindow":848,"Ġwho":849,"Ġsl":850,"Ġeating":851,"ne":852,"ell":853,"Ġstriped":854,"ired":855,"Ġpur":856,"ross":857,"ust":858,"Ġte":859,"tor":860,"Ġband":861,"met":862,"Ġtoward":863,"Ġbase":864,"Ġworkers":865,"Ġdan":866,"ric":867,"Ġmus":868,"Ġfish":869,"ema":870,"Ġcatch":871,"young":872,"Ġlook":873,"Ġhelmet":874,"Ġslee":875,"Ġdoing":876,"Ġsing":877,"Ġfl":878,"Ġacross":879,"Ġswimming":880,"Ġve":881,"Ġwooden":882,"Ġold":883,"Ġstick":884,"Ġex":885,"Ġmic":886,"several":887,"Ġfema":888,"eam":889,"haired":890,"pen":891,"Ġsign":892,"itch":893,"Ġcoup":894,"Ġaf":895,"ush":896,"ment":897,"Ġmicro":898,"cks":899,"tt":900,"Ġoce":901,"Ġdrin":902,"ful":903,"ies":904,"ag":905,"glasses":906,"ill":907,"ull":908,"Ġskate":909,"Ġob":910,"ess":911,"Ġcou":912,"jo":913,"Ġag":914,"Ġfloor":915,"Ġcouple":916,"uring":917,"wing":918,"ry":919,"there":920,"Ġcap":921,"Ġshop":922,"Ġocean":923,"Ġopen":924,"Ġmiddle":925,"Ġstage":926,"Ġpho":927,"Ġfr":928,"ugh":929,"Ġmar":930,"Ġcolor":931,"Ġcan":932,"boy":933,"Ġbaseball":934,"Ġphoto":935,"Ġset":936,"ect":937,"Ġthree":938,"Ġstore":939,"Ġapp":940,"Ġday":941,"Ġsunglasses":942,"Ġreading":943,"Ġtri":944,"use":945,"Ġadul":946,"iv":947,"Ġfemale":948,"Ġall":949,"aring":950,"Ġmotor":951,"Ġsmi":952,"Ġpi":953,"Ġmusic":954,"ging":955,"Ġde":956,"str":957,"Ġwatches":958,"ler":959,"Ġtre":960,"Ġno":961,"Ġenjo":962,"woman":963,"Ġbicycle":964,"men":965,"Ġprep":966,"ple":967,"Ġshe":968,"Ġskateboard":969,"ere":970,"Ġmale":971,"aur":972,"Ġart":973,"aning":974,"Ġri":975,"Ġhorse":976,"Ġgrassy":977,"Ġkids":978,"Ġfence":979,"Ġdri":980,"ainst":981,"Ġagainst":982,"Ġrestaur":983,"Ġpie":984,"Ġlaugh":985,"Ġkitch":986,"ort":987,"Ġkitchen":988,"Ġlake":989,"Ġrestaurant":990,"Ġgr":991,"Ġinside":992,"Ġcle":993,"Ġwaiting":994,"Ġfore":995,"Ġcross":996,"Ġperforming":997,"Ġthro":998,"Ġhan":999,"Ġhill":1000,"Ġpurple":1001,"ruck":1002,"ft":1003,"Ġcoo":1004,"Ġhaving":1005,"less":1006,"Ġusing":1007,"Ġflow":1008,"Ġbag":1009,"ix":1010,"Ġrides":1011,"Ġhigh":1012,"Ġpath":1013,"ial":1014,"ws":1015,"Ġvest":1016,"Ġpart":1017,"Ġste":1018,"Ġabout":1019,"Ġmicrophone":1020,"cle":1021,"Ġteam":1022,"iff":1023,"ca":1024,"Ġfire":1025,"co":1026,"Ġsurround":1027,"Ġfe":1028,"ents":1029,"Ġbig":1030,"ces":1031,"ner":1032,"lderly":1033,"ses":1034,"Ġbes":1035,"ey":1036,"vered":1037,"Ġmotorc":1038,"Ġoutf":1039,"child":1040,"ily":1041,"Ġinstr":1042,"Ġsha":1043,"Ġclothing":1044,"Ġinstrum":1045,"kers":1046,"utting":1047,"cket":1048,"Ġtrees":1049,"Ġshow":1050,"Ġbeside":1051,"Ġmark":1052,"Ġshirts":1053,"Ġcow":1054,"Ġtowards":1055,"Ġbow":1056,"Ġlight":1057,"Ġmaking":1058,"Ġworker":1059,"Ġtruck":1060,"Ġelderly":1061,"Ġtodd":1062,"Ġkick":1063,"Ġhats":1064,"thers":1065,"Ġcolorful":1066,"Ġseat":1067,"very":1068,"Ġbright":1069,"Ġcloth":1070,"Ġfla":1071,"ade":1072,"Ġpiece":1073,"Ġdis":1074,"Ġtrying":1075,"Ġthey":1076,"Ġgetting":1077,"vel":1078,"Ġdes":1079,"Ġhard":1080,"Ġdrinking":1081,"some":1082,"ak":1083,"Ġmet":1084,"Ġride":1085,"Ġpast":1086,"Ġbook":1087,"ley":1088,"Ġduring":1089,"Ġposing":1090,"Ġrace":1091,"ted":1092,"Ġarms":1093,"Ġriver":1094,"ding":1095,"loo":1096,"rie":1097,"pack":1098,"Ġdoor":1099,"Ġmach":1100,"Ġfris":1101,"Ġbody":1102,"Ġlaying":1103,"Ġfrisb":1104,"Ġsweater":1105,"ject":1106,"Ġsleeping":1107,"rel":1108,"ron":1109,"io":1110,"Ġbackpack":1111,"Ġrope":1112,"Ġtoddler":1113,"eep":1114,"Ġrocks":1115,"Ġbear":1116,"Ġoutdoors":1117,"Ġsub":1118,"lect":1119,"Ġhu":1120,"Ġfrisbee":1121,"Ġpush":1122,"Ġcovered":1123,"Ġsinging":1124,"Ġev":1125,"Ġbrick":1126,"Ġam":1127,"Ġbusy":1128,"Ġsurf":1129,"Ġonto":1130,"Ġtank":1131,"sket":1132,"eel":1133,"Ġtr":1134,"Ġbasket":1135,"ys":1136,"ance":1137,"Ġplayers":1138,"als":1139,"pla":1140,"we":1141,"Ġcost":1142,"Ġpass":1143,"Ġsurrounded":1144,"Ġsmiles":1145,"vers":1146,"ank":1147,"Ġcell":1148,"Ġboard":1149,"Ġbrid":1150,"Ġmarket":1151,"Ġothers":1152,"Ġatt":1153,"Ġvery":1154,"Ġline":1155,"Ġlaughing":1156,"ny":1157,"Ġind":1158,"Ġstone":1159,"Ġhouse":1160,"Ġme":1161,"Ġpol":1162,"Ġmetal":1163,"stic":1164,"ement":1165,"Ġbre":1166,"Ġstair":1167,"Ġtrack":1168,"Ġnight":1169,"Ġcostum":1170,"Ġcor":1171,"nds":1172,"Ġpaper":1173,"children":1174,"ican":1175,"Ġoutfit":1176,"Ġcre":1177,"room":1178,"Ġfountain":1179,"Ġjo":1180,"this":1181,"Ġbea":1182,"Ġcart":1183,"five":1184,"ird":1185,"Ġenjoying":1186,"Ġbeard":1187,"Ġumb":1188,"Ġcolored":1189,"de":1190,"Ġbed":1191,"Ġhanging":1192,"Ġumbrel":1193,"Ġbott":1194,"Ġal":1195,"Ġey":1196,"iving":1197,"ests":1198,"Ġumbrella":1199,"ching":1200,"Ġlif":1201,"Ġroll":1202,"Ġcouch":1203,"gra":1204,"Ġpole":1205,"Ġwheel":1206,"Ġafter":1207,"Ġcellphone":1208,"ears":1209,"Ġsubway":1210,"con":1211,"thered":1212,"amily":1213,"Ġseveral":1214,"Ġcooking":1215,"iz":1216,"ines":1217,"Ġshoes":1218,"hone":1219,"Ġaway":1220,"Ġrail":1221,"Ġmotorcycle":1222,"ker":1223,"Ġchairs":1224,"Ġpainting":1225,"Ġslide":1226,"Ġvehi":1227,"be":1228,"Ġabove":1229,"of":1230,"ved":1231,"Ġpl":1232,"Ġpul":1233,"Ġtur":1234,"Ġtakes":1235,"Ġleaning":1236,"Ġpra":1237,"Ġcount":1238,"Ġap":1239,"Ġchas":1240,"Ġpoin":1241,"Ġevent":1242,"bble":1243,"Ġbox":1244,"Ġkn":1245,"Ġski":1246,"Ġcomput":1247,"Ġcowboy":1248,"Ġamer":1249,"Ġmany":1250,"cre":1251,"Ġsqu":1252,"ety":1253,"Ġatte":1254,"Ġlike":1255,"Ġclothes":1256,"Ġdrum":1257,"Ġfishing":1258,"Ġcra":1259,"Ġdra":1260,"Ġfamily":1261,"Ġplastic":1262,"Ġsnowy":1263,"Ġdancing":1264,"able":1265,"Ġfo":1266,"Ġguys":1267,"Ġshopping":1268,"hair":1269,"Ġequ":1270,"Ġvests":1271,"Ġuniforms":1272,"Ġice":1273,"Ġsmo":1274,"Ġteen":1275,"cor":1276,"ium":1277,"wor":1278,"Ġwhat":1279,"Ġgathered":1280,"rican":1281,"Ġadults":1282,"na":1283,"Ġbet":1284,"Ġfrie":1285,"Ġlot":1286,"Ġlap":1287,"lic":1288,"ong":1289,"Ġshore":1290,"Ġdrink":1291,"Ġready":1292,"Ġvie":1293,"ition":1294,"Ġcrowded":1295,"Ġshort":1296,"Ġmachine":1297,"Ġbridge":1298,"Ġkne":1299,"graph":1300,"Ġed":1301,"Ġwr":1302,"Ġshirtless":1303,"ult":1304,"Ġcont":1305,"Ġskirt":1306,"fe":1307,"sc":1308,"uff":1309,"Ġfour":1310,"Ġconcre":1311,"Ġconcrete":1312,"Ġtall":1313,"Ġboth":1314,"Ġright":1315,"Ġpreparing":1316,"ween":1317,"little":1318,"Ġconvers":1319,"Ġamerican":1320,"Ġbetween":1321,"ats":1322,"ons":1323,"Ġplayground":1324,"Ġspea":1325,"Ġadult":1326,"Ġsteps":1327,"Ġequip":1328,"Ġhome":1329,"Ġglass":1330,"ones":1331,"many":1332,"gging":1333,"Ġafrican":1334,"sel":1335,"arf":1336,"ctor":1337,"Ġgather":1338,"Ġflowers":1339,"ring":1340,"Ġgold":1341,"Ġshou":1342,"Ġphotograph":1343,"Ġstru":1344,"Ġhit":1345,"Ġobject":1346,"Ġequipment":1347,"lash":1348,"Ġnumb":1349,"Ġedge":1350,"Ġpub":1351,"Ġfil":1352,"cture":1353,"Ġtrail":1354,"Ġgoing":1355,"Ġsaf":1356,"Ġwet":1357,"Ġhood":1358,"Ġbeer":1359,"Ġrocky":1360,"ned":1361,"ated":1362,"unch":1363,"Ġyard":1364,"Ġpract":1365,"Ġsafety":1366,"girl":1367,"ids":1368,"Ġsplash":1369,"Ġseated":1370,"Ġcur":1371,"Ġanim":1372,"Ġroof":1373,"Ġsky":1374,"Ġwoods":1375,"Ġforest":1376,"Ġview":1377,"Ġpublic":1378,"ber":1379,"kin":1380,"Ġpad":1381,"Ġphone":1382,"Ġbucket":1383,"Ġclimbs":1384,"Ġvehicle":1385,"Ġjers":1386,"pping":1387,"ares":1388,"Ġdispla":1389,"Ġsu":1390,"nding":1391,"Ġfull":1392,"Ġgrill":1393,"Ġinstruments":1394,"Ġblow":1395,"Ġstra":1396,"ime":1397,"Ġcheck":1398,"pa":1399,"ym":1400,"Ġwhich":1401,"Ġhave":1402,"Ġpushing":1403,"att":1404,"Ġcourt":1405,"Ġjersey":1406,"Ġwe":1407,"Ġsil":1408,"ors":1409,"Ġrain":1410,"roll":1411,"Ġbathing":1412,"pped":1413,"ists":1414,"Ġblank":1415,"br":1416,"ening":1417,"Ġstat":1418,"Ġkis":1419,"Ġvol":1420,"Ġcliff":1421,"Ġapron":1422,"ane":1423,"ery":1424,"Ġcup":1425,"Ġref":1426,"ster":1427,"ycl":1428,"Ġsetting":1429,"igh":1430,"Ġclass":1431,"chool":1432,"Ġthrowing":1433,"Ġwed":1434,"Ġpat":1435,"elling":1436,"Ġnearby":1437,"Ġsunny":1438,"Ġmountains":1439,"Ġinf":1440,"Ġgar":1441,"upp":1442,"Ġworks":1443,"Ġpose":1444,"Ġappears":1445,"Ġcostume":1446,"Ġpick":1447,"Ġleft":1448,"Ġshovel":1449,"Ġstructure":1450,"Ġbut":1451,"Ġswims":1452,"Ġballo":1453,"Ġsweatshirt":1454,"Ġpolice":1455,"Ġattemp":1456,"let":1457,"Ġbags":1458,"Ġsomeone":1459,"Ġcutting":1460,"Ġreach":1461,"Ġladd":1462,"ious":1463,"Ġkneel":1464,"set":1465,"top":1466,"Ġputting":1467,"Ġglo":1468,"Ġdist":1469,"Ġstop":1470,"utif":1471,"ries":1472,"Ġmart":1473,"Ġparty":1474,"Ġbasketball":1475,"Ġstairs":1476,"Ġcomputer":1477,"Ġwedding":1478,"utiful":1479,"ins":1480,"Ġbird":1481,"Ġcig":1482,"Ġgear":1483,"Ġfun":1484,"Ġna":1485,"Ġlawn":1486,"Ġcigare":1487,"mo":1488,"Ġblanket":1489,"Ġvolley":1490,"Ġwin":1491,"Ġsee":1492,"art":1493,"entle":1494,"Ġbubble":1495,"ggles":1496,"Ġswinging":1497,"Ġsea":1498,"Ġlist":1499,"Ġcoll":1500,"Ġform":1501,"ycles":1502,"Ġcompet":1503,"Ġcleaning":1504,"Ġeyes":1505,"Ġcement":1506,"Ġgym":1507,"Ġstud":1508,"Ġelect":1509,"tte":1510,"Ġstroll":1511,"ches":1512,"ally":1513,"Ġposes":1514,"Ġoverloo":1515,"Ġdriving":1516,"Ġnumber":1517,"out":1518,"Ġaud":1519,"ates":1520,"Ġmartial":1521,"Ġschool":1522,"Ġcheer":1523,"aged":1524,"Ġbeautiful":1525,"Ġpulling":1526,"bor":1527,"ining":1528,"Ġmon":1529,"arm":1530,"Ġmother":1531,"ug":1532,"Ġtrun":1533,"Ġvolleyball":1534,"Ġti":1535,"Ġgentle":1536,"ite":1537,"ading":1538,"Ġtrick":1539,"enter":1540,"Ġmakes":1541,"Ġrais":1542,"Ġscarf":1543,"Ġpres":1544,"vy":1545,"Ġplat":1546,"nic":1547,"Ġinstrument":1548,"Ġfriends":1549,"Ġladder":1550,"Ġcigarette":1551,"Ġban":1552,"Ġdock":1553,"Ġbride":1554,"ival":1555,"Ġbowl":1556,"Ġkicking":1557,"Ġflag":1558,"Ġselling":1559,"ary":1560,"ater":1561,"Ġstation":1562,"Ġfacing":1563,"Ġoffic":1564,"Ġslid":1565,"Ġbare":1566,"Ġhapp":1567,"Ġnew":1568,"Ġspor":1569,"Ġcake":1570,"construction":1571,"foot":1572,"wel":1573,"allow":1574,"Ġcol":1575,"Ġemp":1576,"Ġbikes":1577,"women":1578,"group":1579,"ty":1580,"zz":1581,"Ġtake":1582,"Ġmake":1583,"ash":1584,"Ġpaint":1585,"Ġamong":1586,"Ġdisplay":1587,"Ġint":1588,"Ġlying":1589,"Ġmask":1590,"Ġsca":1591,"Ġpictures":1592,"Ġmud":1593,"Ġcoff":1594,"Ġpractic":1595,"Ġcoffee":1596,"Ġdig":1597,"Ġkay":1598,"Ġtracks":1599,"phones":1600,"Ġgoggles":1601,"Ġarts":1602,"Ġfeet":1603,"ced":1604,"dies":1605,"head":1606,"ience":1607,"Ġear":1608,"Ġmatch":1609,"Ġrela":1610,"Ġnews":1611,"Ġsandy":1612,"Ġboots":1613,"ger":1614,"get":1615,"yard":1616,"Ġser":1617,"Ġchi":1618,"Ġcut":1619,"Ġfix":1620,"Ġracing":1621,"Ġsite":1622,"Ġleaves":1623,"Ġcounter":1624,"Ġput":1625,"ese":1626,"Ġdoes":1627,"ched":1628,"Ġplaid":1629,"Ġbreak":1630,"Ġdistance":1631,"Ġwinter":1632,"cu":1633,"Ġrep":1634,"Ġjust":1635,"Ġscre":1636,"Ġcano":1637,"Ġsmile":1638,"Ġpile":1639,"Ġbowling":1640,"Ġsmoking":1641,"Ġcollar":1642,"Ġoverlooking":1643,"iness":1644,"ings":1645,"Ġscen":1646,"dog":1647,"Ġparked":1648,"Ġitem":1649,"Ġdance":1650,"Ġdrinks":1651,"Ġcorner":1652,"ical":1653,"Ġjackets":1654,"Ġsunset":1655,"asian":1656,"Ġwhere":1657,"Ġfew":1658,"Ġstatue":1659,"cl":1660,"Ġnet":1661,"Ġshowing":1662,"Ġcream":1663,"Ġlife":1664,"Ġim":1665,"ined":1666,"Ġbur":1667,"road":1668,"Ġgiving":1669,"Ġland":1670,"Ġladies":1671,"Ġbikin":1672,"Ġchasing":1673,"Ġsuits":1674,"Ġelectric":1675,"ail":1676,"ven":1677,"Ġqu":1678,"Ġty":1679,"Ġthere":1680,"Ġyounger":1681,"Ġrode":1682,"Ġneck":1683,"Ġbusiness":1684,"Ġleaps":1685,"Ġanimal":1686,"Ġtent":1687,"Ġtong":1688,"Ġcast":1689,"Ġreads":1690,"ivid":1691,"Ġwriting":1692,"Ġpot":1693,"Ġparking":1694,"Ġpainted":1695,"Ġpointing":1696,"attoo":1697,"ered":1698,"ike":1699,"person":1700,"Ġtalk":1701,"Ġhar":1702,"Ġlegs":1703,"Ġtramp":1704,"Ġvar":1705,"Ġspra":1706,"Ġrodeo":1707,"Ġ2":1708,"Ġmult":1709,"Ġstaring":1710,"Ġgraff":1711,"ulp":1712,"Ġsculp":1713,"ns":1714,"Ġshi":1715,"Ġpupp":1716,"Ġcla":1717,"Ġtie":1718,"Ġtattoo":1719,"iti":1720,"Ġhot":1721,"Ġspo":1722,"Ġflip":1723,"Ġprepares":1724,"someone":1725,"Ġmeal":1726,"Ġnewspa":1727,"Ġtrampol":1728,"ou":1729,"slee":1730,"ugg":1731,"Ġcand":1732,"Ġfall":1733,"Ġstream":1734,"Ġleash":1735,"Ġramp":1736,"Ġvi":1737,"Ġtalks":1738,"Ġcrossing":1739,"Ġaudience":1740,"Ġgentleman":1741,"Ġpracticing":1742,"Ġrelax":1743,"Ġcanoe":1744,"ives":1745,"nel":1746,"Ġbat":1747,"Ġcir":1748,"ette":1749,"Ġrailing":1750,"Ġwait":1751,"Ġgloves":1752,"Ġtrunks":1753,"black":1754,"me":1755,"ous":1756,"rest":1757,"Ġperforms":1758,"Ġconversation":1759,"Ġfilled":1760,"os":1761,"ught":1762,"Ġham":1763,"lored":1764,"Ġbath":1765,"Ġled":1766,"Ġconcer":1767,"Ġclose":1768,"Ġgraffiti":1769,"Ġtrampoline":1770,"Ġgard":1771,"Ġhiking":1772,"Ġcarries":1773,"Ġvide":1774,"Ġpicnic":1775,"Ġroller":1776,"Ġrailroad":1777,"ividu":1778,"arate":1779,"Ġgro":1780,"Ġshallow":1781,"Ġwooded":1782,"Ġbalan":1783,"Ġexam":1784,"erent":1785,"du":1786,"ia":1787,"od":1788,"pes":1789,"Ġdire":1790,"Ġdiff":1791,"Ġhea":1792,"Ġbottle":1793,"Ġvideo":1794,"ba":1795,"cts":1796,"port":1797,"Ġwea":1798,"Ġopp":1799,"Ġcars":1800,"Ġrider":1801,"Ġbarbe":1802,"Ġshoulder":1803,"Ġdifferent":1804,"bs":1805,"Ġmir":1806,"Ġdin":1807,"Ġfing":1808,"Ġfol":1809,"cting":1810,"Ġleans":1811,"Ġdecor":1812,"Ġkneeling":1813,"Ġcard":1814,"Ġtub":1815,"ators":1816,"Ġwears":1817,"Ġchain":1818,"Ġtables":1819,"Ġindividu":1820,"Ġbikini":1821,"sm":1822,"so":1823,"ope":1824,"Ġsandals":1825,"case":1826,"Ġlaptop":1827,"Ġstraw":1828,"Ġlistening":1829,"Ġconcert":1830,"Ġmirro":1831,"ness":1832,"Ġwra":1833,"ens":1834,"Ġplate":1835,"eath":1836,"Ġbei":1837,"Ġdresses":1838,"Ġbuildings":1839,"Ġwaves":1840,"Ġveget":1841,"Ġindian":1842,"Ġdrums":1843,"Ġbubbles":1844,"Ġsports":1845,"lf":1846,"Ġbunch":1847,"Ġmeat":1848,"Ġtime":1849,"ars":1850,"ise":1851,"Ġstuff":1852,"Ġleg":1853,"Ġscoot":1854,"Ġgolf":1855,"Ġpier":1856,"Ġsilver":1857,"Ġplatform":1858,"ace":1859,"Ġonloo":1860,"Ġtrash":1861,"Ġwash":1862,"Ġvend":1863,"Ġspeaking":1864,"Ġpadd":1865,"Ġpresent":1866,"ban":1867,"rin":1868,"Ġpull":1869,"Ġcr":1870,"Ġtire":1871,"cking":1872,"Ġtou":1873,"ony":1874,"ffo":1875,"Ġeng":1876,"Ġbarefoot":1877,"bb":1878,"der":1879,"ga":1880,"Ġway":1881,"Ġson":1882,"Ġsame":1883,"Ġsto":1884,"Ġshad":1885,"Ġwave":1886,"Ġtries":1887,"Ġdesk":1888,"Ġempty":1889,"Ġscaffo":1890,"Ġrepair":1891,"Ġmirror":1892,"fore":1893,"kids":1894,"pers":1895,"sed":1896,"yho":1897,"Ġtun":1898,"Ġret":1899,"Ġkarate":1900,"Ġproject":1901,"Ġfruit":1902,"Ġtongue":1903,"Ġledge":1904,"whi":1905,"Ġindoor":1906,"Ġda":1907,"Ġmidair":1908,"Ġcatching":1909,"Ġcontain":1910,"Ġviol":1911,"Ġgarden":1912,"Ġvegetable":1913,"yhound":1914,"ki":1915,"Ġsay":1916,"Ġbull":1917,"Ġpe":1918,"lead":1919,"Ġfur":1920,"Ġlit":1921,"Ġpost":1922,"Ġspect":1923,"Ġresting":1924,"Ġmusical":1925,"Ġmusician":1926,"gu":1927,"ser":1928,"six":1929,"Ġbra":1930,"erman":1931,"Ġstring":1932,"urse":1933,"Ġbefore":1934,"Ġchur":1935,"Ġswings":1936,"Ġheld":1937,"Ġballoon":1938,"Ġstroller":1939,"ute":1940,"Ġwine":1941,"ert":1942,"Ġtool":1943,"Ġwaters":1944,"Ġvis":1945,"ized":1946,"Ġgathering":1947,"Ġkissing":1948,"Ġreflect":1949,"yclist":1950,"Ġnewspaper":1951,"Ġonlookers":1952,"Ġdiving":1953,"lat":1954,"Ġele":1955,"Ġgoal":1956,"uddle":1957,"Ġhelmets":1958,"Ġflying":1959,"Ġgarb":1960,"mb":1961,"sta":1962,"Ġcover":1963,"vert":1964,"Ġmales":1965,"Ġparade":1966,"Ġblowing":1967,"Ġbeige":1968,"Ġcrou":1969,"Ġthis":1970,"len":1971,"lders":1972,"Ġaslee":1973,"Ġcho":1974,"Ġracket":1975,"Ġhelping":1976,"Ġtoys":1977,"Ġsliding":1978,"Ġtype":1979,"Ġvendor":1980,"Ġchurch":1981,"Ġasleep":1982,"ken":1983,"Ġsort":1984,"read":1985,"Ġtu":1986,"Ġfest":1987,"ung":1988,"Ġplace":1989,"ely":1990,"Ġhole":1991,"Ġupside":1992,"Ġbooth":1993,"Ġleaping":1994,"Ġprodu":1995,"Ġobsta":1996,"Ġopening":1997,"Ġnot":1998,"Ġalley":1999,"Ġteenag":2000,"workers":2001,"ighting":2002,"for":2003,"Ġsus":2004,"Ġce":2005,"Ġgroom":2006,"Ġfight":2007,"alls":2008,"Ġlog":2009,"illing":2010,"ached":2011,"Ġuses":2012,"Ġforeground":2013,"Ġattempting":2014,"Ġscreen":2015,"Ġstuffed":2016,"ast":2017,"Ġoper":2018,"Ġpan":2019,"Ġfighting":2020,"Ġstad":2021,"unette":2022,"Ġtour":2023,"chair":2024,"Ġring":2025,"elf":2026,"Ġcafe":2027,"Ġdry":2028,"Ġchef":2029,"Ġenjoy":2030,"Ġsplashing":2031,"Ġfixing":2032,"Ġscene":2033,"cy":2034,"ma":2035,"wa":2036,"Ġcat":2037,"Ġfal":2038,"Ġrow":2039,"Ġwaterf":2040,"Ġtack":2041,"Ġswee":2042,"Ġfather":2043,"Ġfaces":2044,"Ġheadphones":2045,"Ġgets":2046,"Ġbald":2047,"Ġdesert":2048,"Ġdoorway":2049,"Ġitems":2050,"Ġbarbec":2051,"Ġfollow":2052,"Ġtunnel":2053,"Ġsays":2054,"band":2055,"wh":2056,"Ġbel":2057,"Ġbeam":2058,"Ġdeep":2059,"Ġbelow":2060,"Ġcoming":2061,"Ġbooks":2062,"Ġwindows":2063,"Ġflags":2064,"Ġhappy":2065,"Ġviolin":2066,"Ġspectators":2067,"pan":2068,"tion":2069,"Ġfen":2070,"Ġboun":2071,"Ġcourse":2072,"Ġeat":2073,"Ġgreyhound":2074,"Ġbran":2075,"Ġobser":2076,"Ġattire":2077,"Ġsculpture":2078,"Ġbarbecue":2079,"grou":2080,"tail":2081,"Ġcrying":2082,"Ġmem":2083,"Ġgood":2084,"Ġlays":2085,"Ġcas":2086,"Ġhorses":2087,"Ġflower":2088,"Ġtrans":2089,"Ġharness":2090,"small":2091,"Ġscooter":2092,"lst":2093,"Ġincl":2094,"Ġmed":2095,"Ġtro":2096,"Ġwhilst":2097,"Ġspr":2098,"Ġwaits":2099,"Ġbicycles":2100,"Ġsings":2101,"ages":2102,"Ġcountry":2103,"Ġdigging":2104,"Ġkayak":2105,"leaders":2106,"Ġstadium":2107,"ms":2108,"ton":2109,"Ġmade":2110,"Ġgun":2111,"lage":2112,"Ġstr":2113,"ord":2114,"Ġeats":2115,"key":2116,"Ġblock":2117,"Ġalone":2118,"Ġunderw":2119,"Ġgolden":2120,"Ġheavy":2121,"Ġdinner":2122,"spe":2123,"Ġpea":2124,"Ġcal":2125,"Ġtowel":2126,"Ġlined":2127,"vement":2128,"Ġsnowboard":2129,"ffic":2130,"Ġsleeps":2131,"Ġsticks":2132,"Ġdev":2133,"Ġnose":2134,"Ġclear":2135,"Ġcook":2136,"cord":2137,"Ġfallen":2138,"Ġenter":2139,"Ġsled":2140,"Ġfair":2141,"ops":2142,"els":2143,"Ġnat":2144,"ural":2145,"Ġbrush":2146,"Ġbrunette":2147,"Ġwalkway":2148,"Ġliving":2149,"Ġbrightly":2150,"Ġhuge":2151,"Ġattached":2152,"Ġinflat":2153,"Ġofficer":2154,"Ġgrocer":2155,"Ġsprink":2156,"ile":2157,"lers":2158,"uck":2159,"uzz":2160,"Ġmix":2161,"ico":2162,"icip":2163,"Ġend":2164,"Ġkind":2165,"Ġbackyard":2166,"Ġbush":2167,"Ġpurse":2168,"Ġdeck":2169,"Ġskateboarder":2170,"Ġbottom":2171,"Ġteenage":2172,"Ġvarious":2173,"Ġrelaxing":2174,"Ġobstacle":2175,"ral":2176,"sca":2177,"Ġ;":2178,"Ġz":2179,"Ġtee":2180,"row":2181,"Ġgives":2182,"Ġdem":2183,"Ġvan":2184,"Ġleather":2185,"Ġcoats":2186,"ustom":2187,"fully":2188,"Ġhugging":2189,"Ġjogging":2190,"Ġbearded":2191,"Ġchases":2192,"clo":2193,"gon":2194,"Ġi":2195,"Ġter":2196,"ldi":2197,"Ġloc":2198,"Ġstret":2199,"Ġpond":2200,"Ġcarp":2201,"Ġclimber":2202,"Ġprote":2203,"Ġexp":2204,"Ġteams":2205,"Ġshows":2206,"Ġshoulders":2207,"Ġmultico":2208,"Ġpuppy":2209,"Ġshadow":2210,"gers":2211,"ls":2212,"Ġea":2213,"Ġwell":2214,"Ġwrest":2215,"Ġpen":2216,"Ġpig":2217,"Ġprin":2218,"Ġteach":2219,"Ġden":2220,"atting":2221,"Ġwide":2222,"Ġpavement":2223,"Ġdirty":2224,"Ġoutfits":2225,"Ġcostumes":2226,"Ġdrawing":2227,"Ġgymna":2228,"Ġvegetables":2229,"Ġfestival":2230,"Ġsuspe":2231,"Ġinflatable":2232,"Ġ3":2233,"ckey":2234,"ides":2235,"Ġange":2236,"urban":2237,"ctive":2238,"Ġchest":2239,"ently":2240,"Ġsword":2241,"Ġspe":2242,"iant":2243,"Ġhimsel":2244,"Ġadvert":2245,"Ġseen":2246,"Ġbandan":2247,"yclists":2248,"Ġpicking":2249,"Ġreaching":2250,"Ġinclud":2251,"Ġhimself":2252,"line":2253,"sp":2254,"Ġpuddle":2255,"Ġstar":2256,"orch":2257,"Ġatop":2258,"Ġmoving":2259,"Ġtraffic":2260,"Ġwaving":2261,"Ġoffice":2262,"estri":2263,"Ġligh":2264,"Ġthrow":2265,"Ġpassing":2266,"Ġturn":2267,"work":2268,"Ġcompetition":2269,"Ġstudents":2270,"Ġputs":2271,"Ġcircle":2272,"white":2273,"jam":2274,"Ġass":2275,"inned":2276,"Ġped":2277,"Ġfive":2278,"Ġhal":2279,"Ġhall":2280,"ets":2281,"Ġkha":2282,"Ġpajam":2283,"Ġbalcon":2284,"Ġtele":2285,"Ġcatches":2286,"Ġparticip":2287,"Ġpoints":2288,"scope":2289,"Ġclassroom":2290,"cuss":2291,"Ġwrapped":2292,"Ġscaffolding":2293,"Ġdenim":2294,"Ġsuspend":2295,"Ġbandanna":2296,"neath":2297,"wer":2298,"ang":2299,"Ġgiant":2300,"ator":2301,"Ġja":2302,"Ġhose":2303,"Ġsheep":2304,"ental":2305,"Ġoveralls":2306,"Ġjean":2307,"Ġguard":2308,"Ġunderneath":2309,"wards":2310,"Ġartist":2311,"Ġlaughs":2312,"Ġkicks":2313,"Ġhooded":2314,"Ġballoons":2315,"Ġdirection":2316,"Ġreflective":2317,"Ġadvertis":2318,"dition":2319,"fa":2320,"go":2321,"ot":2322,"Ġ1":2323,"Ġath":2324,"Ġmust":2325,"Ġfig":2326,"Ġyo":2327,"Ġbever":2328,"Ġpack":2329,"Ġcarn":2330,"Ġrac":2331,"Ġbiker":2332,"Ġsigns":2333,"Ġeye":2334,"inese":2335,"Ġwelding":2336,"Ġmuddy":2337,"Ġbalancing":2338,"Ġwaterfall":2339,"Ġmulticolored":2340,"aking":2341,"blo":2342,"suit":2343,"inery":2344,"Ġmil":2345,"Ġhay":2346,"Ġpouring":2347,"Ġtractor":2348,"Ġtradition":2349,"Ġballs":2350,"Ġcamou":2351,"Ġperformer":2352,"Ġsticking":2353,"Ġskateboarding":2354,"Ġclean":2355,"Ġcurly":2356,"sleeved":2357,"Ġsweeping":2358,"Ġbalcony":2359,"Ġcarnival":2360,"Ġcamouf":2361,"bro":2362,"ied":2363,"ible":2364,"tain":2365,"res":2366,"Ġmat":2367,"Ġthird":2368,"Ġrub":2369,"Ġperfor":2370,"Ġboats":2371,"Ġcane":2372,"Ġsurfboard":2373,"Ġswimsuit":2374,"Ġcastle":2375,"Ġspray":2376,"Ġdecorated":2377,"Ġindividuals":2378,"cles":2379,"day":2380,"light":2381,"old":2382,"que":2383,"inish":2384,"Ġmom":2385,"Ġmess":2386,"arrow":2387,"Ġsteep":2388,"Ġtoo":2389,"eds":2390,"stre":2391,"Ġhow":2392,"Ġpoles":2393,"Ġbackgrou":2394,"Ġgoes":2395,"Ġshoe":2396,"ession":2397,"Ġmachinery":2398,"Ġpushes":2399,"Ġfriend":2400,"Ġphotographer":2401,"Ġhitting":2402,"Ġhoodie":2403,"Ġinfant":2404,"Ġhammer":2405,"Ġgarbage":2406,"Ġtraditional":2407,"Ġperforman":2408,"gre":2409,"rist":2410,"vis":2411,"Ġsum":2412,"Ġcenter":2413,"Ġfra":2414,"Ġhiker":2415,"stand":2416,"Ġkey":2417,"Ġva":2418,"Ġbars":2419,"Ġappro":2420,"Ġshaving":2421,"Ġdiscuss":2422,"Ġbread":2423,"Ġretrie":2424,"Ġpajamas":2425,"blond":2426,"Ġkeyboard":2427,"ips":2428,"older":2429,"ual":2430,"these":2431,"Ġpump":2432,"Ġpitch":2433,"lection":2434,"itary":2435,"rier":2436,"ried":2437,"Ġpair":2438,"ggy":2439,"Ġdances":2440,"Ġmarching":2441,"Ġenjoys":2442,"Ġdrives":2443,"Ġhangs":2444,"aked":2445,"Ġhula":2446,"Ġplants":2447,"uffy":2448,"Ġfenced":2449,"Ġgrocery":2450,"Ġcamouflage":2451,"Ġperformance":2452,"cut":2453,"uc":2454,"wk":2455,"Ġurban":2456,"Ġinspe":2457,"Ġporch":2458,"itor":2459,"Ġstack":2460,"Ġbou":2461,"illow":2462,"Ġpaved":2463,"Ġstreets":2464,"oney":2465,"Ġclosed":2466,"Ġaccord":2467,"Ġamus":2468,"Ġmatching":2469,"Ġcarpet":2470,"Ġaccordion":2471,"bly":2472,"cro":2473,"ipping":2474,"ka":2475,"Ġsell":2476,"Ġbir":2477,"Ġpian":2478,"Ġpony":2479,"Ġcustom":2480,"Ġdish":2481,"Ġstool":2482,"onstr":2483,"eding":2484,"Ġlab":2485,"Ġclown":2486,"skinned":2487,"Ġprot":2488,"Ġshaking":2489,"Ġskiing":2490,"Ġspeaks":2491,"Ġchecking":2492,"Ġbutton":2493,"Ġbanner":2494,"Ġdevice":2495,"scape":2496,"Ġkhaki":2497,"com":2498,"Ġ.":2499,"Ġes":2500,"thday":2501,"Ġown":2502,"resh":2503,"Ġport":2504,"Ġcri":2505,"Ġtown":2506,"Ġcold":2507,"Ġchinese":2508,"Ġchrist":2509,"Ġmaga":2510,"Ġlead":2511,"Ġblouse":2512,"quet":2513,"ustic":2514,"Ġsheet":2515,"Ġdrive":2516,"Ġalso":2517,"Ġreaches":2518,"Ġcandy":2519,"Ġfinger":2520,"Ġunderwater":2521,"Ġbirthday":2522,"Ġmagaz":2523,"fight":2524,"yle":2525,"Ġears":2526,"Ġslo":2527,"Ġpillow":2528,"Ġmop":2529,"lete":2530,"Ġhur":2531,"Ġtoss":2532,"Ġjugg":2533,"Ġrobe":2534,"Ġbending":2535,"Ġskating":2536,"Ġwagon":2537,"Ġlies":2538,"Ġsax":2539,"Ġmicroscope":2540,"Ġprepare":2541,"Ġgrilling":2542,"Ġthrown":2543,"Ġthrows":2544,"Ġcorn":2545,"Ġwheelchair":2546,"Ġsquare":2547,"Ġcraw":2548,"Ġanimals":2549,"Ġcheerleaders":2550,"Ġteenagers":2551,"Ġdemonstr":2552,"brown":2553,"bla":2554,"cur":2555,"ured":2556,"Ġround":2557,"ino":2558,"Ġpit":2559,"Ġmin":2560,"Ġmoney":2561,"ront":2562,"Ġgate":2563,"Ġwithout":2564,"Ġdon":2565,"eting":2566,"Ġlone":2567,"Ġemb":2568,"Ġcha":2569,"Ġchalk":2570,"Ġhelp":2571,"Ġfloat":2572,"Ġfloral":2573,"Ġprof":2574,"place":2575,"Ġrolling":2576,"Ġcomputers":2577,"Ġnavy":2578,"Ġbathroom":2579,"Ġpaddling":2580,"Ġstove":2581,"Ġdaught":2582,"Ġmusicians":2583,"Ġtransport":2584,"Ġincluding":2585,"Ġhalf":2586,"Ġfigure":2587,"Ġamusement":2588,"Ġpiano":2589,"aw":2590,"flo":2591,"fire":2592,"mas":2593,"Ġbiting":2594,"Ġtric":2595,"Ġstir":2596,"ident":2597,"Ġpolo":2598,"Ġposs":2599,"Ġsoft":2600,"Ġguitars":2601,"Ġshot":2602,"Ġadj":2603,"Ġpasses":2604,"Ġsquatting":2605,"Ġpatio":2606,"Ġofficers":2607,"Ġwashing":2608,"Ġpulls":2609,"Ġtouching":2610,"guy":2611,"Ġsaxop":2612,"bers":2613,"cit":2614,"cul":2615,"cial":2616,"oustic":2617,"udy":2618,"Ġel":2619,"Ġsim":2620,"ering":2621,"Ġpow":2622,"Ġcere":2623,"Ġdump":2624,"Ġonly":2625,"Ġfan":2626,"ato":2627,"Ġrece":2628,"Ġhikers":2629,"Ġju":2630,"Ġloun":2631,"Ġhockey":2632,"dogs":2633,"Ġheads":2634,"Ġfloating":2635,"Ġparach":2636,"Ġjumpsuit":2637,"Ġacoustic":2638,"iple":2639,"Ġsewing":2640,"ache":2641,"Ġgaz":2642,"Ġfemales":2643,"Ġseems":2644,"Ġraised":2645,"Ġfalling":2646,"Ġchoir":2647,"Ġproduce":2648,"Ġlights":2649,"ath":2650,"ither":2651,"Ġori":2652,"Ġpet":2653,"lebr":2654,"Ġtw":2655,"ork":2656,"tered":2657,"Ġnice":2658,"Ġshade":2659,"Ġcoach":2660,"Ġlaund":2661,"Ġmost":2662,"Ġtravel":2663,"Ġcab":2664,"Ġwas":2665,"Ġwalls":2666,"Ġheadsc":2667,"Ġjewel":2668,"Ġthemsel":2669,"ipes":2670,"Ġuse":2671,"covered":2672,"Ġbackpacks":2673,"Ġsplashes":2674,"Ġfunny":2675,"Ġslides":2676,"Ġimage":2677,"Ġexamining":2678,"Ġcovering":2679,"Ġcelebr":2680,"Ġangel":2681,"Ġsummer":2682,"Ġapproach":2683,"back":2684,"dress":2685,"vie":2686,"Ġwarm":2687,"Ġwading":2688,"Ġfans":2689,"Ġhear":2690,"Ġstares":2691,"Ġlugg":2692,"Ġlow":2693,"Ġhoop":2694,"Ġcond":2695,"Ġeither":2696,"Ġgravel":2697,"Ġbucking":2698,"Ġcamp":2699,"icks":2700,"hawk":2701,"Ġfluffy":2702,"Ġappl":2703,"Ġplant":2704,"Ġchick":2705,"Ġship":2706,"sleeve":2707,"Ġrollerbla":2708,"Ġfingers":2709,"Ġengine":2710,"Ġindoors":2711,"estrians":2712,"Ġchristmas":2713,"Ġdaughter":2714,"Ġthemselves":2715,"cent":2716,"ges":2717,"med":2718,"Ġdun":2719,"ites":2720,"Ġsta":2721,"Ġdoll":2722,"Ġbeg":2723,"Ġraft":2724,"Ġspace":2725,"Ġcare":2726,"hou":2727,"Ġhelps":2728,"Ġprete":2729,"gged":2730,"Ġappear":2731,"Ġpipe":2732,"Ġpulled":2733,"Ġkiss":2734,"Ġattempts":2735,"Ġneckla":2736,"Ġrepairing":2737,"Ġbranch":2738,"Ġmilitary":2739,"Ġpumpkin":2740,"Ġluggage":2741,"no":2742,"ues":2743,"Ġaut":2744,"erc":2745,"Ġthumb":2746,"ara":2747,"Ġdi":2748,"Ġdust":2749,"Ġfarm":2750,"Ġfinish":2751,"irts":2752,"Ġrug":2753,"Ġlots":2754,"ilt":2755,"reek":2756,"Ġtaken":2757,"Ġneon":2758,"Ġmoves":2759,"Ġmohawk":2760,"Ġsmaller":2761,"Ġsniff":2762,"Ġsaw":2763,"Ġteal":2764,"Ġexcit":2765,"tted":2766,"Ġpige":2767,"Ġdriver":2768,"colored":2769,"Ġsurface":2770,"Ġumbrellas":2771,"Ġapart":2772,"Ġknee":2773,"Ġnap":2774,"Ġformal":2775,"Ġmembers":2776,"Ġentertain":2777,"Ġteeth":2778,"ection":2779,"like":2780,"wi":2781,"Ġrough":2782,"iny":2783,"Ġpin":2784,"Ġmuzz":2785,"Ġmas":2786,"Ġtray":2787,"pher":2788,"Ġblocks":2789,"shirts":2790,"Ġbarrel":2791,"Ġhang":2792,"Ġmotorcycles":2793,"Ġpassen":2794,"Ġpolka":2795,"Ġstaircase":2796,"Ġbottles":2797,"Ġconversing":2798,"Ġpractice":2799,"Ġbirds":2800,"Ġtube":2801,"Ġesca":2802,"Ġadjust":2803,"Ġsaxophone":2804,"bric":2805,"here":2806,"je":2807,"land":2808,"ti":2809,"Ġbank":2810,"erry":2811,"Ġpatch":2812,"Ġcone":2813,"Ġcreek":2814,"Ġhers":2815,"alm":2816,"Ġemer":2817,"Ġchee":2818,"eeled":2819,"Ġcaps":2820,"Ġcaught":2821,"Ġsocks":2822,"Ġmarried":2823,"boys":2824,"Ġgrand":2825,"Ġsurrounding":2826,"Ġfeeding":2827,"Ġsurfing":2828,"Ġcrew":2829,"Ġboxes":2830,"Ġfold":2831,"Ġcheckered":2832,"Ġcourtyard":2833,"Ġcompeting":2834,"Ġcontainer":2835,"Ġpeace":2836,"Ġmustache":2837,"Ġyouth":2838,"vision":2839,"Ġframe":2840,"flops":2841,"Ġoriental":2842,"bes":2843,"bow":2844,"large":2845,"pl":2846,"ption":2847,"uits":2848,"Ġact":2849,"Ġsix":2850,"Ġgerman":2851,"Ġfresh":2852,"Ġwire":2853,"irst":2854,"chest":2855,"Ġredhead":2856,"ention":2857,"Ġbackwards":2858,"Ġmove":2859,"Ġfabric":2860,"Ġairport":2861,"Ġleaf":2862,"Ġsale":2863,"Ġsleeve":2864,"Ġcrosswalk":2865,"ctory":2866,"Ġsilhou":2867,"Ġpatter":2868,"Ġkneels":2869,"Ġbelt":2870,"crowd":2871,"Ġponytail":2872,"Ġjuggling":2873,"curity":2874,"ds":2875,"Ġ(":2876,"Ġrou":2877,"Ġsupp":2878,"Ġmis":2879,"Ġtho":2880,"roon":2881,"late":2882,"etra":2883,"Ġlar":2884,"Ġnaked":2885,"Ġlay":2886,"Ġchop":2887,"Ġmaroon":2888,"Ġconfe":2889,"Ġhandstand":2890,"Ġfast":2891,"Ġcloudy":2892,"Ġunic":2893,"Ġexerc":2894,"Ġmotorb":2895,"Ġshepher":2896,"Ġpieces":2897,"Ġflowered":2898,"Ġbagp":2899,"Ġrollers":2900,"Ġskier":2901,"girls":2902,"Ġcurb":2903,"Ġgarage":2904,"Ġformation":2905,"Ġtile":2906,"Ġlandscape":2907,"Ġoppos":2908,"Ġchains":2909,"Ġindividual":2910,"Ġvisible":2911,"Ġbeverage":2912,"Ġracetra":2913,"ucasian":2914,"Ġembra":2915,"Ġshepherd":2916,"chi":2917,"front":2918,"ier":2919,"war":2920,"Ġ)":2921,"inning":2922,"Ġbun":2923,"Ġbent":2924,"Ġfar":2925,"lady":2926,"Ġstump":2927,"loy":2928,"che":2929,"Ġarena":2930,"Ġremo":2931,"ersection":2932,"Ġloom":2933,"ils":2934,"Ġbroom":2935,"Ġpod":2936,"Ġmound":2937,"Ġcloud":2938,"Ġhaircut":2939,"Ġrests":2940,"Ġpaints":2941,"Ġsinger":2942,"Ġcooks":2943,"Ġdoors":2944,"Ġmeeting":2945,"Ġwetsuit":2946,"Ġpaddle":2947,"Ġshoveling":2948,"Ġraises":2949,"Ġintersection":2950,"Ġtelevision":2951,"essional":2952,"jects":2953,"Ġherself":2954,"Ġconferen":2955,"Ġrollersk":2956,"aster":2957,"mers":2958,"osing":2959,"time":2960,"Ġinter":2961,"rop":2962,"lator":2963,"cked":2964,"Ġstun":2965,"iding":2966,"Ġres":2967,"ica":2968,"Ġjung":2969,"ook":2970,"umn":2971,"Ġcobble":2972,"usk":2973,"uses":2974,"Ġchin":2975,"Ġbacks":2976,"Ġorchest":2977,"Ġspar":2978,"Ġclub":2979,"Ġfactory":2980,"Ġgoat":2981,"Ġswimmer":2982,"uba":2983,"Ġsleep":2984,"tty":2985,"Ġtrip":2986,"Ġtricks":2987,"Ġdep":2988,"Ġribb":2989,"Ġlift":2990,"Ġplan":2991,"Ġpati":2992,"Ġmonkey":2993,"Ġmakeup":2994,"Ġpresentation":2995,"Ġcrouches":2996,"Ġprotective":2997,"Ġtransportation":2998,"Ġcerem":2999,"Ġheadscarf":3000,"Ġdune":3001,"Ġnecklace":3002,"Ġthumbs":3003,"Ġopposite":3004,"Ġracetrack":3005,"Ġpodium":3006,"Ġjungle":3007,"bal":3008,"eum":3009,"ibly":3010,"za":3011,"Ġ4":3012,"Ġtug":3013,"oned":3014,"Ġlunch":3015,"itten":3016,"Ġbass":3017,"Ġoutstre":3018,"Ġlamp":3019,"Ġskirts":3020,"Ġsoon":3021,"Ġsofa":3022,"ppy":3023,"Ġbalance":3024,"Ġmuseum":3025,"Ġflies":3026,"Ġfirefight":3027,"Ġmotorcyclist":3028,"Ġboardwalk":3029,"Ġknees":3030,"Ġshovels":3031,"Ġweather":3032,"Ġelev":3033,"Ġbushes":3034,"Ġgymnast":3035,"Ġrubber":3036,"Ġmagazine":3037,"Ġjewelry":3038,"plane":3039,"Ġunicycle":3040,"Ġconference":3041,"Ġorchestra":3042,"bl":3043,"cess":3044,"gan":3045,"hood":3046,"ten":3047,"tched":3048,"xed":3049,"Ġent":3050,"Ġaqu":3051,"Ġsong":3052,"Ġble":3053,"Ġbill":3054,"Ġpee":3055,"Ġtar":3056,"Ġgam":3057,"Ġdim":3058,"Ġdining":3059,"ital":3060,"eter":3061,"ics":3062,"Ġjeep":3063,"Ġrobes":3064,"acks":3065,"Ġspee":3066,"Ġwatched":3067,"lesc":3068,"Ġcaucasian":3069,"house":3070,"Ġairplane":3071,"Ġheadband":3072,"Ġsocial":3073,"Ġbarber":3074,"Ġsecurity":3075,"Ġcolors":3076,"Ġskateboards":3077,"Ġdesign":3078,"Ġmarketplace":3079,"izon":3080,"Ġturned":3081,"Ġknitting":3082,"Ġfolding":3083,"Ġreflection":3084,"Ġhappily":3085,"Ġcloseup":3086,"baby":3087,"Ġweaving":3088,"Ġopposing":3089,"Ġstrange":3090,"Ġsprinkler":3091,"Ġlocal":3092,"Ġhallway":3093,"Ġsuspended":3094,"Ġescalator":3095,"Ġsleeveless":3096,"tub":3097,"truck":3098,"Ġsad":3099,"Ġgl":3100,"Ġdel":3101,"ature":3102,"lor":3103,"lds":3104,"Ġreg":3105,"Ġlane":3106,"Ġhits":3107,"Ġload":3108,"Ġshoo":3109,"Ġcoaster":3110,"ilar":3111,"Ġpapers":3112,"town":3113,"Ġmain":3114,"Ġspread":3115,"ife":3116,"Ġwake":3117,"Ġscuba":3118,"Ġgown":3119,"Ġshown":3120,"Ġbricks":3121,"Ġobjects":3122,"Ġsets":3123,"Ġnote":3124,"Ġevening":3125,"Ġsurfer":3126,"Ġvehicles":3127,"Ġbuckets":3128,"Ġjerseys":3129,"Ġraising":3130,"Ġbowls":3131,"Ġcolla":3132,"Ġserving":3133,"Ġcardboard":3134,"Ġceiling":3135,"Ġexpress":3136,"Ġjapan":3137,"Ġathlet":3138,"Ġcustomers":3139,"Ġslope":3140,"Ġpossibly":3141,"Ġsimilar":3142,"Ġcondu":3143,"Ġchicken":3144,"Ġredheaded":3145,"Ġlarger":3146,"Ġoutstretched":3147,"Ġspeech":3148,"cers":3149,"da":3150,"shi":3151,"Ġbul":3152,"Ġph":3153,"Ġtv":3154,"Ġgif":3155,"Ġdoctor":3156,"Ġtower":3157,"Ġrural":3158,"wning":3159,"Ġblur":3160,"Ġsharing":3161,"ility":3162,"amer":3163,"cted":3164,"Ġpos":3165,"ister":3166,"Ġsuitcase":3167,"Ġflight":3168,"Ġstep":3169,"Ġsteel":3170,"ights":3171,"Ġpoliceman":3172,"Ġsporting":3173,"Ġemploy":3174,"Ġintera":3175,"Ġbalances":3176,"Ġpaddles":3177,"Ġoperating":3178,"Ġsnowboarder":3179,"Ġprint":3180,"Ġprotest":3181,"Ġhurdle":3182,"Ġprofessional":3183,"Ġlaundry":3184,"bile":3185,"ees":3186,"ked":3187,"made":3188,"ners":3189,"Ġbite":3190,"Ġinv":3191,"Ġmow":3192,"Ġtry":3193,"Ġfet":3194,"Ġfly":3195,"Ġhind":3196,"Ġyou":3197,"Ġplaza":3198,"Ġrel":3199,"Ġlines":3200,"Ġrap":3201,"Ġsoldi":3202,"ounta":3203,"Ġleaving":3204,"Ġliqu":3205,"Ġlibr":3206,"Ġchewing":3207,"Ġtech":3208,"Ġcoloring":3209,"Ġforeign":3210,"Ġcrosses":3211,"Ġshaped":3212,"Ġseats":3213,"Ġwheelb":3214,"Ġknife":3215,"Ġtrailer":3216,"brush":3217,"Ġkayaking":3218,"Ġspoon":3219,"Ġcrane":3220,"Ġobserving":3221,"Ġgoods":3222,"Ġnative":3223,"Ġadvertisement":3224,"Ġmini":3225,"Ġsoftball":3226,"Ġexcited":3227,"Ġclouds":3228,"dan":3229,"fts":3230,"gy":3231,"ually":3232,"zen":3233,"Ġsides":3234,"Ġodd":3235,"Ġbead":3236,"Ġpun":3237,"Ġmater":3238,"hib":3239,"lege":3240,"iss":3241,"Ġdread":3242,"Ġfree":3243,"Ġfirst":3244,"aling":3245,"Ġru":3246,"ilts":3247,"Ġdowntown":3248,"seven":3249,"Ġbackd":3250,"rents":3251,"Ġneigh":3252,"Ġorgan":3253,"Ġmou":3254,"Ġcons":3255,"Ġsco":3256,"Ġscru":3257,"Ġairbor":3258,"Ġheels":3259,"Ġcompan":3260,"Ġtelesc":3261,"Ġexhib":3262,"ills":3263,"Ġmarath":3264,"Ġpizz":3265,"Ġhillside":3266,"Ġshakes":3267,"Ġjob":3268,"Ġjoy":3269,"Ġsmokes":3270,"Ġtrunk":3271,"football":3272,"Ġamongst":3273,"Ġcuts":3274,"Ġspraying":3275,"Ġcandles":3276,"Ġtools":3277,"Ġteenager":3278,"Ġfollows":3279,"Ġbranches":3280,"tails":3281,"Ġwrestling":3282,"Ġgymnastic":3283,"Ġbouquet":3284,"Ġjuice":3285,"Ġparachute":3286,"Ġheart":3287,"Ġceremony":3288,"Ġwakeboard":3289,"Ġposition":3290,"Ġairborne":3291,"bur":3292,"book":3293,"lit":3294,"yon":3295,"Ġ&":3296,"Ġwings":3297,"Ġsor":3298,"Ġsized":3299,"Ġpalm":3300,"Ġmall":3301,"hill":3302,"Ġtight":3303,"Ġdro":3304,"Ġstill":3305,"Ġwild":3306,"esma":3307,"Ġatv":3308,"Ġhike":3309,"stone":3310,"eas":3311,"urs":3312,"Ġshar":3313,"Ġroo":3314,"Ġropes":3315,"riage":3316,"Ġorder":3317,"Ġsna":3318,"Ġwaist":3319,"Ġperched":3320,"Ġcomm":3321,"Ġbenches":3322,"Ġstripes":3323,"Ġarmy":3324,"Ġhorizon":3325,"Ġbalding":3326,"ivers":3327,"Ġgrind":3328,"Ġbridesma":3329,"Ġskiers":3330,"Ġsmoke":3331,"Ġfilling":3332,"Ġblows":3333,"Ġcheering":3334,"Ġplates":3335,"Ġvari":3336,"Ġtattoos":3337,"Ġtuxed":3338,"Ġchefs":3339,"Ġtrop":3340,"Ġparticipating":3341,"Ġsells":3342,"Ġdriveway":3343,"Ġlounge":3344,"Ġautumn":3345,"Ġpigeons":3346,"Ġmotorbike":3347,"Ġchainsaw":3348,"Ġstunt":3349,"Ġsooners":3350,"Ġcollared":3351,"Ġjapanese":3352,"Ġrapids":3353,"Ġlibrary":3354,"Ġmaterial":3355,"Ġneighbor":3356,"Ġtelescope":3357,"Ġmarathon":3358,"af":3359,"des":3360,"ef":3361,"ially":3362,"py":3363,"pro":3364,"Ġif":3365,"Ġwo":3366,"Ġsup":3367,"Ġpress":3368,"Ġpood":3369,"Ġges":3370,"Ġgas":3371,"Ġfru":3372,"Ġhut":3373,"Ġhum":3374,"ider":3375,"Ġbound":3376,"Ġya":3377,"terest":3378,"Ġlink":3379,"Ġjet":3380,"Ġnarrow":3381,"Ġrowing":3382,"Ġbean":3383,"Ġcarving":3384,"Ġcarry":3385,"Ġorn":3386,"Ġcones":3387,"Ġhandle":3388,"Ġsnea":3389,"Ġskin":3390,"Ġcame":3391,"Ġtops":3392,"achers":3393,"Ġflipping":3394,"ments":3395,"Ġteamm":3396,"Ġfiretruck":3397,"Ġattra":3398,"Ġrainbow":3399,"Ġtied":3400,"Ġintently":3401,"Ġscream":3402,"Ġspot":3403,"Ġfurry":3404,"Ġwaterski":3405,"Ġbouncing":3406,"Ġcasual":3407,"Ġterra":3408,"Ġeaster":3409,"Ġpigtails":3410,"Ġteaching":3411,"Ġassem":3412,"Ġpedestrians":3413,"Ġsuspenders":3414,"Ġmessy":3415,"Ġcrawling":3416,"Ġthough":3417,"Ġbleachers":3418,"Ġdimly":3419,"american":3420,"Ġneighborhood":3421,"Ġgesture":3422,"bies":3423,"fting":3424,"mx":3425,"wl":3426,"inet":3427,"Ġinform":3428,"Ġpill":3429,"Ġpins":3430,"ised":3431,"ative":3432,"esting":3433,"Ġyork":3434,"Ġplaced":3435,"Ġplayfully":3436,"Ġbay":3437,"Ġshel":3438,"Ġext":3439,"Ġrunner":3440,"Ġtag":3441,"Ġtax":3442,"Ġbroken":3443,"Ġposter":3444,"rench":3445,"Ġforward":3446,"Ġbund":3447,"Ġbuying":3448,"Ġlean":3449,"Ġleading":3450,"Ġmotion":3451,"Ġcrown":3452,"Ġsport":3453,"Ġhanding":3454,"lymp":3455,"Ġskis":3456,"Ġcamping":3457,"down":3458,"Ġarch":3459,"Ġpretty":3460,"Ġbarrier":3461,"Ġcomple":3462,"colate":3463,"Ġdesce":3464,"Ġattention":3465,"izing":3466,"Ġbutter":3467,"Ġblankets":3468,"Ġelectron":3469,"Ġquick":3470,"Ġmultiple":3471,"Ġcards":3472,"Ġtourist":3473,"Ġmedium":3474,"Ġnature":3475,"Ġbrushing":3476,"Ġteacher":3477,"Ġleads":3478,"Ġpower":3479,"Ġsniffing":3480,"Ġcheek":3481,"Ġbillboard":3482,"Ġwheelbarrow":3483,"Ġbackdrop":3484,"ci":3485,"cam":3486,"dles":3487,"ior":3488,"mother":3489,"net":3490,"ula":3491,"urt":3492,"Ġut":3493,"Ġav":3494,"Ġais":3495,"Ġolymp":3496,"Ġinterest":3497,"eram":3498,"Ġpop":3499,"Ġmeas":3500,"rol":3501,"Ġdead":3502,"Ġduck":3503,"lad":3504,"Ġstart":3505,"Ġstuck":3506,"Ġstyle":3507,"long":3508,"locks":3509,"chan":3510,"Ġbabies":3511,"umer":3512,"Ġhosp":3513,"Ġrows":3514,"illed":3515,"Ġbeen":3516,"Ġkite":3517,"Ġbrother":3518,"boat":3519,"Ġbuildi":3520,"Ġbeneath":3521,"ations":3522,"Ġadm":3523,"Ġmouths":3524,"Ġtraining":3525,"Ġsail":3526,"Ġgathers":3527,"Ġdancers":3528,"Ġcleans":3529,"Ġtoddlers":3530,"Ġdisc":3531,"Ġamid":3532,"Ġtrump":3533,"Ġcreating":3534,"Ġlifting":3535,"Ġshoreline":3536,"Ġconverse":3537,"Ġhomeless":3538,"most":3539,"Ġstudent":3540,"Ġgentlemen":3541,"Ġcollege":3542,"Ġserve":3543,"Ġclay":3544,"Ġfalls":3545,"melo":3546,"Ġpeers":3547,"Ġgoalie":3548,"Ġcrouching":3549,"Ġchocolate":3550,"Ġtackle":3551,"Ġfollowing":3552,"Ġmember":3553,"Ġguns":3554,"Ġshadows":3555,"Ġwrestle":3556,"Ġspeed":3557,"Ġathlete":3558,"Ġtooth":3559,"Ġdiscussion":3560,"Ġmostly":3561,"Ġapplying":3562,"Ġapartment":3563,"Ġrout":3564,"Ġsupport":3565,"Ġbagpipes":3566,"Ġribbon":3567,"Ġshooting":3568,"Ġdreadlocks":3569,"Ġgymnastics":3570,"Ġsneakers":3571,"Ġhospital":3572,"cra":3573,"cus":3574,"frie":3575,"Ġaim":3576,"Ġahead":3577,"Ġawa":3578,"Ġwand":3579,"Ġsi":3580,"Ġsund":3581,"Ġmug":3582,"Ġthin":3583,"Ġtom":3584,"arn":3585,"Ġgrou":3586,"cker":3587,"wood":3588,"tel":3589,"Ġlive":3590,"uts":3591,"stro":3592,"ument":3593,"Ġrod":3594,"Ġevery":3595,"Ġwatermelo":3596,"Ġjumped":3597,"Ġupon":3598,"Ġmap":3599,"bles":3600,"Ġyelling":3601,"igious":3602,"Ġfake":3603,"icking":3604,"Ġdrill":3605,"Ġclimbers":3606,"Ġsandwi":3607,"tery":3608,"Ġperformers":3609,"Ġunderground":3610,"Ġbicyclists":3611,"Ġchecks":3612,"Ġsli":3613,"Ġcatcher":3614,"Ġsingle":3615,"Ġforehead":3616,"Ġhug":3617,"Ġwheels":3618,"Ġkno":3619,"Ġattending":3620,"Ġdrummer":3621,"Ġcontest":3622,"sely":3623,"Ġkisses":3624,"Ġattempt":3625,"born":3626,"Ġmonitor":3627,"Ġnewborn":3628,"cuum":3629,"Ġimages":3630,"Ġexamine":3631,"Ġheav":3632,"bbing":3633,"wheel":3634,"Ġiron":3635,"Ġstretching":3636,"Ġdirections":3637,"Ġvacuum":3638,"Ġportra":3639,"Ġchase":3640,"Ġtricycle":3641,"Ġpetting":3642,"Ġcarefully":3643,"Ġpretending":3644,"Ġpassengers":3645,"Ġcobblestone":3646,"Ġgames":3647,"Ġliquid":3648,"Ġtropical":3649,"bi":3650,"bre":3651,"cif":3652,"lph":3653,"wed":3654,"yo":3655,"ze":3656,"Ġaction":3657,"Ġsink":3658,"Ġbell":3659,"Ġbmx":3660,"Ġinner":3661,"Ġmer":3662,"Ġtiny":3663,"arves":3664,"Ġge":3665,"isting":3666,"Ġdusk":3667,"Ġfeat":3668,"itors":3669,"Ġmanne":3670,"Ġdolph":3671,"Ġwhist":3672,"teen":3673,"eling":3674,"Ġname":3675,"Ġcott":3676,"Ġbends":3677,"Ġkilt":3678,"ions":3679,"Ġcarriage":3680,"Ġmore":3681,"Ġrack":3682,"Ġoverhead":3683,"ngth":3684,"Ġsoda":3685,"phant":3686,"Ġbiking":3687,"Ġsunlight":3688,"Ġguitarist":3689,"Ġparas":3690,"Ġstrip":3691,"Ġfisherman":3692,"Ġages":3693,"Ġcanyon":3694,"ively":3695,"Ġhighchair":3696,"Ġpartially":3697,"Ġhugs":3698,"Ġbaskets":3699,"weight":3700,"Ġalmost":3701,"Ġknit":3702,"Ġsquats":3703,"Ġphotographs":3704,"Ġstops":3705,"Ġbanan":3706,"Ġcollect":3707,"Ġbreakdan":3708,"Ġpuppies":3709,"Ġscaffold":3710,"while":3711,"Ġfurn":3712,"Ġnotes":3713,"Ġcalled":3714,"Ġtelephone":3715,"Ġcricket":3716,"Ġdemonstration":3717,"Ġchalkboard":3718,"Ġstirring":3719,"Ġtraveling":3720,"Ġfolded":3721,"Ġinvol":3722,"Ġreligious":3723,"Ġpizza":3724,"Ġvariety":3725,"Ġsuper":3726,"Ġfruits":3727,"Ġeastern":3728,"Ġtaxi":3729,"Ġelectronic":3730,"Ġquickly":3731,"camera":3732,"Ġaisle":3733,"umerous":3734,"Ġmannequ":3735,"00":3736,"can":3737,"count":3738,"ded":3739,"ged":3740,"he":3741,"iers":3742,"Ġ5":3743,"Ġwere":3744,"Ġsear":3745,"Ġslack":3746,"Ġoven":3747,"Ġbino":3748,"erleaders":3749,"Ġpri":3750,"Ġcru":3751,"Ġcans":3752,"Ġmu":3753,"Ġgall":3754,"Ġdu":3755,"Ġfat":3756,"Ġhad":3757,"ency":3758,"iture":3759,"Ġstom":3760,"ldo":3761,"Ġris":3762,"Ġang":3763,"Ġloading":3764,"Ġfrozen":3765,"right":3766,"Ġsmoo":3767,"Ġgreat":3768,"Ġcarts":3769,"Ġfork":3770,"box":3771,"Ġoverweight":3772,"Ġpict":3773,"Ġstripe":3774,"Ġleap":3775,"Ġcomplete":3776,"Ġslic":3777,"Ġphotos":3778,"Ġstorefront":3779,"Ġapple":3780,"cot":3781,"coat":3782,"Ġshaggy":3783,"Ġshower":3784,"Ġmachines":3785,"Ġindust":3786,"Ġmechan":3787,"Ġlifted":3788,"Ġturban":3789,"Ġcompete":3790,"Ġtiles":3791,"Ġtiled":3792,"Ġbanjo":3793,"Ġnewspapers":3794,"Ġcrates":3795,"Ġelephant":3796,"male":3797,"wai":3798,"Ġcasually":3799,"Ġcalm":3800,"Ġmixing":3801,"Ġterrier":3802,"Ġinspecting":3803,"Ġowner":3804,"Ġcrib":3805,"cular":3806,"culars":3807,"Ġfancy":3808,"Ġcelebrating":3809,"Ġsilhouette":3810,"Ġpatterned":3811,"Ġexercise":3812,"cheerleaders":3813,"Ġplanting":3814,"Ġbulldo":3815,"Ġexhibit":3816,"Ġroutine":3817,"Ġtomato":3818,"Ġslacks":3819,"Ġbinoculars":3820,"Ġgallery":3821,"bank":3822,"ccer":3823,"cross":3824,"gency":3825,"ky":3826,"mus":3827,"mult":3828,"po":3829,"pr":3830,"vi":3831,"vil":3832,"Ġ-":3833,"Ġic":3834,"Ġwar":3835,"Ġcel":3836,"Ġcyclist":3837,"Ġmead":3838,"Ġstars":3839,"Ġwithin":3840,"Ġplaces":3841,"tend":3842,"Ġrefe":3843,"Ġrink":3844,"Ġrange":3845,"Ġrings":3846,"style":3847,"rial":3848,"ults":3849,"Ġbron":3850,"Ġpours":3851,"Ġmass":3852,"Ġcape":3853,"Ġcameram":3854,"Ġscra":3855,"Ġarc":3856,"Ġarr":3857,"Ġmountainside":3858,"Ġmountainous":3859,"Ġtents":3860,"Ġenclo":3861,"Ġlips":3862,"Ġslight":3863,"Ġmicrophones":3864,"Ġtrim":3865,"Ġcrossed":3866,"Ġhighway":3867,"Ġpathway":3868,"Ġflat":3869,"Ġstairway":3870,"Ġplane":3871,"Ġturning":3872,"Ġdisplaying":3873,"Ġswimsuits":3874,"Ġstopped":3875,"Ġseem":3876,"Ġlisten":3877,"Ġmonument":3878,"Ġnewly":3879,"Ġscenic":3880,"Ġburied":3881,"Ġlanding":3882,"Ġspotted":3883,"Ġexamines":3884,"Ġbarbecu":3885,"soccer":3886,"Ġtires":3887,"Ġbelly":3888,"Ġgreyhounds":3889,"Ġbeverages":3890,"Ġdiscussing":3891,"Ġapproaching":3892,"Ġbegins":3893,"Ġmasks":3894,"Ġtripod":3895,"Ġdeli":3896,"Ġnotebook":3897,"Ġgift":3898,"Ġblurry":3899,"Ġbeads":3900,"Ġsorting":3901,"Ġsharp":3902,"Ġtuxedo":3903,"Ġornate":3904,"Ġterrain":3905,"Ġinformation":3906,"Ġtrumpet":3907,"Ġsandwich":3908,"Ġindustrial":3909,"waiian":3910,"bat":3911,"bag":3912,"fly":3913,"hom":3914,"ham":3915,"kla":3916,"lim":3917,"lled":3918,"mes":3919,"mid":3920,"pt":3921,"si":3922,"sho":3923,"val":3924,"zer":3925,"Ġident":3926,"Ġsem":3927,"Ġpipes":3928,"Ġcool":3929,"Ġcyclists":3930,"Ġtul":3931,"Ġfi":3932,"ately":3933,"Ġdot":3934,"Ġlan":3935,"Ġhotel":3936,"Ġcows":3937,"Ġcoast":3938,"Ġrolled":3939,"amp":3940,"Ġlabor":3941,"Ġpale":3942,"Ġparents":3943,"Ġmail":3944,"Ġlett":3945,"Ġmoder":3946,"Ġvil":3947,"Ġcongre":3948,"Ġspinning":3949,"Ġcase":3950,"Ġclut":3951,"Ġunf":3952,"Ġsaus":3953,"Ġbicyclist":3954,"Ġflute":3955,"Ġshops":3956,"Ġopens":3957,"Ġhills":3958,"cake":3959,"looking":3960,"Ġpolic":3961,"ize":3962,"Ġattend":3963,"Ġcrash":3964,"Ġwrites":3965,"Ġwritten":3966,"Ġcontrol":3967,"Ġhomemade":3968,"Ġcurve":3969,"Ġstraight":3970,"pass":3971,"Ġaprons":3972,"Ġstrollers":3973,"Ġclapping":3974,"Ġhotdogs":3975,"Ġoppon":3976,"Ġtouches":3977,"Ġstringed":3978,"Ġturt":3979,"Ġoperates":3980,"Ġtackled":3981,"Ġbounce":3982,"Ġobserves":3983,"cloth":3984,"Ġexplo":3985,"Ġparticipate":3986,"green":3987,"coming":3988,"Ġcrawls":3989,"Ġgaze":3990,"Ġcampfire":3991,"Ġdusty":3992,"Ġadjusting":3993,"Ġmissing":3994,"Ġrollerskating":3995,"Ġfirefighter":3996,"Ġathletic":3997,"Ġskinny":3998,"Ġscreaming":3999,"Ġfurniture":4000,"Ġstomach":4001,"multiple":4002,"Ġmeadow":4003,"Ġreferee":4004,"Ġslightly":4005,"homa":4006,"klahoma":4007,"Ġcongreg":4008,"abo":4009,"bby":4010,"bling":4011,"bull":4012,"fema":4013,"hand":4014,"iet":4015,"kid":4016,"ni":4017,"rance":4018,"sha":4019,"yl":4020,"Ġsy":4021,"Ġcurt":4022,"Ġtor":4023,"Ġtea":4024,"Ġtheater":4025,"arter":4026,"Ġdet":4027,"Ġfea":4028,"Ġfounta":4029,"Ġhuddle":4030,"alley":4031,"ities":4032,"attered":4033,"Ġsteam":4034,"Ġwife":4035,"Ġdone":4036,"onge":4037,"Ġyarn":4038,"Ġplayed":4039,"Ġhiding":4040,"ution":4041,"ically":4042,"sticks":4043,"Ġshining":4044,"Ġcovers":4045,"ctly":4046,"seup":4047,"Ġchat":4048,"Ġswi":4049,"Ġpots":4050,"Ġlet":4051,"Ġmobile":4052,"Ġracer":4053,"Ġven":4054,"Ġvalley":4055,"Ġsponge":4056,"Ġsidewa":4057,"Ġriders":4058,"Ġsnork":4059,"Ġskates":4060,"Ġcage":4061,"ians":4062,"Ġfacial":4063,"emen":4064,"Ġcamel":4065,"Ġbikers":4066,"Ġswimmers":4067,"Ġsurpr":4068,"happy":4069,"Ġador":4070,"Ġsection":4071,"Ġbicyc":4072,"Ġpurch":4073,"Ġpurses":4074,"Ġshaved":4075,"Ġshawl":4076,"Ġnighttime":4077,"Ġturns":4078,"Ġcraft":4079,"Ġcrafts":4080,"Ġfoam":4081,"worker":4082,"Ġphotographed":4083,"Ġseag":4084,"Ġlistens":4085,"Ġchisel":4086,"Ġquest":4087,"Ġquiet":4088,"Ġpotato":4089,"Ġtouch":4090,"Ġrepairs":4091,"Ġtackling":4092,"wheeled":4093,"Ġunderwear":4094,"Ġsprinklers":4095,"closeup":4096,"Ġprinted":4097,"Ġretriever":4098,"Ġtossing":4099,"Ġtricycles":4100,"Ġstirs":4101,"Ġdumpster":4102,"Ġreception":4103,"Ġmuzzle":4104,"Ġentrance":4105,"Ġexpression":4106,"Ġemployees":4107,"Ġpunching":4108,"Ġbutterfly":4109,"Ġamidst":4110,"Ġcotton":4111,"Ġarcade":4112,"Ġcurtain":4113,"ap":4114,"ilor":4115,"nam":4116,"rid":4117,"uro":4118,"wr":4119,"wear":4120,"Ġ6":4121,"Ġing":4122,"ina":4123,"Ġsal":4124,"Ġsid":4125,"ret":4126,"Ġinj":4127,"erby":4128,"Ġpir":4129,"Ġcop":4130,"Ġmal":4131,"Ġthick":4132,"arium":4133,"Ġgive":4134,"Ġdj":4135,"Ġdia":4136,"Ġfrying":4137,"Ġstones":4138,"Ġwii":4139,"Ġwires":4140,"lots":4141,"iring":4142,"iderman":4143,"Ġplacing":4144,"Ġrecl":4145,"Ġlip":4146,"uting":4147,"Ġhoops":4148,"Ġshru":4149,"Ġmenu":4150,"Ġbeers":4151,"Ġbelong":4152,"ards":4153,"Ġdownhill":4154,"Ġworld":4155,"Ġhawaiian":4156,"Ġtail":4157,"Ġpacif":4158,"Ġlear":4159,"Ġleot":4160,"inder":4161,"Ġconf":4162,"Ġspiderman":4163,"igning":4164,"Ġbuild":4165,"Ġdrilling":4166,"Ġtopless":4167,"Ġmidst":4168,"Ġenvi":4169,"Ġsees":4170,"Ġsaying":4171,"Ġdancer":4172,"Ġfishes":4173,"aging":4174,"Ġcanv":4175,"Ġapples":4176,"Ġartists":4177,"Ġartwork":4178,"Ġpushed":4179,"Ġjogs":4180,"Ġchased":4181,"Ġsquirt":4182,"Ġdrag":4183,"Ġfocus":4184,"attle":4185,"Ġrainy":4186,"Ġbutch":4187,"Ġglove":4188,"Ġstudio":4189,"Ġpresents":4190,"Ġearring":4191,"Ġcasting":4192,"Ġsprays":4193,"Ġspots":4194,"Ġhambur":4195,"Ġlaptops":4196,"Ġtrashcan":4197,"Ġpresenting":4198,"Ġengaged":4199,"Ġcontaining":4200,"Ġtourists":4201,"Ġdemonstrating":4202,"Ġdonkey":4203,"Ġlounging":4204,"Ġactiv":4205,"Ġpatient":4206,"Ġelevator":4207,"Ġaquarium":4208,"Ġsocializing":4209,"Ġinteracting":4210,"Ġbridesmaids":4211,"Ġbeanie":4212,"Ġinnertub":4213,"Ġmerch":4214,"Ġbreakdancing":4215,"Ġmannequin":4216,"country":4217,"Ġtulips":4218,"Ġmodern":4219,"Ġvenue":4220,"Ġsidel":4221,"ex":4222,"ipe":4223,"nas":4224,"ored":4225,"ta":4226,"Ġill":4227,"int":4228,"iner":4229,"inging":4230,"Ġsla":4231,"tho":4232,"Ġoc":4233,"Ġbites":4234,"Ġinstru":4235,"Ġcall":4236,"Ġmatt":4237,"Ġmerry":4238,"leading":4239,"Ġtru":4240,"Ġtick":4241,"nder":4242,"Ġgoo":4243,"Ġgri":4244,"Ġfed":4245,"Ġfist":4246,"lated":4247,"Ġhoo":4248,"ense":4249,"Ġstro":4250,"Ġstare":4251,"Ġstilts":4252,"rail":4253,"oping":4254,"Ġreally":4255,"Ġrecord":4256,"Ġlicking":4257,"Ġanti":4258,"Ġbamb":4259,"Ġblind":4260,"umm":4261,"umin":4262,"Ġshare":4263,"using":4264,"Ġgradu":4265,"Ġgrabbing":4266,"Ġwatering":4267,"Ġrunners":4268,"Ġword":4269,"Ġasia":4270,"Ġchatting":4271,"todd":4272,"ular":4273,"Ġpocket":4274,"Ġbackstro":4275,"Ġneed":4276,"Ġmod":4277,"Ġcave":4278,"Ġwares":4279,"pper":4280,"Ġblood":4281,"boarder":4282,"Ġbrief":4283,"Ġwhom":4284,"Ġwheeled":4285,"Ġseven":4286,"Ġsawing":4287,"Ġwhose":4288,"Ġmarble":4289,"Ġcrosscountry":4290,"Ġstepping":4291,"Ġfireman":4292,"coup":4293,"Ġmarker":4294,"Ġmetro":4295,"Ġboards":4296,"Ġmex":4297,"Ġwheelie":4298,"Ġboxing":4299,"Ġcray":4300,"Ġfound":4301,"Ġteens":4302,"berman":4303,"Ġdisplays":4304,"Ġcheckers":4305,"Ġstatues":4306,"Ġnail":4307,"Ġauditor":4308,"Ġpractices":4309,"Ġbusinessman":4310,"Ġpottery":4311,"Ġclad":4312,"Ġdirectly":4313,"Ġscooters":4314,"Ġbrace":4315,"Ġsweeps":4316,"where":4317,"Ġmixer":4318,"Ġzone":4319,"Ġstretched":4320,"estrian":4321,"Ġmoment":4322,"Ġretrieving":4323,"Ġpitcher":4324,"Ġprotesting":4325,"Ġtosses":4326,"Ġapproaches":4327,"Ġrollerblading":4328,"Ġdiver":4329,"Ġemergency":4330,"Ġsilhouet":4331,"Ġpattern":4332,"Ġembrace":4333,"Ġchina":4334,"tenance":4335,"Ġtarget":4336,"Ġmaintenance":4337,"Ġfetch":4338,"Ġminiature":4339,"Ġscrubs":4340,"Ġcommun":4341,"Ġgrinding":4342,"Ġolympics":4343,"Ġtoothbrush":4344,"Ġcameraman":4345,"female":4346,"Ġsyn":4347,"Ġseagull":4348,"Ġpacifier":4349,"Ġenviron":4350,"Ġcanvas":4351,"Ġbamboo":4352,"ac":4353,"dr":4354,"den":4355,"elderly":4356,"family":4357,"mon":4358,"tra":4359,"var":4360,"zing":4361,"zor":4362,"Ġawning":4363,"Ġsacks":4364,"Ġsigning":4365,"Ġbla":4366,"Ġinst":4367,"Ġpunch":4368,"Ġcry":4369,"Ġcries":4370,"Ġmitt":4371,"Ġthings":4372,"rom":4373,"Ġdy":4374,"Ġhy":4375,"ened":4376,"Ġstall":4377,"Ġstain":4378,"Ġdoberman":4379,"andise":4380,"Ġresp":4381,"Ġlush":4382,"Ġlime":4383,"Ġbaker":4384,"Ġlogs":4385,"Ġshiny":4386,"Ġoutsi":4387,"they":4388,"Ġeuro":4389,"Ġlaunch":4390,"Ġbend":4391,"lowing":4392,"Ġwaterway":4393,"Ġkio":4394,"imes":4395,"Ġpaws":4396,"Ġcargo":4397,"Ġbuff":4398,"Ġorang":4399,"Ġrag":4400,"Ġraces":4401,"Ġrazor":4402,"Ġconstru":4403,"Ġspir":4404,"Ġspark":4405,"Ġsnack":4406,"Ġclar":4407,"Ġsound":4408,"Ġfashi":4409,"Ġtablecloth":4410,"Ġbib":4411,"Ġclosely":4412,"Ġheaded":4413,"shirtless":4414,"Ġtogeth":4415,"Ġsurg":4416,"pedestrians":4417,"Ġaddress":4418,"Ġsep":4419,"Ġseco":4420,"arent":4421,"Ġcheese":4422,"Ġballet":4423,"Ġprocess":4424,"ney":4425,"Ġmuslim":4426,"Ġflips":4427,"Ġcouples":4428,"Ġstores":4429,"Ġdec":4430,"Ġtreat":4431,"Ġclearing":4432,"Ġattack":4433,"Ġbreaking":4434,"Ġalco":4435,"Ġfoggy":4436,"Ġcontra":4437,"Ġspeak":4438,"Ġnumbers":4439,"Ġnumbered":4440,"Ġpads":4441,"Ġsuv":4442,"Ġchecked":4443,"Ġladders":4444,"artment":4445,"Ġscales":4446,"Ġkaya":4447,"Ġscenery":4448,"Ġelectrical":4449,"Ġquarter":4450,"Ġshie":4451,"Ġtattooed":4452,"Ġhotdog":4453,"Ġcandle":4454,"Ġrelaxes":4455,"Ġhammo":4456,"rints":4457,"Ġvisor":4458,"Ġobserve":4459,"Ġstrum":4460,"Ġpeak":4461,"Ġadvertising":4462,"Ġsprayed":4463,"Ġhammering":4464,"Ġboulder":4465,"Ġcustomer":4466,"Ġmagazines":4467,"Ġelmo":4468,"Ġtwirl":4469,"Ġrollerblades":4470,"Ġstaff":4471,"Ġpassenger":4472,"Ġfreshly":4473,"Ġchopping":4474,"Ġexercis":4475,"Ġfarmer":4476,"blue":4477,"Ġconductor":4478,"Ġsoldiers":4479,"Ġcompany":4480,"Ġteammates":4481,"Ġmeasuring":4482,"friends":4483,"Ġdolphin":4484,"Ġtomatoes":4485,"music":4486,"Ġcello":4487,"Ġbronco":4488,"Ġpolicemen":4489,"Ġinjured":4490,"Ġinnertube":4491,"Ġmerchandise":4492,"Ġmattress":4493,"toddler":4494,"Ġbackstroke":4495,"couple":4496,"Ġcrayons":4497,"Ġauditorium":4498,"Ġenvironment":4499,"'t":4500,"aid":4501,"ared":4502,"bic":4503,"cas":4504,"custom":4505,"dling":4506,"eu":4507,"een":4508,"gn":4509,"gue":4510,"hn":4511,"ikes":4512,"ilet":4513,"pho":4514,"pol":4515,"sw":4516,"son":4517,"vation":4518,"wish":4519,"Ġ8":4520,"Ġ9":4521,"Ġaer":4522,"Ġsat":4523,"Ġsque":4524,"Ġsipping":4525,"thnic":4526,"Ġovers":4527,"annel":4528,"Ġbin":4529,"rehouse":4530,"Ġpy":4531,"Ġcute":4532,"Ġtired":4533,"atula":4534,"oms":4535,"Ġsti":4536,"Ġsty":4537,"Ġwill":4538,"ory":4539,"Ġtow":4540,"Ġtoilet":4541,"Ġplain":4542,"gee":4543,"Ġrush":4544,"Ġrally":4545,"Ġrobo":4546,"vering":4547,"ades":4548,"Ġkabo":4549,"Ġwords":4550,"Ġasce":4551,"Ġpaying":4552,"Ġchar":4553,"ieval":4554,"Ġbuy":4555,"Ġbuilt":4556,"Ġspring":4557,"Ġspatula":4558,"Ġhandles":4559,"ures":4560,"Ġsnowmo":4561,"Ġwarehouse":4562,"Ġsol":4563,"Ġheaddress":4564,"Ġjewish":4565,"Ġfloats":4566,"anta":4567,"Ġasians":4568,"Ġtrains":4569,"Ġuniformed":4570,"Ġchew":4571,"Ġtex":4572,"ttes":4573,"Ġtread":4574,"Ġshaves":4575,"Ġdescent":4576,"aker":4577,"Ġriverbank":4578,"Ġcostumed":4579,"Ġbedroom":4580,"Ġlifts":4581,"Ġrolls":4582,"Ġturkey":4583,"Ġpraying":4584,"Ġdragon":4585,"working":4586,"Ġsplashed":4587,"Ġstrapped":4588,"Ġcups":4589,"Ġgymnas":4590,"Ġstudying":4591,"Ġcheerleading":4592,"Ġraise":4593,"Ġcolum":4594,"Ġdigs":4595,"Ġburning":4596,"Ġbikinis":4597,"Ġ200":4598,"Ġsculpting":4599,"Ġpuppet":4600,"Ġcirc":4601,"Ġfoli":4602,"Ġtuba":4603,"Ġwrap":4604,"Ġcrate":4605,"Ġbarefooted":4606,"Ġcontainers":4607,"Ġbooths":4608,"Ġproducts":4609,"Ġmedieval":4610,"Ġsnowboarding":4611,"Ġgroceries":4612,"Ġzip":4613,"Ġprotection":4614,"Ġeasel":4615,"Ġassist":4616,"Ġpacked":4617,"Ġeyeglasses":4618,"street":4619,"Ġinspects":4620,"Ġmoped":4621,"Ġcelebration":4622,"view":4623,"Ġmuzzled":4624,"Ġadjusts":4625,"Ġdepartment":4626,"Ġpatiently":4627,"Ġfirefighters":4628,"Ġsoldier":4629,"Ġrooft":4630,"Ġpoodle":4631,"Ġattractive":4632,"Ġcompleting":4633,"Ġavo":4634,"Ġinteresting":4635,"Ġsundress":4636,"Ġinvolving":4637,"Ġbulldozer":4638,"Ġidentical":4639,"Ġopponent":4640,"shaped":4641,"Ġpirate":4642,"Ġbelongings":4643,"Ġlearning":4644,"Ġleotard":4645,"Ġsidelines":4646,"Ġbriefcase":4647,"Ġmexican":4648,"Ġsecond":4649,"Ġalcoho":4650,"Ġhammock":4651,"Ġsquee":4652,"Ġrobot":4653,"Ġgymnasium":4654,"bed":4655,"dark":4656,"food":4657,"fold":4658,"gress":4659,"ients":4660,"kis":4661,"lined":4662,"min":4663,"now":4664,"oly":4665,"pants":4666,"ratch":4667,"sur":4668,"sion":4669,"vent":4670,"zy":4671,"Ġax":4672,"Ġske":4673,"Ġsack":4674,"Ġsys":4675,"Ġoklahoma":4676,"Ġbon":4677,"rent":4678,"Ġpeop":4679,"Ġpine":4680,"Ġcub":4681,"Ġmor":4682,"Ġmill":4683,"Ġmural":4684,"hift":4685,"lets":4686,"Ġtut":4687,"Ġtig":4688,"Ġtights":4689,"Ġtrench":4690,"Ġgig":4691,"Ġgest":4692,"Ġdad":4693,"Ġfle":4694,"Ġfam":4695,"Ġharm":4696,"Ġhops":4697,"ald":4698,"Ġisland":4699,"ata":4700,"Ġstea":4701,"unk":4702,"chron":4703,"opy":4704,"opes":4705,"opoly":4706,"temp":4707,"Ġrevie":4708,"Ġlimb":4709,"Ġplaypen":4710,"Ġplaygrou":4711,"Ġhips":4712,"Ġran":4713,"Ġnun":4714,"Ġnumerous":4715,"Ġbaked":4716,"Ġshoot":4717,"Ġshelf":4718,"Ġroast":4719,"ilted":4720,"Ġethnic":4721,"Ġlast":4722,"Ġgrab":4723,"Ġke":4724,"Ġkee":4725,"Ġtast":4726,"seat":4727,"tocross":4728,"Ġswe":4729,"Ġupward":4730,"Ġbackseat":4731,"Ġmay":4732,"Ġmouse":4733,"Ġrafting":4734,"Ġconne":4735,"Ġcontemp":4736,"Ġspa":4737,"Ġjackham":4738,"Ġskull":4739,"Ġsoup":4740,"Ġscarves":4741,"Ġscratch":4742,"Ġunw":4743,"Ġflood":4744,"ational":4745,"Ġacro":4746,"Ġmountaintop":4747,"Ġleague":4748,"Ġsalad":4749,"skate":4750,"Ġprogress":4751,"Ġwhole":4752,"torc":4753,"Ġflu":4754,"Ġflannel":4755,"Ġexiting":4756,"Ġexca":4757,"Ġexpla":4758,"ttish":4759,"Ġfloors":4760,"Ġmarking":4761,"Ġmarsh":4762,"Ġcanal":4763,"Ġartif":4764,"Ġhorseback":4765,"cast":4766,"Ġmarked":4767,"Ġhardwood":4768,"Ġbridal":4769,"Ġbreast":4770,"Ġcrab":4771,"Ġdrain":4772,"Ġskyline":4773,"berry":4774,"Ġgrills":4775,"Ġsilly":4776,"Ġraincoat":4777,"Ġpicks":4778,"motorc":4779,"Ġcheerlead":4780,"Ġmonopoly":4781,"Ġmakeshift":4782,"ails":4783,"Ġharbor":4784,"Ġsculptor":4785,"Ġbatter":4786,"Ġdecorative":4787,"Ġdecorations":4788,"smiling":4789,"Ġproduct":4790,"Ġlogo":4791,"Ġbouncy":4792,"Ġkayaker":4793,"Ġbrushes":4794,"uzzy":4795,"Ġpiggy":4796,"father":4797,"Ġmilk":4798,"Ġelse":4799,"Ġgazes":4800,"Ġcabin":4801,"dressed":4802,"Ġpigeon":4803,"Ġentertaining":4804,"Ġleafy":4805,"Ġbungee":4806,"Ġsparks":4807,"Ġmower":4808,"Ġrugs":4809,"Ġscottish":4810,"african":4811,"Ġpressure":4812,"Ġhuman":4813,"Ġgestures":4814,"Ġpillar":4815,"Ġextre":4816,"Ġbundled":4817,"Ġwatermelon":4818,"Ġportrait":4819,"Ġwhistle":4820,"Ġbarbecuing":4821,"Ġsemi":4822,"Ġletters":4823,"Ġvillage":4824,"Ġcluttered":4825,"Ġturtle":4826,"Ġsurprised":4827,"Ġbutcher":4828,"Ġsynchron":4829,"various":4830,"Ġcontraption":4831,"police":4832,"Ġcolumns":4833,"Ġ2008":4834,"Ġfoliage":4835,"Ġrooftop":4836,"Ġharmon":4837,"Ġcheerleader":4838,"Ġsynchronized":4839,"ase":4840,"bar":4841,"cd":4842,"cow":4843,"cart":4844,"eight":4845,"fort":4846,"gr":4847,"gund":4848,"hop":4849,"live":4850,"mark":4851,"vor":4852,"Ġara":4853,"Ġage":4854,"Ġacting":4855,"Ġsom":4856,"Ġsym":4857,"Ġoth":4858,"ern":4859,"Ġcome":4860,"Ġcyl":4861,"Ġmur":4862,"Ġmcd":4863,"hist":4864,"legged":4865,"Ġdre":4866,"Ġdee":4867,"Ġdives":4868,"Ġflee":4869,"Ġfuzzy":4870,"labor":4871,"Ġhung":4872,"Ġhusk":4873,"alt":4874,"Ġmaneu":4875,"Ġstay":4876,"Ġwicker":4877,"irting":4878,"onald":4879,"ided":4880,"Ġrec":4881,"Ġhikes":4882,"utes":4883,"icle":4884,"ices":4885,"Ġrust":4886,"Ġanvil":4887,"Ġjud":4888,"stick":4889,"Ġnur":4890,"Ġnike":4891,"Ġlower":4892,"Ġhouses":4893,"Ġshines":4894,"used":4895,"Ġelabor":4896,"adults":4897,"Ġlat":4898,"Ġbeat":4899,"Ġberet":4900,"Ġkeep":4901,"Ġworn":4902,"Ġhaul":4903,"Ġtape":4904,"Ġtask":4905,"sem":4906,"Ġpauses":4907,"Ġchara":4908,"Ġcherry":4909,"Ġbrow":4910,"Ġupper":4911,"Ġbudd":4912,"redients":4913,"Ġlecture":4914,"Ġlength":4915,"Ġmotocross":4916,"Ġrad":4917,"Ġoverpass":4918,"Ġpersons":4919,"Ġcash":4920,"Ġsnowball":4921,"hoe":4922,"Ġscaling":4923,"Ġparka":4924,"ways":4925,"Ġheading":4926,"Ġheadset":4927,"Ġunivers":4928,"Ġunhappy":4929,"quo":4930,"ude":4931,"Ġarchi":4932,"Ġcomes":4933,"Ġpara":4934,"Ġjumpsuits":4935,"Ġcityscape":4936,"Ġtheme":4937,"Ġroadside":4938,"Ġhere":4939,"Ġenth":4940,"Ġsailing":4941,"Ġsailor":4942,"ski":4943,"Ġpainter":4944,"Ġfootballer":4945,"Ġhorns":4946,"Ġtends":4947,"Ġtending":4948,"Ġbasement":4949,"Ġopened":4950,"Ġmarch":4951,"Ġdaytime":4952,"Ġmotorized":4953,"Ġpiles":4954,"Ġdebr":4955,"Ġkitchenaid":4956,"Ġflowing":4957,"Ġfireplace":4958,"Ġflames":4959,"vely":4960,"Ġcellphones":4961,"Ġboarding":4962,"Ġfountains":4963,"Ġjockey":4964,"Ġjohn":4965,"Ġrailway":4966,"Ġplank":4967,"Ġpulley":4968,"Ġpointed":4969,"Ġsquirting":4970,"Ġwrist":4971,"Ġspeaker":4972,"Ġforested":4973,"Ġpicket":4974,"Ġpickup":4975,"iously":4976,"Ġpaintbrush":4977,"Ġserved":4978,"climb":4979,"Ġburgers":4980,"Ġburgund":4981,"Ġlands":4982,"Ġtypes":4983,"Ġtongs":4984,"Ġshit":4985,"Ġcircular":4986,"Ġbathtub":4987,"Ġretur":4988,"Ġbrass":4989,"Ġpancake":4990,"panic":4991,"Ġcasino":4992,"spect":4993,"Ġsledding":4994,"Ġbottoms":4995,"Ġstretch":4996,"Ġangels":4997,"Ġincludes":4998,"Ġstarting":4999,"otic":5000,"inished":5001,"Ġdishes":5002,"Ġmopping":5003,"Ġpitbull":5004,"firefight":5005,"Ġreceiving":5006,"Ġgazing":5007,"Ġcabinet":5008,"Ġfinishing":5009,"Ġfinished":5010,"Ġsniffs":5011,"Ġchopsticks":5012,"Ġbagpipe":5013,"Ġembracing":5014,"Ġdepic":5015,"Ġaqua":5016,"Ġdesigns":5017,"Ġsaddle":5018,"Ġregion":5019,"Ġathletes":5020,"Ġmowing":5021,"Ġtechnic":5022,"Ġsnake":5023,"Ġwaterskiing":5024,"Ġshelves":5025,"Ġadmiring":5026,"Ġheavily":5027,"Ġfeaturing":5028,"Ġbananas":5029,"Ġpictured":5030,"Ġslicing":5031,"tended":5032,"Ġsausages":5033,"Ġingredients":5034,"Ġmallet":5035,"Ġearrings":5036,"Ġgraduation":5037,"Ġsilhouetted":5038,"drant":5039,"Ġhydrant":5040,"Ġbuffet":5041,"Ġoranges":5042,"Ġquarterback":5043,"customers":5044,"Ġsyste":5045,"Ġmorning":5046,"Ġacrobat":5047,"Ġpiggyback":5048,"Ġharmonica":5049,"Ġmcdonald":5050,"Ġcharact":5051,"Ġarchite":5052,"Ġburgundy":5053,"ab":5054,"act":5055,"abl":5056,"bing":5057,"hat":5058,"iled":5059,"jing":5060,"olo":5061,"off":5062,"pic":5063,"school":5064,"sized":5065,"snow":5066,"tie":5067,"vice":5068,"zes":5069,"Ġu":5070,"Ġest":5071,"Ġvert":5072,"Ġado":5073,"Ġaband":5074,"Ġsar":5075,"Ġsam":5076,"Ġslow":5077,"Ġsister":5078,"Ġsanta":5079,"Ġolive":5080,"Ġinc":5081,"erina":5082,"Ġpr":5083,"Ġpans":5084,"Ġcit":5085,"Ġcure":5086,"Ġcats":5087,"Ġmounta":5088,"Ġgal":5089,"Ġgum":5090,"Ġdive":5091,"Ġfit":5092,"Ġfell":5093,"Ġfill":5094,"orange":5095,"Ġtoast":5096,"cho":5097,"opter":5098,"Ġatm":5099,"Ġrena":5100,"Ġlicks":5101,"Ġhip":5102,"icans":5103,"icopter":5104,"Ġrif":5105,"Ġrice":5106,"Ġshirted":5107,"stal":5108,"storm":5109,"ellow":5110,"Ġnam":5111,"Ġlobby":5112,"Ġshack":5113,"Ġshell":5114,"Ġroman":5115,"ilies":5116,"ushi":5117,"usia":5118,"Ġlate":5119,"Ġlabe":5120,"Ġgrabs":5121,"Ġasking":5122,"Ġasph":5123,"Ġtab":5124,"Ġtags":5125,"ulting":5126,"Ġbroad":5127,"Ġjumper":5128,"Ġpoor":5129,"Ġupset":5130,"Ġupright":5131,"boa":5132,"Ġgreenery":5133,"Ġbust":5134,"indian":5135,"Ġovercast":5136,"Ġballerina":5137,"Ġspan":5138,"Ġspins":5139,"Ġhandbag":5140,"Ġhandrail":5141,"Ġsideways":5142,"Ġsnacks":5143,"lly":5144,"Ġskil":5145,"Ġcaution":5146,"Ġsnowman":5147,"Ġrocking":5148,"Ġfavor":5149,"Ġscore":5150,"Ġblocking":5151,"Ġcameras":5152,"ishment":5153,"Ġsiting":5154,"Ġguests":5155,"Ġhelped":5156,"Ġbringing":5157,"Ġfootp":5158,"Ġwhen":5159,"Ġacc":5160,"Ġhorn":5161,"Ġusa":5162,"Ġused":5163,"Ġdanger":5164,"Ġvending":5165,"mentary":5166,"Ġapparent":5167,"Ġtribal":5168,"Ġdef":5169,"Ġbowler":5170,"Ġlighted":5171,"Ġclothed":5172,"Ġbookst":5173,"Ġsubmer":5174,"Ġeven":5175,"Ġsurfs":5176,"yset":5177,"Ġmeet":5178,"Ġcords":5179,"Ġrails":5180,"Ġboxer":5181,"Ġboxers":5182,"Ġcowboys":5183,"Ġdraped":5184,"Ġviewing":5185,"ultural":5186,"scent":5187,"uffs":5188,"Ġphotographers":5189,"Ġstrugg":5190,"Ġweeds":5191,"Ġwelds":5192,"roller":5193,"aneous":5194,"Ġstopping":5195,"Ġcigarettes":5196,"Ġcollie":5197,"Ġoverlook":5198,"Ġearth":5199,"Ġrelay":5200,"Ġserves":5201,"Ġseries":5202,"Ġchip":5203,"Ġtyping":5204,"Ġclas":5205,"Ġgrown":5206,"Ġvideota":5207,"Ġwrapping":5208,"Ġbeijing":5209,"Ġshades":5210,"Ġposters":5211,"Ġreflecting":5212,"Ġcrouched":5213,"Ġdryer":5214,"Ġwaterfront":5215,"Ġbelts":5216,"Ġentering":5217,"Ġmixed":5218,"Ġlocation":5219,"Ġlocated":5220,"Ġstretches":5221,"atory":5222,"Ġguards":5223,"Ġ12":5224,"Ġpackage":5225,"greyhound":5226,"Ġfigures":5227,"Ġlaundrom":5228,"noon":5229,"Ġfarmers":5230,"with":5231,"Ġmascot":5232,"Ġyouths":5233,"Ġbunny":5234,"Ġrollerskates":5235,"Ġsparring":5236,"Ġgoatee":5237,"bald":5238,"Ġpeeking":5239,"Ġtarp":5240,"Ġregister":5241,"Ġconducting":5242,"Ġpharm":5243,"Ġemployee":5244,"issance":5245,"Ġcompanion":5246,"Ġwakeboarding":5247,"Ġhorizont":5248,"Ġpoodles":5249,"Ġbounds":5250,"Ġyawning":5251,"Ġteammate":5252,"Ġutility":5253,"Ġaiming":5254,"Ġawaiting":5255,"Ġsearching":5256,"Ġfatig":5257,"Ġsmoothing":5258,"Ġcompletely":5259,"Ġmechanic":5260,"Ġarrange":5261,"Ġenclosed":5262,"Ġlaboratory":5263,"Ġunfinished":5264,"Ġadorned":5265,"Ġhamburgers":5266,"Ġillumin":5267,"Ġinstructor":5268,"Ġantique":5269,"Ġblindfold":5270,"Ġinstall":5271,"Ġkiosk":5272,"Ġclarinet":5273,"Ġpyra":5274,"Ġconnected":5275,"Ġunwra":5276,"skateboarder":5277,"Ġuniversity":5278,"quoise":5279,"Ġenthusia":5280,"Ġdebris":5281,"Ġsystem":5282,"Ġrenaissance":5283,"Ġlabeled":5284,"Ġasphalt":5285,"Ġlaundromat":5286,"bea":5287,"bars":5288,"cal":5289,"fl":5290,"fy":5291,"fas":5292,"fast":5293,"gle":5294,"glass":5295,"gant":5296,"kno":5297,"mps":5298,"nine":5299,"pit":5300,"pie":5301,"pain":5302,"sa":5303,"sure":5304,"tur":5305,"uce":5306,"vention":5307,"well":5308,"zard":5309,"Ġump":5310,"Ġsight":5311,"rer":5312,"Ġinstruction":5313,"Ġpom":5314,"Ġpud":5315,"Ġpeel":5316,"Ġpets":5317,"Ġcent":5318,"Ġthre":5319,"Ġtest":5320,"Ġgi":5321,"Ġgay":5322,"Ġderby":5323,"Ġones":5324,"Ġfre":5325,"Ġfind":5326,"Ġfrench":5327,"lap":5328,"Ġhus":5329,"enga":5330,"iter":5331,"Ġstitch":5332,"orge":5333,"una":5334,"Ġreh":5335,"Ġrecor":5336,"Ġlining":5337,"Ġrim":5338,"Ġjenga":5339,"elly":5340,"Ġnin":5341,"Ġnood":5342,"Ġnurse":5343,"Ġbad":5344,"Ġbale":5345,"Ġlove":5346,"Ġcoca":5347,"Ġhispanic":5348,"ili":5349,"Ġlaid":5350,"Ġgras":5351,"Ġgroups":5352,"Ġki":5353,"imate":5354,"Ġrunni":5355,"Ġpoking":5356,"Ġupwards":5357,"Ġsomewhere":5358,"Ġcarried":5359,"body":5360,"Ġmoss":5361,"Ġconvention":5362,"Ġhanded":5363,"Ġhandica":5364,"Ġsket":5365,"Ġskim":5366,"Ġsouth":5367,"Ġsoap":5368,"pple":5369,"Ġsciss":5370,"Ġscattered":5371,"Ġwoodland":5372,"Ġwoodworking":5373,"Ġgot":5374,"Ġsunsh":5375,"Ġunus":5376,"Ġunkno":5377,"ished":5378,"Ġguiding":5379,"Ġhelicopter":5380,"Ġcomfort":5381,"antily":5382,"Ġfoods":5383,"Ġbarking":5384,"Ġbarri":5385,"Ġseg":5386,"Ġwindbre":5387,"Ġitself":5388,"Ġprop":5389,"Ġtext":5390,"Ġsleeves":5391,"Ġextended":5392,"Ġaged":5393,"Ġcann":5394,"ector":5395,"Ġsteering":5396,"Ġstetho":5397,"Ġfirewor":5398,"Ġpastries":5399,"Ġamount":5400,"weed":5401,"Ġmega":5402,"Ġcartwheel":5403,"Ġwheeler":5404,"Ġafternoon":5405,"Ġturquoise":5406,"Ġpoint":5407,"Ġamericans":5408,"Ġfog":5409,"Ġrefresh":5410,"Ġclassic":5411,"Ġinflated":5412,"Ġgarment":5413,"Ġbutt":5414,"Ġgloved":5415,"Ġseaweed":5416,"Ġforms":5417,"Ġformally":5418,"outs":5419,"Ġmonk":5420,"Ġmonitors":5421,"Ġearly":5422,"Ġfixes":5423,"Ġbreakfast":5424,"Ġcanoes":5425,"Ġrailings":5426,"Ġgardening":5427,"Ġgrow":5428,"Ġpiercing":5429,"Ġprojector":5430,"Ġviolins":5431,"Ġposts":5432,"Ġstrings":5433,"Ġwineglasses":5434,"Ġvisiting":5435,"Ġelementary":5436,"Ġelegant":5437,"Ġalleyway":5438,"Ġsushi":5439,"Ġtournam":5440,"Ġringing":5441,"Ġfollowed":5442,"Ġbeams":5443,"Ġbounces":5444,"Ġtransit":5445,"Ġmedical":5446,"Ġtrot":5447,"Ġcalf":5448,"Ġcooked":5449,"Ġfairy":5450,"Ġkinds":5451,"Ġswords":5452,"Ġlighting":5453,"Ġframed":5454,"Ġinspect":5455,"Ġstacked":5456,"Ġpillows":5457,"Ġhurdles":5458,"Ġelbow":5459,"Ġjuggles":5460,"Ġapplies":5461,"Ġbegin":5462,"Ġexcitement":5463,"Ġpinata":5464,"Ġcheeks":5465,"Ġremoving":5466,"Ġresort":5467,"Ġpeeks":5468,"Ġconsisting":5469,"Ġbridesmaid":5470,"Ġwoven":5471,"Ġspotlight":5472,"Ġcomplex":5473,"Ġheavyset":5474,"Ġvacuuming":5475,"Ġbanana":5476,"Ġmuch":5477,"cotch":5478,"middle":5479,"Ġmailbox":5480,"Ġletter":5481,"Ġpurchas":5482,"Ġquestion":5483,"Ġdiaper":5484,"Ġcrystal":5485,"Ġstained":5486,"Ġaerial":5487,"Ġtreadm":5488,"Ġcircuit":5489,"Ġavoid":5490,"Ġtiger":5491,"Ġgesturing":5492,"Ġhopscotch":5493,"Ġdeere":5494,"Ġfleece":5495,"Ġelaborate":5496,"Ġradio":5497,"spectators":5498,"firefighters":5499,"Ġtechnician":5500,"ablishment":5501,"Ġestablishment":5502,"Ġabandoned":5503,"Ġspanish":5504,"Ġfavorite":5505,"Ġdangerous":5506,"Ġbookstore":5507,"Ġsubmerged":5508,"piece":5509,"Ġumpire":5510,"Ġscissors":5511,"Ġunknown":5512,"Ġstethoscope":5513,"Ġfireworks":5514,"Ġtournament":5515,"bu":5516,"cs":5517,"car":5518,"cup":5519,"col":5520,"cag":5521,"clad":5522,"dra":5523,"dish":5524,"ele":5525,"every":5526,"flow":5527,"fish":5528,"gro":5529,"gling":5530,"ggs":5531,"ith":5532,"ipped":5533,"kely":5534,"lif":5535,"lies":5536,"mit":5537,"mallow":5538,"mely":5539,"numerous":5540,"tle":5541,"tru":5542,"ura":5543,"vest":5544,"zil":5545,"Ġ!":5546,"Ġver":5547,"Ġamp":5548,"Ġwaring":5549,"Ġwades":5550,"Ġsen":5551,"Ġsling":5552,"Ġsash":5553,"Ġsips":5554,"anging":5555,"Ġpear":5556,"Ġcul":5557,"Ġcyc":5558,"Ġming":5559,"Ġmes":5560,"hier":5561,"hioned":5562,"Ġthan":5563,"lent":5564,"Ġtin":5565,"Ġtide":5566,"Ġties":5567,"Ġtilted":5568,"Ġgla":5569,"Ġgen":5570,"ison":5571,"Ġdom":5572,"Ġdam":5573,"Ġdess":5574,"Ġdental":5575,"Ġdumm":5576,"Ġoncoming":5577,"Ġfin":5578,"Ġfer":5579,"Ġfile":5580,"Ġhun":5581,"Ġhallow":5582,"Ġstory":5583,"Ġwilder":5584,"lot":5585,"ora":5586,"Ġtoe":5587,"etti":5588,"ray":5589,"Ġreal":5590,"Ġlion":5591,"icial":5592,"Ġrig":5593,"Ġanci":5594,"Ġjelly":5595,"stud":5596,"Ġwhiteboard":5597,"Ġnude":5598,"Ġhou":5599,"Ġshing":5600,"Ġshed":5601,"Ġreddish":5602,"cement":5603,"rim":5604,"Ġeggs":5605,"aded":5606,"Ġhero":5607,"Ġherding":5608,"Ġstrewn":5609,"Ġworshi":5610,"Ġpaw":5611,"toon":5612,"Ġposed":5613,"Ġuphill":5614,"Ġbackhoe":5615,"Ġcartoon":5616,"Ġmag":5617,"Ġlevel":5618,"Ġlegging":5619,"Ġlens":5620,"Ġmoon":5621,"Ġrabb":5622,"Ġvo":5623,"Ġvic":5624,"Ġvint":5625,"Ġcrops":5626,"Ġspi":5627,"Ġsplit":5628,"Ġhandling":5629,"inky":5630,"Ġridden":5631,"Ġskater":5632,"Ġsnowsuit":5633,"Ġwaff":5634,"Ġsold":5635,"Ġsoaked":5636,"Ġfac":5637,"ements":5638,"ppers":5639,"Ġoffers":5640,"Ġsunba":5641,"Ġperha":5642,"isters":5643,"Ġswimwear":5644,"Ġhairnet":5645,"Ġcomfor":5646,"Ġflock":5647,"Ġwalked":5648,"Ġsurve":5649,"Ġstriking":5650,"Ġstrikes":5651,"Ġensem":5652,"Ġbarn":5653,"Ġbarred":5654,"Ġsec":5655,"Ġseeds":5656,"Ġwinding":5657,"Ġleast":5658,"Ġlikely":5659,"Ġprov":5660,"Ġprogra":5661,"Ġsweaters":5662,"umber":5663,"Ġslip":5664,"Ġpurs":5665,"Ġsingers":5666,"Ġexotic":5667,"Ġmicrosc":5668,"Ġskateboa":5669,"Ġobsc":5670,"Ġcapture":5671,"Ġshoppers":5672,"Ġcanopy":5673,"Ġnoses":5674,"Ġprepared":5675,"Ġribs":5676,"Ġdried":5677,"Ġflowery":5678,"Ġfiremen":5679,"Ġflash":5680,"Ġflaming":5681,"Ġbackpacker":5682,"Ġsuburban":5683,"Ġpassed":5684,"Ġattent":5685,"Ġpaperwork":5686,"izes":5687,"izens":5688,"Ġplu":5689,"Ġdrawn":5690,"Ġphotographing":5691,"Ġfilming":5692,"Ġcurved":5693,"Ġcurious":5694,"Ġwelder":5695,"aneled":5696,"Ġworkshop":5697,"Ġnapping":5698,"Ġseason":5699,"Ġseafood":5700,"Ġoverlooks":5701,"Ġaudio":5702,"Ġplatter":5703,"Ġofficial":5704,"Ġcollection":5705,"Ġscared":5706,"Ġearphones":5707,"Ġchips":5708,"Ġchicag":5709,"Ġcutoff":5710,"Ġnets":5711,"Ġimpro":5712,"Ġburying":5713,"Ġharves":5714,"Ġleashes":5715,"Ġcanoeing":5716,"Ġbathro":5717,"Ġdiner":5718,"ensive":5719,"Ġwasher":5720,"Ġwashes":5721,"Ġengaging":5722,"Ġstock":5723,"Ġtypewr":5724,"unges":5725,"Ġobstacles":5726,"Ġoperate":5727,"what":5728,"Ġfencing":5729,"Ġcashier":5730,"Ġharnesses":5731,"Ġblocked":5732,"Ġnatural":5733,"Ġzoo":5734,"Ġtermin":5735,"Ġeast":5736,"Ġpigs":5737,"Ġpedestrian":5738,"Ġkhakis":5739,"anged":5740,"Ġjazz":5741,"Ġadvertisements":5742,"Ġyoga":5743,"Ġcleaner":5744,"Ġrubble":5745,"Ġstacks":5746,"Ġportable":5747,"Ġcereal":5748,"Ġheadscarves":5749,"Ġchickens":5750,"Ġpretends":5751,"Ġpumpkins":5752,"Ġautom":5753,"Ġemerges":5754,"Ġsupplies":5755,"Ġribbons":5756,"Ġloaded":5757,"Ġgifts":5758,"Ġfetching":5759,"Ġdropping":5760,"Ġgrinds":5761,"Ġhandlebars":5762,"Ġassembly":5763,"Ġpillars":5764,"Ġshelter":5765,"Ġdescends":5766,"Ġdescending":5767,"Ġutens":5768,"Ġsailboat":5769,"craft":5770,"Ġeveryone":5771,"Ġwatermelons":5772,"Ġgeese":5773,"teenag":5774,"Ġducks":5775,"Ġrises":5776,"Ġsmooth":5777,"Ġmechanical":5778,"Ġicy":5779,"Ġenclosure":5780,"Ġnewlywed":5781,"Ġdetector":5782,"Ġsnorkel":5783,"Ġlipstick":5784,"Ġfocused":5785,"Ġticket":5786,"Ġstrong":5787,"Ġmodel":5788,"Ġbracelet":5789,"Ġcommunic":5790,"Ġeurope":5791,"Ġconstructing":5792,"Ġspiral":5793,"Ġseparate":5794,"gnant":5795,"swim":5796,"Ġstyled":5797,"surf":5798,"Ġjackhammer":5799,"Ġflooded":5800,"Ġmarkings":5801,"Ġmarshmallow":5802,"Ġartificial":5803,"Ġhusky":5804,"Ġbrowsing":5805,"picture":5806,"Ġskillet":5807,"Ġfootprints":5808,"Ġpyramid":5809,"fashioned":5810,"turned":5811,"Ġonesie":5812,"Ġhusband":5813,"Ġrehear":5814,"Ġhandicapped":5815,"trucks":5816,"Ġdummy":5817,"Ġwilderness":5818,"Ġancient":5819,"Ġleggings":5820,"Ġvintage":5821,"Ġperhaps":5822,"Ġensemble":5823,"Ġmicroscopes":5824,"Ġchicago":5825,"ben":5826,"bear":5827,"di":5828,"first":5829,"filled":5830,"gar":5831,"gentle":5832,"hor":5833,"iental":5834,"ja":5835,"muffs":5836,"por":5837,"pad":5838,"ration":5839,"water":5840,"Ġaids":5841,"Ġwest":5842,"Ġwade":5843,"Ġsif":5844,"Ġop":5845,"Ġox":5846,"Ġbor":5847,"Ġbump":5848,"Ġbest":5849,"ero":5850,"ermen":5851,"Ġprou":5852,"Ġpeach":5853,"Ġpuck":5854,"Ġpinned":5855,"Ġcud":5856,"Ġcattle":5857,"Ġcushi":5858,"Ġcultural":5859,"Ġmick":5860,"Ġmist":5861,"Ġmime":5862,"high":5863,"Ġthing":5864,"Ġtam":5865,"Ġtorch":5866,"rot":5867,"Ġgated":5868,"Ġdome":5869,"Ġdug":5870,"Ġdeter":5871,"Ġdivers":5872,"Ġful":5873,"Ġfills":5874,"lagers":5875,"enger":5876,"Ġstorm":5877,"Ġstance":5878,"Ġstudy":5879,"Ġwie":5880,"oriental":5881,"Ġdou":5882,"Ġdough":5883,"Ġdotted":5884,"anding":5885,"andom":5886,"Ġbows":5887,"chinese":5888,"Ġrear":5889,"allic":5890,"Ġlin":5891,"Ġhist":5892,"uty":5893,"Ġriv":5894,"Ġank":5895,"Ġanch":5896,"Ġjars":5897,"elled":5898,"Ġner":5899,"Ġnig":5900,"Ġbales":5901,"Ġlou":5902,"uma":5903,"Ġhol":5904,"Ġholes":5905,"Ġhound":5906,"Ġhoses":5907,"Ġfrolic":5908,"Ġcock":5909,"Ġcocon":5910,"Ġrose":5911,"verty":5912,"Ġem":5913,"Ġeve":5914,"Ġsmili":5915,"Ġgrave":5916,"Ġbeca":5917,"Ġkitt":5918,"Ġkilts":5919,"Ġdownward":5920,"Ġhaired":5921,"seen":5922,"Ġchange":5923,"tour":5924,"Ġbroch":5925,"Ġpoverty":5926,"Ġgreeting":5927,"Ġcarved":5928,"Ġbystand":5929,"bob":5930,"bour":5931,"Ġdressing":5932,"Ġbuggy":5933,"reds":5934,"Ġlegged":5935,"Ġtram":5936,"Ġoverturned":5937,"Ġcroco":5938,"Ġcroquet":5939,"aining":5940,"Ġconcent":5941,"Ġspons":5942,"Ġspider":5943,"Ġridding":5944,"Ġskies":5945,"Ġskills":5946,"Ġcable":5947,"Ġbuilds":5948,"Ġclip":5949,"Ġsoaking":5950,"Ġcamels":5951,"Ġscantily":5952,"esters":5953,"Ġguitarists":5954,"ubby":5955,"Ġunlo":5956,"Ġunion":5957,"Ġunseen":5958,"Ġarri":5959,"Ġcommer":5960,"Ġfloppy":5961,"Ġperformed":5962,"Ġfootba":5963,"Ġaccom":5964,"Ġstrike":5965,"shop":5966,"Ġsauna":5967,"Ġchews":5968,"Ġsweatpants":5969,"neck":5970,"Ġmush":5971,"Ġmuscular":5972,"Ġexch":5973,"Ġexpan":5974,"Ġagility":5975,"Ġcapt":5976,"Ġcanon":5977,"Ġsheer":5978,"Ġdriven":5979,"Ġgrinning":5980,"cola":5981,"Ġbigger":5982,"Ġbesides":5983,"Ġmotorcyclists":5984,"Ġshake":5985,"Ġshape":5986,"Ġcolorfully":5987,"Ġdesks":5988,"Ġmetallic":5989,"Ġsubst":5990,"Ġattach":5991,"Ġindia":5992,"Ġbrea":5993,"Ġbreath":5994,"Ġstairwell":5995,"Ġbeds":5996,"Ġcouches":5997,"gray":5998,"Ġpaintings":5999,"Ġknives":6000,"Ġamerica":6001,"Ġsquin":6002,"Ġcrabs":6003,"Ġdraws":6004,"Ġdragging":6005,"ultaneous":6006,"Ġshould":6007,"Ġfilms":6008,"Ġfilmed":6009,"Ġstraps":6010,"brunette":6011,"Ġpatron":6012,"Ġgarments":6013,"Ġdistant":6014,"Ġstrolls":6015,"outdoor":6016,"Ġbanners":6017,"Ġhappening":6018,"Ġtakeout":6019,"Ġdisplayed":6020,"Ġintense":6021,"Ġearmuffs":6022,"Ġcollars":6023,"club":6024,"Ġlandsca":6025,"Ġvarying":6026,"Ġmulti":6027,"Ġclaw":6028,"Ġbaton":6029,"osed":6030,"Ġhammers":6031,"Ġbalanced":6032,"bags":6033,"Ġweap":6034,"Ġweaves":6035,"Ġgolfer":6036,"Ġvendors":6037,"Ġpadded":6038,"Ġcrut":6039,"bbling":6040,"Ġdaily":6041,"Ġpeer":6042,"Ġpeering":6043,"guys":6044,"Ġbraids":6045,"Ġbrazil":6046,"Ġcoveralls":6047,"Ġfestive":6048,"Ġpanel":6049,"Ġrowboat":6050,"Ġbooksh":6051,"Ġincline":6052,"Ġtrots":6053,"Ġcountryside":6054,"Ġcookie":6055,"Ġpenc":6056,"Ġprincess":6057,"Ġstarring":6058,"Ġhalter":6059,"Ġracquet":6060,"Ġmessenger":6061,"Ġvac":6062,"Ġvault":6063,"Ġretrieve":6064,"Ġcarpeted":6065,"Ġleader":6066,"Ġdonuts":6067,"Ġchaps":6068,"idential":6069,"Ġsimultaneous":6070,"Ġpowder":6071,"Ġdumps":6072,"Ġhooping":6073,"Ġrugby":6074,"Ġemerging":6075,"Ġthose":6076,"Ġmotorbikes":6077,"Ġformations":6078,"Ġintervie":6079,"Ġresidential":6080,"Ġelevated":6081,"Ġphones":6082,"Ġblurred":6083,"Ġinteract":6084,"Ġprotesters":6085,"Ġpunk":6086,"Ġtightly":6087,"Ġrooster":6088,"Ġwaterskier":6089,"Ġarchway":6090,"Ġadmire":6091,"friend":6092,"Ġaims":6093,"wheeler":6094,"biles":6095,"Ġcruise":6096,"Ġrising":6097,"Ġangle":6098,"Ġangry":6099,"Ġpictu":6100,"Ġtrimming":6101,"Ġdelivering":6102,"Ġgazebo":6103,"Ġtorches":6104,"Ġpurchase":6105,"Ġquestions":6106,"Ġquietly":6107,"Ġsalon":6108,"Ġreclining":6109,"Ġshrubs":6110,"Ġseesaw":6111,"Ġactivity":6112,"Ġactivities":6113,"Ġgoofy":6114,"Ġdyed":6115,"Ġrespo":6116,"Ġbakery":6117,"Ġfashioned":6118,"Ġsurgical":6119,"Ġkayaks":6120,"Ġstrumming":6121,"Ġtwirling":6122,"Ġexercises":6123,"musicians":6124,"Ġkabobs":6125,"Ġaxe":6126,"Ġtutu":6127,"Ġroasting":6128,"Ġexplaining":6129,"Ġextremely":6130,"cowboy":6131,"grand":6132,"Ġcylinder":6133,"Ġrecently":6134,"Ġhauling":6135,"Ġdepicting":6136,"Ġsari":6137,"Ġgallo":6138,"Ġrifle":6139,"Ġaccident":6140,"Ġfatigues":6141,"Ġilluminated":6142,"Ġblindfolded":6143,"beautiful":6144,"Ġrimmed":6145,"Ġskimpy":6146,"Ġunusual":6147,"Ġwindbreaker":6148,"everyone":6149,"Ġhalloween":6150,"students":6151,"Ġshingles":6152,"Ġterminal":6153,"Ġautomo":6154,"teenagers":6155,"Ġrehearsing":6156,"bearded":6157,"Ġproud":6158,"Ġmickey":6159,"Ġfully":6160,"Ġhistor":6161,"Ġbecause":6162,"Ġcommercial":6163,"Ġaccompan":6164,"Ġexpanse":6165,"Ġsimultaneously":6166,"ai":6167,"come":6168,"city":6169,"ders":6170,"die":6171,"deep":6172,"dile":6173,"eer":6174,"ecut":6175,"gie":6176,"hang":6177,"ien":6178,"ient":6179,"jump":6180,"lish":6181,"lights":6182,"mar":6183,"mut":6184,"mart":6185,"nets":6186,"ody":6187,"phi":6188,"press":6189,"ris":6190,"sy":6191,"ste":6192,"ties":6193,"uch":6194,"uish":6195,"yer":6196,"yor":6197,"Ġ7":6198,"Ġ:":6199,"Ġide":6200,"Ġque":6201,"Ġab":6202,"Ġaff":6203,"Ġawe":6204,"Ġwel":6205,"Ġwool":6206,"Ġsure":6207,"Ġself":6208,"Ġour":6209,"anting":6210,"ances":6211,"anitor":6212,"Ġbatt":6213,"Ġping":6214,"Ġpor":6215,"Ġpant":6216,"Ġci":6217,"Ġcoun":6218,"Ġcem":6219,"Ġcust":6220,"Ġmount":6221,"Ġmats":6222,"Ġmilling":6223,"Ġthom":6224,"Ġthread":6225,"Ġted":6226,"Ġtrou":6227,"Ġtying":6228,"Ġtem":6229,"Ġtelling":6230,"Ġtesting":6231,"rope":6232,"Ġthese":6233,"ndo":6234,"ndy":6235,"nders":6236,"Ġgird":6237,"Ġglowing":6238,"Ġgorge":6239,"Ġdent":6240,"Ġdalm":6241,"lating":6242,"Ġhop":6243,"itish":6244,"itation":6245,"ati":6246,"omot":6247,"Ġstead":6248,"Ġwig":6249,"Ġdozen":6250,"andel":6251,"etle":6252,"Ġbored":6253,"rad":6254,"Ġyet":6255,"Ġyour":6256,"Ġrea":6257,"Ġrem":6258,"Ġrele":6259,"Ġrecre":6260,"Ġreno":6261,"Ġreci":6262,"Ġlim":6263,"Ġhides":6264,"icely":6265,"icature":6266,"Ġricks":6267,"Ġrandom":6268,"Ġans":6269,"Ġant":6270,"Ġany":6271,"wns":6272,"ston":6273,"sters":6274,"stri":6275,"stair":6276,"eli":6277,"Ġnational":6278,"Ġnicely":6279,"Ġbaggy":6280,"Ġlovely":6281,"ghetti":6282,"Ġshut":6283,"Ġcoke":6284,"Ġloose":6285,"ama":6286,"Ġelder":6287,"Ġeiff":6288,"Ġlass":6289,"Ġlamps":6290,"Ġgraying":6291,"Ġbeyo":6292,"Ġbeetle":6293,"Ġwatercraft":6294,"seball":6295,"Ġpail":6296,"Ġchamp":6297,"ield":6298,"Ġsomeones":6299,"Ġbackward":6300,"Ġcaricature":6301,"renched":6302,"Ġbug":6303,"Ġmaj":6304,"Ġmasc":6305,"Ġlem":6306,"Ġlemon":6307,"Ġtrap":6308,"Ġtravers":6309,"Ġrafts":6310,"Ġovercoat":6311,"Ġconso":6312,"ified":6313,"igan":6314,"Ġhandhe":6315,"Ġsnar":6316,"rug":6317,"Ġnearly":6318,"eeing":6319,"Ġskys":6320,"Ġcakes":6321,"Ġworkout":6322,"Ġworkben":6323,"Ġsnows":6324,"Ġsnowsho":6325,"Ġcler":6326,"Ġsoa":6327,"Ġfields":6328,"Ġcrowds":6329,"phy":6330,"Ġscience":6331,"Ġoffering":6332,"Ġclock":6333,"Ġclosing":6334,"Ġgoats":6335,"Ġsuns":6336,"Ġclimbed":6337,"Ġheadfirst":6338,"Ġperf":6339,"Ġperio":6340,"Ġuni":6341,"Ġunison":6342,"Ġshouting":6343,"Ġsitu":6344,"Ġguide":6345,"Ġguides":6346,"Ġarray":6347,"Ġhell":6348,"Ġbritish":6349,"Ġflour":6350,"Ġwalki":6351,"Ġpregnant":6352,"haw":6353,"Ġaccess":6354,"Ġthemed":6355,"Ġstrips":6356,"Ġboogie":6357,"Ġkiddie":6358,"Ġroadway":6359,"Ġroadwork":6360,"Ġbarks":6361,"Ġbarric":6362,"Ġselection":6363,"Ġpropped":6364,"Ġslinky":6365,"new":6366,"Ġteeter":6367,"Ġdangling":6368,"Ġlooked":6369,"Ġexit":6370,"Ġexper":6371,"Ġexecut":6372,"agne":6373,"Ġcancer":6374,"ivan":6375,"Ġdeer":6376,"Ġdeal":6377,"Ġdefe":6378,"Ġsheets":6379,"orted":6380,"Ġgrins":6381,"Ġpartying":6382,"Ġsurrounds":6383,"Ġsurroundings":6384,"Ġfeeds":6385,"Ġshave":6386,"Ġshaft":6387,"Ġkicked":6388,"ronts":6389,"Ġama":6390,"Ġindex":6391,"Ġpolit":6392,"Ġnightclub":6393,"Ġcorrid":6394,"Ġbeagle":6395,"Ġeyed":6396,"Ġeyel":6397,"Ġplush":6398,"bbles":6399,"Ġskipping":6400,"Ġclothesline":6401,"Ġdraw":6402,"Ġfoil":6403,"Ġequestrian":6404,"Ġbetter":6405,"Ġstruggles":6406,"Ġcurrent":6407,"Ġviewer":6408,"berries":6409,"Ġsuch":6410,"Ġstradd":6411,"parents":6412,"bride":6413,"Ġstati":6414,"Ġcliffs":6415,"Ġpicker":6416,"Ġsweatshirts":6417,"Ġpreser":6418,"Ġpresence":6419,"Ġdocked":6420,"Ġcolumn":6421,"Ġtracksuit":6422,"Ġmatches":6423,"Ġservice":6424,"Ġtongues":6425,"Ġcasts":6426,"Ġclap":6427,"Ġwaiter":6428,"Ġwaitress":6429,"osaur":6430,"Ġconcerned":6431,"baseball":6432,"Ġdiners":6433,"Ġdinosaur":6434,"Ġcardigan":6435,"Ġwashed":6436,"Ġstoop":6437,"Ġshaded":6438,"Ġcrouch":6439,"Ġgrooms":6440,"Ġtromb":6441,"Ġdevil":6442,"Ġdevices":6443,"Ġzo":6444,"Ġdemol":6445,"Ġlocomot":6446,"Ġpengu":6447,"Ġspecial":6448,"Ġstarts":6449,"Ġ10":6450,"Ġ11":6451,"Ġfigur":6452,"resent":6453,"Ġrubs":6454,"Ġmessage":6455,"Ġstools":6456,"commut":6457,"Ġslopes":6458,"Ġjuggler":6459,"firemen":6460,"Ġpossession":6461,"Ġparachutes":6462,"Ġtwent":6463,"Ġrollerblader":6464,"Ġnecklaces":6465,"Ġdustpan":6466,"Ġentertains":6467,"Ġbarrels":6468,"Ġleafless":6469,"Ġembraces":6470,"chef":6471,"Ġremote":6472,"Ġinterior":6473,"Ġentry":6474,"Ġglider":6475,"Ġshoots":6476,"Ġphys":6477,"Ġtechno":6478,"Ġtechni":6479,"Ġexhibition":6480,"Ġsorts":6481,"Ġsharpen":6482,"Ġtuxedos":6483,"prof":6484,"prot":6485,"Ġattraction":6486,"Ġassemble":6487,"Ġassembling":6488,"Ġextra":6489,"Ġolympic":6490,"Ġinterested":6491,"Ġawaits":6492,"Ġknock":6493,"Ġparasa":6494,"Ġparasail":6495,"Ġcollecting":6496,"Ġinvolved":6497,"Ġsupermark":6498,"Ġsearch":6499,"Ġarranged":6500,"Ġsausage":6501,"Ġcongregating":6502,"Ġcongregation":6503,"Ġfeather":6504,"Ġfeathered":6505,"Ġhuddled":6506,"Ġspongebob":6507,"Ġsnorkeling":6508,"Ġbicycling":6509,"Ġchiseling":6510,"Ġreclines":6511,"Ġshrub":6512,"Ġsquirted":6513,"Ġtrucks":6514,"Ġfoundation":6515,"Ġcommunity":6516,"Ġseagulls":6517,"Ġsparklers":6518,"Ġfashion":6519,"Ġsurgery":6520,"Ġaddresses":6521,"Ġkayakers":6522,"Ġshielding":6523,"musician":6524,"cases":6525,"Ġascending":6526,"Ġalcohol":6527,"Ġalcoholic":6528,"Ġsqueezing":6529,"Ġskelet":6530,"Ġfamous":6531,"Ġreviewing":6532,"Ġsweet":6533,"Ġmaybe":6534,"Ġspaghetti":6535,"Ġscratching":6536,"Ġfluid":6537,"Ġexcav":6538,"Ġsymbo":6539,"Ġmurky":6540,"Ġjudges":6541,"skiiers":6542,"Ġarchitecture":6543,"Ġvertical":6544,"Ġgrownup":6545,"Ġhorizontal":6546,"Ġarrangement":6547,"Ġenthusiastic":6548,"Ġthrew":6549,"Ġsunshine":6550,"Ġsegway":6551,"Ġcannon":6552,"Ġmegaphone":6553,"Ġgrowling":6554,"Ġtrotting":6555,"eleven":6556,"flowers":6557,"Ġsenior":6558,"Ġcycling":6559,"Ġgener":6560,"Ġharvesting":6561,"Ġtypewriter":6562,"Ġutensils":6563,"Ġeuropean":6564,"gentleman":6565,"horse":6566,"Ġcushion":6567,"Ġtambour":6568,"Ġankle":6569,"Ġlouis":6570,"Ġfrolics":6571,"Ġbystanders":6572,"Ġcrocodile":6573,"Ġsponsored":6574,"Ġclipboard":6575,"Ġexchange":6576,"Ġsubstance":6577,"Ġthomas":6578,"Ġteddy":6579,"Ġrecipe":6580,"Ġrickshaw":6581,"stairs":6582,"Ġeiffel":6583,"Ġbeyond":6584,"Ġchampagne":6585,"Ġmascara":6586,"Ġhandheld":6587,"Ġskyscra":6588,"Ġworkbench":6589,"Ġperiod":6590,"commuters":6591,"ah":6592,"acent":6593,"but":6594,"bird":6595,"bike":6596,"cri":6597,"cuses":6598,"fo":6599,"feter":6600,"field":6601,"gi":6602,"game":6603,"hade":6604,"ib":6605,"li":6606,"lley":6607,"lider":6608,"mined":6609,"ok":6610,"own":6611,"over":6612,"oklahoma":6613,"pi":6614,"par":6615,"pri":6616,"pong":6617,"paneled":6618,"run":6619,"rup":6620,"tw":6621,"tz":6622,"tes":6623,"tim":6624,"ux":6625,"ule":6626,"ulo":6627,"vig":6628,"wal":6629,"wag":6630,"xy":6631,"yellow":6632,"Ġq":6633,"Ġir":6634,"Ġid":6635,"Ġur":6636,"Ġig":6637,"Ġip":6638,"Ġaboard":6639,"Ġactive":6640,"ingo":6641,"inger":6642,"Ġwon":6643,"Ġsan":6644,"Ġsip":6645,"Ġsize":6646,"thi":6647,"Ġok":6648,"Ġore":6649,"Ġoar":6650,"Ġoil":6651,"Ġbark":6652,"Ġbattle":6653,"Ġincoming":6654,"erts":6655,"eria":6656,"Ġple":6657,"Ġpis":6658,"Ġpal":6659,"Ġpon":6660,"Ġpam":6661,"Ġpops":6662,"Ġpuzz":6663,"Ġpuffy":6664,"Ġpuma":6665,"Ġmi":6666,"Ġmad":6667,"Ġmike":6668,"length":6669,"Ġtell":6670,"Ġtimes":6671,"ros":6672,"roning":6673,"rows":6674,"aration":6675,"Ġginger":6676,"Ġdach":6677,"Ġditch":6678,"Ġdrop":6679,"Ġdrenched":6680,"Ġfid":6681,"Ġfists":6682,"Ġferry":6683,"Ġfaded":6684,"lable":6685,"ladies":6686,"Ġhunch":6687,"Ġhook":6688,"itating":6689,"itual":6690,"aters":6691,"ckab":6692,"oming":6693,"Ġstem":6694,"Ġwiping":6695,"lover":6696,"logy":6697,"orn":6698,"oring":6699,"orts":6700,"unte":6701,"esus":6702,"Ġdod":6703,"Ġtowed":6704,"onloo":6705,"idge":6706,"iday":6707,"Ġbout":6708,"chet":6709,"tends":6710,"ounts":6711,"Ġreve":6712,"Ġresc":6713,"Ġlie":6714,"itter":6715,"geons":6716,"ersby":6717,"Ġrul":6718,"Ġrise":6719,"Ġrumm":6720,"Ġritual":6721,"Ġjug":6722,"Ġjets":6723,"Ġjesus":6724,"Ġni":6725,"eared":6726,"oose":6727,"Ġloll":6728,"Ġloving":6729,"Ġloaf":6730,"Ġblues":6731,"umed":6732,"Ġshin":6733,"Ġshined":6734,"Ġfrog":6735,"Ġoutd":6736,"Ġoutcro":6737,"Ġcob":6738,"Ġroses":6739,"vern":6740,"illa":6741,"illy":6742,"cept":6743,"Ġeight":6744,"Ġegg":6745,"Ġends":6746,"Ġsmir":6747,"Ġlaps":6748,"Ġlaug":6749,"Ġbeating":6750,"Ġkore":6751,"Ġkitten":6752,"Ġherd":6753,"veyor":6754,"kswag":6755,"Ġpap":6756,"Ġpacking":6757,"Ġpages":6758,"Ġchal":6759,"Ġchess":6760,"entry":6761,"ential":6762,"Ġswallow":6763,"Ġswung":6764,"Ġpoke":6765,"Ġsomethi":6766,"Ġbackfl":6767,"Ġbrownish":6768,"Ġfort":6769,"Ġnecks":6770,"Ġbud":6771,"Ġbuck":6772,"Ġmaster":6773,"Ġleis":6774,"blem":6775,"Ġyells":6776,"Ġmovie":6777,"Ġram":6778,"Ġrav":6779,"Ġcrocs":6780,"Ġconvert":6781,"Ġconveyor":6782,"Ġspare":6783,"Ġsprints":6784,"igator":6785,"Ġhandmade":6786,"lescent":6787,"Ġcath":6788,"Ġcass":6789,"Ġcause":6790,"Ġcafeter":6791,"Ġworkman":6792,"Ġsnowbank":6793,"hold":6794,"hoop":6795,"Ġcli":6796,"Ġrocket":6797,"pples":6798,"unds":6799,"undreds":6800,"Ġblown":6801,"dot":6802,"Ġsunhat":6803,"Ġpercuss":6804,"isted":6805,"ube":6806,"Ġshots":6807,"Ġbusily":6808,"Ġarid":6809,"ffy":6810,"Ġunders":6811,"Ġbrand":6812,"olf":6813,"Ġprevent":6814,"Ġpretz":6815,"Ġtanks":6816,"Ġacce":6817,"Ġboot":6818,"Ġdarker":6819,"Ġheight":6820,"ipop":6821,"Ġarmor":6822,"Ġtrainer":6823,"Ġunifo":6824,"Ġsaws":6825,"Ġproper":6826,"Ġsweaty":6827,"Ġtend":6828,"tory":6829,"torch":6830,"rict":6831,"Ġhelmeted":6832,"Ġveil":6833,"Ġstickers":6834,"Ġextends":6835,"Ġexcept":6836,"Ġafro":6837,"Ġmicropho":6838,"Ġcaptain":6839,"Ġalligator":6840,"Ġpreparation":6841,"Ġskateboarders":6842,"Ġripped":6843,"Ġgrin":6844,"Ġgrate":6845,"Ġgrilled":6846,"Ġcleats":6847,"Ġflowe":6848,"cakes":6849,"Ġfirework":6850,"coats":6851,"Ġmotorcyc":6852,"Ġmarkers":6853,"Ġbowtie":6854,"Ġlighter":6855,"Ġkickbox":6856,"Ġflame":6857,"Ġdisco":6858,"Ġdescri":6859,"Ġsubw":6860,"Ġhurt":6861,"Ġhuckab":6862,"Ġcostu":6863,"Ġpassersby":6864,"Ġcord":6865,"Ġjoe":6866,"Ġjogg":6867,"dered":6868,"Ġvehic":6869,"Ġpullover":6870,"Ġknow":6871,"Ġknight":6872,"Ġskips":6873,"Ġsquat":6874,"Ġsquad":6875,"Ġsquirts":6876,"Ġdrumsticks":6877,"Ġfocuses":6878,"Ġwrite":6879,"Ġcontents":6880,"Ġcontroller":6881,"ctors":6882,"Ġtrails":6883,"Ġhoods":6884,"Ġviewed":6885,"Ġblowtorch":6886,"Ġweed":6887,"Ġweird":6888,"Ġsilk":6889,"Ġvolkswag":6890,"Ġinfants":6891,"letes":6892,"Ġglobe":6893,"Ġdistrict":6894,"Ġfunction":6895,"Ġnails":6896,"Ġnavig":6897,"motion":6898,"Ġvolleyba":6899,"Ġstudies":6900,"Ġstudded":6901,"Ġstrolling":6902,"Ġtiara":6903,"Ġbarely":6904,"welve":6905,"Ġintric":6906,"Ġdigital":6907,"Ġcutout":6908,"Ġrepresent":6909,"Ġimport":6910,"Ġquad":6911,"Ġquart":6912,"Ġbusinessmen":6913,"Ġ25":6914,"Ġshish":6915,"Ġclaps":6916,"Ġstreamers":6917,"Ġleashed":6918,"Ġviet":6919,"Ġcircles":6920,"Ġdirecting":6921,"Ġchained":6922,"smith":6923,"soldi":6924,"Ġstrawberry":6925,"Ġstrawberries":6926,"Ġlego":6927,"Ġlegos":6928,"Ġpierced":6929,"Ġenglish":6930,"Ġstocking":6931,"Ġprojected":6932,"Ġcontains":6933,"guage":6934,"Ġvisitors":6935,"Ġtugging":6936,"Ġoperation":6937,"Ġtackles":6938,"Ġwindowsill":6939,"Ġviolinist":6940,"Ġsculptures":6941,"Ġharnessed":6942,"Ġtrophy":6943,"Ġtrolley":6944,"Ġtowels":6945,"Ġcookies":6946,"Ġironing":6947,"Ġterri":6948,"Ġcarpentry":6949,"Ġdrawings":6950,"Ġchested":6951,"Ġspeeding":6952,"workmen":6953,"Ġpedal":6954,"Ġpajama":6955,"Ġparticipants":6956,"angular":6957,"Ġjagged":6958,"Ġsheepdog":6959,"Ġguarding":6960,"Ġ13":6961,"Ġracers":6962,"Ġtook":6963,"Ġshoeless":6964,"Ġsummit":6965,"Ġretrieves":6966,"Ġpairs":6967,"Ġlabrad":6968,"Ġdemonstrates":6969,"Ġminivan":6970,"Ġprofile":6971,"flop":6972,"Ġadjacent":6973,"Ġwashington":6974,"Ġsaxoph":6975,"Ġtwin":6976,"Ġtravels":6977,"Ġjewelery":6978,"Ġwarmers":6979,"Ġcondition":6980,"Ġdollar":6981,"Ġdollhouse":6982,"Ġbeginning":6983,"Ġpretend":6984,"Ġpinea":6985,"Ġmuzzles":6986,"Ġgrandmother":6987,"Ġpeaceful":6988,"Ġremoves":6989,"Ġstunts":6990,"Ġsleepy":6991,"Ġceremon":6992,"Ġgambling":6993,"Ġruins":6994,"Ġscoops":6995,"Ġpizzeria":6996,"Ġwakeboarder":6997,"Ġtightrope":6998,"Ġdrops":6999,"Ġordering":7000,"Ġmaterials":7001,"Ġbounding":7002,"Ġdescend":7003,"Ġbillboards":7004,"Ġavai":7005,"Ġmeasure":7006,"Ġsupported":7007,"Ġsippy":7008,"Ġportraits":7009,"biker":7010,"breros":7011,"youth":7012,"Ġdolphins":7013,"Ġparasails":7014,"Ġcollected":7015,"Ġforklif":7016,"Ġiced":7017,"Ġwarming":7018,"Ġmassage":7019,"Ġscrabble":7020,"shot":7021,"Ġlanter":7022,"Ġlettuce":7023,"Ġvillagers":7024,"Ġcrashing":7025,"Ġtorn":7026,"Ġcurtains":7027,"Ġconfused":7028,"Ġhamburger":7029,"Ġoccup":7030,"Ġgoose":7031,"Ġgrima":7032,"Ġfedora":7033,"Ġrecords":7034,"Ġpunches":7035,"Ġdye":7036,"Ġsepar":7037,"Ġstrums":7038,"Ġexercising":7039,"Ġoversized":7040,"Ġkabob":7041,"Ġsnowmobiles":7042,"Ġsolitary":7043,"Ġtexas":7044,"Ġbonnet":7045,"Ġflea":7046,"Ġflex":7047,"Ġreviews":7048,"Ġkeeps":7049,"Ġexcavation":7050,"Ġarab":7051,"Ġarabic":7052,"Ġsombreros":7053,"Ġmaneuver":7054,"Ġrusty":7055,"Ġnurses":7056,"Ġbuddhist":7057,"Ġacrobatics":7058,"Ġcharacter":7059,"Ġcharacters":7060,"Ġuk":7061,"Ġadolescent":7062,"Ġnamed":7063,"Ġapparently":7064,"Ġstruggle":7065,"Ġclasps":7066,"greyhounds":7067,"Ġpharmac":7068,"Ġinstalling":7069,"painted":7070,"Ġinstructions":7071,"Ġcentral":7072,"Ġrecording":7073,"Ġnoodles":7074,"Ġmossy":7075,"Ġpiercings":7076,"Ġlettering":7077,"Ġtreadmill":7078,"Ġmesh":7079,"rimmed":7080,"Ġrabbit":7081,"Ġvictory":7082,"Ġwaffle":7083,"Ġsecure":7084,"Ġpursu":7085,"Ġbathrobe":7086,"Ġborder":7087,"Ġcuddling":7088,"Ġdetermined":7089,"Ġdouble":7090,"Ġkitty":7091,"Ġbrochure":7092,"shoppers":7093,"Ġmushroom":7094,"Ġpatrons":7095,"Ġbookshelf":7096,"Ġgalloping":7097,"Ġautomobile":7098,"Ġaccompanied":7099,"phic":7100,"Ġgirder":7101,"Ġhopping":7102,"Ġrenov":7103,"Ġanswer":7104,"Ġlampshade":7105,"Ġlemons":7106,"Ġcorridor":7107,"Ġlocomotive":7108,"Ġtechnology":7109,"Ġtechnique":7110,"protesters":7111,"Ġassembled":7112,"Ġparasailing":7113,"Ġsupermarket":7114,"Ġskeleton":7115,"Ġipod":7116,"Ġpamph":7117,"Ġdachsh":7118,"Ġhunched":7119,"onlookers":7120,"Ġrevealing":7121,"Ġruler":7122,"Ġlollipop":7123,"Ġlaughi":7124,"Ġkorean":7125,"Ġcafeteria":7126,"Ġpercussion":7127,"Ġpretzels":7128,"Ġhuckabee":7129,"Ġimportant":7130,"Ġlabrador":7131,"Ġforklift":7132,"ass":7133,"aws":7134,"acy":7135,"bra":7136,"bul":7137,"beat":7138,"bare":7139,"bread":7140,"bright":7141,"cir":7142,"cim":7143,"care":7144,"dirt":7145,"eing":7146,"fam":7147,"fives":7148,"gear":7149,"gym":7150,"golf":7151,"hard":7152,"hine":7153,"ik":7154,"iro":7155,"jack":7156,"kea":7157,"mountain":7158,"mates":7159,"nie":7160,"native":7161,"oy":7162,"oke":7163,"pick":7164,"pool":7165,"poms":7166,"rd":7167,"rit":7168,"sers":7169,"sks":7170,"saw":7171,"tch":7172,"ters":7173,"tter":7174,"tation":7175,"twelve":7176,"vol":7177,"vous":7178,"won":7179,"wet":7180,"ware":7181,"wls":7182,"weds":7183,"yers":7184,"you":7185,"zed":7186,"zards":7187,"Ġet":7188,"Ġult":7189,"Ġala":7190,"Ġairl":7191,"Ġastro":7192,"ini":7193,"inated":7194,"Ġwit":7195,"Ġwoo":7196,"Ġwanting":7197,"Ġsin":7198,"Ġses":7199,"Ġsed":7200,"Ġsamp":7201,"Ġsisters":7202,"Ġowl":7203,"anke":7204,"Ġbit":7205,"Ġbind":7206,"Ġbats":7207,"Ġbingo":7208,"Ġpoun":7209,"Ġpoo":7210,"Ġcinder":7211,"Ġmy":7212,"Ġmight":7213,"hip":7214,"hikers":7215,"Ġtear":7216,"Ġtus":7217,"Ġtip":7218,"Ġtattered":7219,"rots":7220,"rong":7221,"arts":7222,"ndon":7223,"ndack":7224,"Ġgy":7225,"Ġgiv":7226,"ism":7227,"Ġdil":7228,"Ġdest":7229,"Ġduff":7230,"Ġdivid":7231,"Ġdeath":7232,"Ġfut":7233,"Ġfoo":7234,"Ġfling":7235,"Ġfellow":7236,"lace":7237,"Ġhen":7238,"Ġheat":7239,"Ġhud":7240,"Ġisle":7241,"ited":7242,"atic":7243,"atly":7244,"Ġmanner":7245,"Ġmanual":7246,"ckers":7247,"ckled":7248,"omet":7249,"Ġstood":7250,"local":7251,"irie":7252,"Ġdoc":7253,"Ġdots":7254,"Ġtoen":7255,"Ġtoes":7256,"Ġtote":7257,"etery":7258,"earch":7259,"Ġbowing":7260,"Ġboston":7261,"Ġplac":7262,"Ġrect":7263,"Ġrearing":7264,"Ġlid":7265,"Ġlumber":7266,"Ġlunges":7267,"itted":7268,"Ġplayi":7269,"Ġplayful":7270,"Ġplayhouse":7271,"utist":7272,"geon":7273,"Ġjane":7274,"Ġjanitor":7275,"Ġnes":7276,"Ġnuts":7277,"Ġgirlfriend":7278,"Ġyoungster":7279,"Ġpeoples":7280,"Ġblackberry":7281,"Ġblacksmith":7282,"Ġlon":7283,"Ġlost":7284,"Ġloves":7285,"Ġlonel":7286,"Ġlocked":7287,"Ġlondon":7288,"Ġwatchi":7289,"Ġouting":7290,"Ġcola":7291,"Ġromp":7292,"Ġrott":7293,"river":7294,"adult":7295,"Ġlave":7296,"Ġladen":7297,"Ġgrace":7298,"Ġgraphic":7299,"Ġbegging":7300,"Ġwatery":7301,"Ġkill":7302,"Ġkites":7303,"Ġkara":7304,"Ġkwon":7305,"Ġash":7306,"Ġask":7307,"umped":7308,"Ġtae":7309,"Ġtaught":7310,"Ġtalent":7311,"security":7312,"Ġparent":7313,"Ġchor":7314,"Ġchanging":7315,"Ġchubby":7316,"Ġswam":7317,"Ġsweep":7318,"Ġbrothers":7319,"Ġpour":7320,"Ġpokes":7321,"Ġpotty":7322,"Ġpoised":7323,"keys":7324,"Ġgreet":7325,"Ġsomebody":7326,"Ġsomewhat":7327,"Ġbackup":7328,"Ġbacklit":7329,"Ġcarve":7330,"Ġcarrots":7331,"Ġford":7332,"Ġforce":7333,"Ġforming":7334,"boats":7335,"Ġgreenish":7336,"Ġneatly":7337,"Ġbucks":7338,"Ġmachi":7339,"Ġorph":7340,"individu":7341,"Ġmout":7342,"Ġtrays":7343,"Ġraking":7344,"Ġrather":7345,"Ġrake":7346,"Ġrapp":7347,"Ġrags":7348,"Ġracks":7349,"Ġveter":7350,"Ġoverhang":7351,"Ġcrop":7352,"Ġcrotch":7353,"Ġspl":7354,"Ġspool":7355,"Ġspell":7356,"Ġspike":7357,"Ġpersonnel":7358,"igently":7359,"Ġridge":7360,"Ġsnowing":7361,"Ġsnowmen":7362,"Ġsnowstorm":7363,"hole":7364,"hoops":7365,"Ġrocker":7366,"Ġsolo":7367,"Ġsolder":7368,"Ġsoars":7369,"emp":7370,"ores":7371,"Ġcamper":7372,"Ġscouts":7373,"Ġdrying":7374,"Ġbloss":7375,"Ġgrayish":7376,"Ġperple":7377,"ista":7378,"Ġhairstyle":7379,"Ġuncut":7380,"Ġital":7381,"ishing":7382,"Ġguest":7383,"uds":7384,"Ġarched":7385,"Ġargu":7386,"Ġarrow":7387,"Ġhello":7388,"Ġbrings":7389,"Ġcomb":7390,"Ġcombing":7391,"Ġflorid":7392,"Ġflotation":7393,"Ġparts":7394,"Ġfootbr":7395,"Ġtanned":7396,"Ġadd":7397,"Ġadiro":7398,"Ġwhack":7399,"Ġwheat":7400,"Ġdarkened":7401,"Ġener":7402,"Ġbarren":7403,"Ġbarney":7404,"Ġrestroom":7405,"Ġconstructions":7406,"Ġsuitcases":7407,"Ġliber":7408,"Ġlizard":7409,"Ġsales":7410,"Ġsafe":7411,"Ġsaber":7412,"ska":7413,"skiers":7414,"Ġcheers":7415,"Ġprops":7416,"Ġproblem":7417,"Ġcompo":7418,"Ġcompact":7419,"Ġslice":7420,"Ġslumped":7421,"uster":7422,"Ġtethered":7423,"Ġbandage":7424,"Ġbaseba":7425,"rical":7426,"Ġfishermen":7427,"Ġfliers":7428,"Ġsignals":7429,"Ġsignaling":7430,"tters":7431,"Ġcapes":7432,"Ġfrance":7433,"Ġmarriage":7434,"Ġmarbles":7435,"Ġcanes":7436,"Ġcanad":7437,"Ġcanister":7438,"Ġdaycare":7439,"Ġpilot":7440,"Ġnothing":7441,"Ġnoise":7442,"Ġdribbles":7443,"Ġrestaurants":7444,"orters":7445,"Ġpartner":7446,"Ġstew":7447,"Ġsteers":7448,"Ġfiretrucks":7449,"coal":7450,"cock":7451,"color":7452,"Ġfeels":7453,"eyed":7454,"Ġseating":7455,"Ġdisk":7456,"velin":7457,"Ġdesper":7458,"Ġmeter":7459,"Ġpasta":7460,"Ġpasture":7461,"Ġbookbag":7462,"looks":7463,"Ġbearing":7464,"Ġsurfers":7465,"Ġpassion":7466,"Ġpasserby":7467,"Ġcells":7468,"Ġhousehold":7469,"Ġcoral":7470,"Ġcorndo":7471,"Ġcorgi":7472,"Ġcreate":7473,"Ġcreates":7474,"Ġcreature":7475,"Ġjog":7476,"Ġjoin":7477,"Ġalike":7478,"Ġalumin":7479,"izer":7480,"Ġshoeshine":7481,"Ġprairie":7482,"Ġknitted":7483,"Ġcracked":7484,"Ġlottery":7485,"Ġviews":7486,"scri":7487,"Ġconverses":7488,"Ġcurled":7489,"Ġskyd":7490,"bery":7491,"Ġsugar":7492,"Ġcheckout":7493,"Ġweight":7494,"Ġweigh":7495,"Ġraining":7496,"Ġrainstorm":7497,"Ġraincoats":7498,"rolling":7499,"Ġvolunte":7500,"Ġpatrol":7501,"Ġstructures":7502,"lette":7503,"Ġseeing":7504,"Ġseeming":7505,"artist":7506,"Ġseasho":7507,"Ġmonks":7508,"Ġtips":7509,"groups":7510,"Ġpainters":7511,"Ġmasked":7512,"Ġserious":7513,"Ġcountertop":7514,"Ġrepelling":7515,"Ġscreens":7516,"Ġimac":7517,"Ġburger":7518,"Ġburlap":7519,"Ġburrit":7520,"Ġpotential":7521,"Ġharvest":7522,"Ġstreams":7523,"Ġvibr":7524,"Ġbatting":7525,"iachi":7526,"Ġfolk":7527,"Ġdecorate":7528,"Ġvegetation":7529,"Ġonlooker":7530,"Ġwashers":7531,"Ġengage":7532,"Ġstooping":7533,"Ġdesktop":7534,"Ġretail":7535,"Ġretaining":7536,"Ġbulls":7537,"Ġpepper":7538,"Ġpeppers":7539,"Ġbraided":7540,"Ġwineglass":7541,"lates":7542,"lation":7543,"mbling":7544,"Ġtux":7545,"fork":7546,"Ġfighter":7547,"Ġoperator":7548,"Ġstadi":7549,"Ġmeditating":7550,"Ġstran":7551,"Ġstride":7552,"Ġcookout":7553,"Ġsprinkled":7554,"Ġmixes":7555,"Ġdemanding":7556,"Ġikea":7557,"Ġmulticolor":7558,"Ġteaches":7559,"Ġspending":7560,"Ġjavelin":7561,"Ġeyebro":7562,"Ġvaulting":7563,"Ġkeyboards":7564,"Ġpitching":7565,"Ġpitchfork":7566,"Ġstacking":7567,"Ġowners":7568,"Ġtossed":7569,"Ġdonning":7570,"Ġfloaties":7571,"Ġprofession":7572,"Ġpossible":7573,"Ġpowered":7574,"Ġreceive":7575,"Ġparachuting":7576,"Ġpetals":7577,"Ġtravelers":7578,"Ġcelebrate":7579,"Ġplanted":7580,"Ġengineer":7581,"Ġnapkin":7582,"Ġmason":7583,"Ġpatches":7584,"Ġgrandson":7585,"Ġfabrics":7586,"crowds":7587,"Ġroulette":7588,"Ġremove":7589,"Ġinternet":7590,"Ġresearch":7591,"Ġelevators":7592,"tennis":7593,"Ġdesigned":7594,"Ġgliding":7595,"Ġsimilarly":7596,"Ġdoctors":7597,"Ġexcitedly":7598,"Ġoddly":7599,"Ġorganizing":7600,"Ġscoop":7601,"Ġdropped":7602,"Ġsnaps":7603,"Ġcommon":7604,"Ġwonder":7605,"Ġpresses":7606,"Ġyawns":7607,"Ġornam":7608,"Ġscreams":7609,"Ġleaned":7610,"Ġmotions":7611,"Ġspeedo":7612,"Ġsibling":7613,"Ġsundown":7614,"Ġgrouch":7615,"Ġeverything":7616,"Ġeverywhere":7617,"Ġknocked":7618,"bikers":7619,"Ġfeatures":7620,"Ġhighchairs":7621,"Ġsupervis":7622,"Ġpriest":7623,"Ġcruis":7624,"Ġmugs":7625,"Ġslices":7626,"Ġbulldog":7627,"point":7628,"tendo":7629,"Ġlanes":7630,"Ġlanguage":7631,"Ġcoastline":7632,"Ġopponents":7633,"Ġturtles":7634,"Ġexplores":7635,"Ġexplosion":7636,"Ġsurprise":7637,"Ġsalvation":7638,"Ġcopper":7639,"Ġseesaws":7640,"Ġslam":7641,"thouse":7642,"Ġoccur":7643,"train":7644,"Ġspirit":7645,"Ġaddressing":7646,"Ġattacking":7647,"Ġshields":7648,"Ġcharcoal":7649,"Ġsnowmobile":7650,"Ġtexting":7651,"Ġassistance":7652,"Ġsqueeze":7653,"Ġcubs":7654,"Ġtutus":7655,"Ġfamilies":7656,"Ġlimbs":7657,"Ġkeg":7658,"Ġkeeping":7659,"Ġtasting":7660,"motorcycle":7661,"Ġextreme":7662,"Ġturtleneck":7663,"Ġnursing":7664,"Ġreturn":7665,"olog":7666,"Ġslowly":7667,"Ġincense":7668,"Ġpride":7669,"Ġcitizens":7670,"Ġshells":7671,"Ġbroadly":7672,"Ġstruggling":7673,"Ġpharmacy":7674,"rers":7675,"Ġpompoms":7676,"Ġpuddles":7677,"Ġpeeling":7678,"Ġninja":7679,"Ġnintendo":7680,"Ġgrasping":7681,"Ġsketch":7682,"Ġcomfortable":7683,"Ġbarriers":7684,"Ġpurchasing":7685,"grown":7686,"Ġverizon":7687,"Ġculture":7688,"Ġdomino":7689,"Ġdamaged":7690,"Ġdesserts":7691,"Ġhunting":7692,"Ġmagic":7693,"Ġvocal":7694,"Ġsunbathing":7695,"Ġcomforter":7696,"Ġproviding":7697,"Ġprogram":7698,"Ġattentively":7699,"Ġseasoning":7700,"surfer":7701,"Ġwestern":7702,"erole":7703,"Ġnervous":7704,"Ġholiday":7705,"Ġcoconuts":7706,"tourists":7707,"Ġconcentr":7708,"Ġunloading":7709,"Ġarrive":7710,"Ġcaptured":7711,"Ġbreathing":7712,"Ġsquinting":7713,"Ġweapons":7714,"Ġcrutches":7715,"Ġpencil":7716,"Ġadmires":7717,"Ġhistorical":7718,"Ġqueen":7719,"Ġwelcome":7720,"Ġbattling":7721,"Ġcemetery":7722,"Ġmounted":7723,"Ġdentist":7724,"Ġdalmat":7725,"Ġlimo":7726,"striped":7727,"Ġmajor":7728,"Ġsnowshoes":7729,"Ġclerk":7730,"Ġunique":7731,"Ġpolitical":7732,"Ġeyeliner":7733,"Ġstraddling":7734,"Ġpenguin":7735,"Ġfigurine":7736,"Ġphysical":7737,"Ġsharpening":7738,"professional":7739,"Ġshrubbery":7740,"Ġsymbol":7741,"Ġtambourines":7742,"Ġskyscraper":7743,"Ġirish":7744,"Ġurin":7745,"Ġpopsicle":7746,"Ġgingerbread":7747,"Ġoutdoo":7748,"Ġchallen":7749,"Ġbackflip":7750,"Ġconvertible":7751,"Ġcasserole":7752,"Ġaccep":7753,"Ġvolkswagen":7754,"Ġintricate":7755,"Ġquartet":7756,"Ġvietnam":7757,"soldiers":7758,"Ġsaxophones":7759,"Ġceremonial":7760,"Ġavailable":7761,"Ġlanterns":7762,"Ġoccupied":7763,"Ġflexing":7764,"Ġpharmacist":7765,"barefoot":7766,"families":7767,"Ġultimate":7768,"Ġalaska":7769,"Ġsesame":7770,"Ġpounces":7771,"Ġtusks":7772,"Ġgiven":7773,"Ġdiligently":7774,"Ġduffel":7775,"Ġkaraoke":7776,"Ġorphans":7777,"Ġperplexed":7778,"Ġarguing":7779,"Ġflorida":7780,"Ġfootbridge":7781,"Ġadirondack":7782,"Ġliberty":7783,"Ġcorndogs":7784,"Ġaluminum":7785,"Ġburrito":7786,"Ġeyebrows":7787,"av":7788,"ault":7789,"acles":7790,"bc":7791,"beach":7792,"cell":7793,"cars":7794,"cyclists":7795,"cier":7796,"cube":7797,"dad":7798,"deling":7799,"deli":7800,"eve":7801,"farm":7802,"from":7803,"fronts":7804,"hel":7805,"hea":7806,"hur":7807,"had":7808,"hundreds":7809,"iped":7810,"kay":7811,"mig":7812,"nal":7813,"oopy":7814,"pre":7815,"pea":7816,"pupp":7817,"part":7818,"pipe":7819,"parent":7820,"ride":7821,"rider":7822,"sen":7823,"sitting":7824,"scre":7825,"sbc":7826,"tan":7827,"tis":7828,"tic":7829,"uitt":7830,"uge":7831,"va":7832,"vin":7833,"vro":7834,"vid":7835,"vag":7836,"wall":7837,"wers":7838,"wea":7839,"xim":7840,"ya":7841,"yed":7842,"zag":7843,"Ġ?":7844,"Ġiv":7845,"Ġaid":7846,"Ġaward":7847,"Ġaler":7848,"inter":7849,"ination":7850,"inary":7851,"Ġwants":7852,"Ġwou":7853,"Ġsle":7854,"Ġsall":7855,"Ġsow":7856,"Ġsalm":7857,"Ġsights":7858,"thy":7859,"Ġoll":7860,"Ġosc":7861,"anut":7862,"Ġber":7863,"Ġbong":7864,"Ġbins":7865,"Ġbern":7866,"reading":7867,"rescent":7868,"Ġink":7869,"erior":7870,"ergency":7871,"Ġpens":7872,"Ġceram":7873,"Ġmel":7874,"Ġmul":7875,"Ġmong":7876,"Ġmops":7877,"higan":7878,"Ġthr":7879,"lein":7880,"Ġtumb":7881,"Ġteep":7882,"Ġtests":7883,"Ġtiss":7884,"Ġtilts":7885,"rols":7886,"Ġgain":7887,"Ġgates":7888,"Ġgently":7889,"Ġgang":7890,"isley":7891,"Ġding":7892,"Ġdor":7893,"Ġdid":7894,"Ġdie":7895,"Ġdice":7896,"Ġdarts":7897,"Ġonward":7898,"Ġfri":7899,"Ġfine":7900,"Ġfiring":7901,"laged":7902,"Ġhul":7903,"Ġhsbc":7904,"ensely":7905,"itive":7906,"itime":7907,"atively":7908,"Ġmantis":7909,"cken":7910,"Ġstor":7911,"Ġstate":7912,"Ġstyl":7913,"Ġwizard":7914,"lon":7915,"oric":7916,"orial":7917,"union":7918,"unif":7919,"Ġdozes":7920,"Ġton":7921,"Ġtoned":7922,"Ġtopping":7923,"Ġtopped":7924,"Ġtotter":7925,"ono":7926,"onse":7927,"Ġwhis":7928,"idas":7929,"idated":7930,"ands":7931,"ete":7932,"eties":7933,"Ġboa":7934,"Ġboom":7935,"Ġboating":7936,"race":7937,"racial":7938,"edics":7939,"sst":7940,"Ġyears":7941,"Ġyama":7942,"Ġyanke":7943,"Ġreen":7944,"Ġreeds":7945,"Ġreunion":7946,"Ġlick":7947,"Ġliner":7948,"icious":7949,"iculo":7950,"Ġrival":7951,"Ġrustic":7952,"Ġansw":7953,"Ġjar":7954,"Ġjour":7955,"Ġjunk":7956,"sts":7957,"sty":7958,"sting":7959,"stra":7960,"sted":7961,"stones":7962,"stumed":7963,"Ġnon":7964,"Ġnine":7965,"Ġnest":7966,"Ġbaking":7967,"Ġbake":7968,"ooks":7969,"Ġlob":7970,"Ġloud":7971,"Ġlocker":7972,"Ġlounges":7973,"Ġbluish":7974,"Ġhoe":7975,"Ġholder":7976,"Ġhousing":7977,"urry":7978,"Ġshant":7979,"Ġshares":7980,"Ġshading":7981,"Ġshamp":7982,"Ġfrol":7983,"Ġouter":7984,"Ġcour":7985,"Ġcoals":7986,"Ġwallet":7987,"Ġwalmart":7988,"Ġroc":7989,"verted":7990,"verpool":7991,"iler":7992,"rior":7993,"riger":7994,"ami":7995,"Ġever":7996,"Ġemotion":7997,"Ġlace":7998,"Ġlathered":7999,"Ġlacross":8000,"Ġgrapes":8001,"Ġbee":8002,"Ġbeans":8003,"Ġbeater":8004,"ardi":8005,"ctu":8006,"Ġgrouped":8007,"Ġket":8008,"Ġkim":8009,"Ġklein":8010,"imp":8011,"iming":8012,"Ġrunway":8013,"velo":8014,"Ġstrength":8015,"Ġhailing":8016,"Ġhawk":8017,"Ġtak":8018,"Ġtaped":8019,"ows":8020,"Ġpas":8021,"Ġpay":8022,"Ġpaving":8023,"Ġpause":8024,"Ġpails":8025,"Ġpavil":8026,"Ġpalace":8027,"Ġpaisley":8028,"Ġchandel":8029,"Ġswirl":8030,"Ġswad":8031,"Ġpoured":8032,"Ġupsca":8033,"Ġbackpa":8034,"Ġbackhand":8035,"Ġcarca":8036,"Ġcarrier":8037,"Ġbrownies":8038,"Ġforrest":8039,"borers":8040,"Ġneeds":8041,"Ġbuys":8042,"Ġbubb":8043,"Ġbucked":8044,"Ġbuoy":8045,"Ġmac":8046,"Ġmaze":8047,"Ġmagn":8048,"redible":8049,"Ġorders":8050,"Ġhate":8051,"Ġlei":8052,"Ġless":8053,"indle":8054,"Ġmock":8055,"Ġmothers":8056,"Ġmocking":8057,"Ġmosa":8058,"Ġtrac":8059,"Ġraw":8060,"Ġraging":8061,"Ġrays":8062,"Ġraids":8063,"Ġvw":8064,"Ġvers":8065,"Ġvivid":8066,"Ġvast":8067,"Ġvuitt":8068,"Ġoverall":8069,"Ġovergrown":8070,"Ġcrow":8071,"ains":8072,"Ġconc":8073,"Ġconga":8074,"Ġballgame":8075,"Ġspout":8076,"Ġspikes":8077,"Ġspreading":8078,"Ġpersonal":8079,"iforn":8080,"Ġhandwr":8081,"Ġhandbags":8082,"Ġsidebur":8083,"Ġsnoopy":8084,"Ġnears":8085,"ormed":8086,"Ġcasc":8087,"Ġcapped":8088,"Ġcables":8089,"Ġworked":8090,"Ġworkmen":8091,"iance":8092,"Ġsnowf":8093,"Ġsnowca":8094,"hot":8095,"hooping":8096,"Ġwag":8097,"Ġclinging":8098,"Ġcluster":8099,"Ġsous":8100,"wdriver":8101,"Ġfaux":8102,"emergency":8103,"orescent":8104,"ppled":8105,"Ġcamps":8106,"Ġcampa":8107,"Ġcampers":8108,"phony":8109,"Ġscri":8110,"Ġscary":8111,"Ġscient":8112,"Ġoffer":8113,"Ġdrunk":8114,"Ġcloses":8115,"Ġtopic":8116,"Ġgoth":8117,"Ġpicn":8118,"Ġsunflowers":8119,"Ġheadgear":8120,"Ġthatched":8121,"Ġsands":8122,"Ġsandal":8123,"psi":8124,"estig":8125,"istic":8126,"formal":8127,"Ġhairy":8128,"Ġunto":8129,"Ġunident":8130,"Ġreadying":8131,"Ġshouts":8132,"Ġsocc":8133,"quik":8134,"Ġcombat":8135,"Ġflorescent":8136,"Ġwalkie":8137,"olian":8138,"Ġparrot":8139,"Ġsurgeon":8140,"anted":8141,"antic":8142,"antly":8143,"Ġprehist":8144,"Ġprescri":8145,"Ġcolour":8146,"Ġtang":8147,"Ġadding":8148,"Ġadvent":8149,"Ġadidas":8150,"Ġwharf":8151,"dled":8152,"Ġstricken":8153,"Ġheine":8154,"Ġtenn":8155,"Ġbarb":8156,"Ġbarre":8157,"Ġrestra":8158,"Ġsex":8159,"Ġsewer":8160,"Ġgamecube":8161,"Ġhandsaw":8162,"Ġtrained":8163,"Ġsuite":8164,"Ġliverpool":8165,"Ġsau":8166,"Ġsauce":8167,"Ġbicycl":8168,"arel":8169,"Ġgrounds":8170,"Ġgap":8171,"Ġsweats":8172,"Ġcompletes":8173,"Ġslanted":8174,"uston":8175,"Ġbands":8176,"metal":8177,"Ġmuscle":8178,"Ġveg":8179,"Ġmichigan":8180,"ushing":8181,"ager":8182,"Ġcapris":8183,"Ġmaritime":8184,"Ġstorefronts":8185,"Ġappre":8186,"Ġapply":8187,"Ġapparel":8188,"Ġtrio":8189,"ived":8190,"ivated":8191,"Ġally":8192,"Ġpiled":8193,"stride":8194,"Ġtreats":8195,"Ġtrendy":8196,"Ġnovel":8197,"erees":8198,"Ġarticle":8199,"Ġriot":8200,"Ġdrivers":8201,"Ġdribbling":8202,"Ġgran":8203,"Ġgrating":8204,"Ġcleared":8205,"Ġforefront":8206,"Ġhilltop":8207,"Ġhigher":8208,"Ġsteer":8209,"caucasian":8210,"costumed":8211,"Ġfeed":8212,"Ġshapes":8213,"Ġcowgirl":8214,"Ġseattle":8215,"Ġdese":8216,"Ġmachete":8217,"Ġbodysuit":8218,"Ġfrisbees":8219,"Ġbackpackers":8220,"Ġamounts":8221,"Ġambul":8222,"Ġtrink":8223,"wered":8224,"Ġcosta":8225,"Ġpassage":8226,"Ġcellpho":8227,"Ġboarded":8228,"Ġbridges":8229,"Ġattired":8230,"Ġstonehur":8231,"Ġmean":8232,"Ġbreeds":8233,"Ġstairca":8234,"Ġcorp":8235,"Ġcreation":8236,"Ġcrevice":8237,"Ġbeauty":8238,"Ġbeards":8239,"Ġbottled":8240,"Ġalread":8241,"behind":8242,"Ġturf":8243,"bbled":8244,"Ġknits":8245,"Ġsquares":8246,"Ġcrayon":8247,"Ġcrafting":8248,"Ġcrazy":8249,"Ġdrawer":8250,"Ġfolders":8251,"Ġequipped":8252,"grapher":8253,"Ġcontin":8254,"Ġcontrols":8255,"uffed":8256,"Ġfours":8257,"Ġfourth":8258,"Ġspeakers":8259,"Ġhomework":8260,"Ġhoodies":8261,"Ġsucking":8262,"Ġblower":8263,"paved":8264,"Ġweb":8265,"Ġstates":8266,"Ġrefriger":8267,"Ġreferees":8268,"Ġclassical":8269,"Ġclassmates":8270,"Ġgarter":8271,"Ġreached":8272,"Ġglobal":8273,"Ġnaps":8274,"Ġwinnie":8275,"Ġseahorse":8276,"Ġformed":8277,"Ġcompetes":8278,"Ġeyeshad":8279,"Ġschoolgirls":8280,"armed":8281,"Ġpreschool":8282,"Ġdocking":8283,"type":8284,"zzy":8285,"Ġintensely":8286,"Ġscale":8287,"cedes":8288,"headed":8289,"gerly":8290,"Ġserv":8291,"Ġreporters":8292,"Ġscrewdriver":8293,"Ġnetting":8294,"Ġnetted":8295,"Ġcreamer":8296,"Ġimmig":8297,"Ġqual":8298,"Ġnecked":8299,"Ġtalkie":8300,"Ġharp":8301,"Ġspoons":8302,"Ġtrampoli":8303,"Ġcandid":8304,"Ġcircus":8305,"Ġbathes":8306,"Ġgraffitied":8307,"Ġexamined":8308,"Ġdirector":8309,"Ġdirects":8310,"Ġweave":8311,"Ġweathered":8312,"Ġmirrored":8313,"Ġmeats":8314,"Ġgolfers":8315,"Ġplatforms":8316,"bbed":8317,"Ġshady":8318,"Ġmirrors":8319,"Ġdavid":8320,"Ġpeanut":8321,"Ġlittered":8322,"Ġbraces":8323,"Ġwaterskis":8324,"Ġvisit":8325,"Ġreflector":8326,"Ġreflected":8327,"Ġrackets":8328,"Ġtuss":8329,"Ġfestiv":8330,"Ġfighters":8331,"Ġoperated":8332,"Ġpancakes":8333,"Ġfalcon":8334,"Ġwaterfa":8335,"bands":8336,"Ġeatery":8337,"Ġmemorial":8338,"Ġtranspor":8339,"Ġmedal":8340,"toned":8341,"Ġpeacock":8342,"Ġcalvin":8343,"Ġcaliforn":8344,"Ġsledge":8345,"Ġfairway":8346,"Ġsprinkles":8347,"Ġsprinkling":8348,"ucky":8349,"Ġcarpenter":8350,"Ġprotect":8351,"Ġprotects":8352,"Ġexposed":8353,"Ġwells":8354,"Ġspeeds":8355,"Ġspeckled":8356,"Ġlighthouse":8357,"Ġassists":8358,"Ġassisting":8359,"Ġpedaling":8360,"Ġartistic":8361,"goers":8362,"Ġmustard":8363,"Ġmustached":8364,"Ġmustang":8365,"Ġeyelash":8366,"Ġcleaned":8367,"Ġcamouflaged":8368,"Ġmoms":8369,"Ġhowling":8370,"Ġfriendly":8371,"Ġpitchers":8372,"Ġboulders":8373,"Ġamused":8374,"kah":8375,"comp":8376,"comple":8377,"Ġslot":8378,"Ġdonut":8379,"Ġembro":8380,"Ġprofess":8381,"Ġdaughters":8382,"Ġhalfway":8383,"citizens":8384,"Ġpowdered":8385,"atown":8386,"Ġreceives":8387,"Ġreceived":8388,"Ġparachutist":8389,"Ġtwins":8390,"Ġwaste":8391,"Ġwarmly":8392,"Ġhearts":8393,"Ġcampus":8394,"Ġapplied":8395,"Ġdolly":8396,"Ġdiam":8397,"Ġdiag":8398,"Ġdilap":8399,"Ġfinishes":8400,"Ġentertainers":8401,"Ġescape":8402,"Ġactively":8403,"Ġmovements":8404,"crowded":8405,"Ġmission":8406,"Ġchoppy":8407,"Ġbunk":8408,"Ġfargo":8409,"Ġstumps":8410,"Ġremodeling":8411,"Ġbrooms":8412,"Ġinterview":8413,"Ġcobbled":8414,"Ġcobblestones":8415,"Ġchinatown":8416,"Ġclubs":8417,"balding":8418,"Ġbassist":8419,"Ġsooner":8420,"hooded":8421,"Ġbills":8422,"Ġpeek":8423,"Ġglides":8424,"Ġdelicious":8425,"Ġloader":8426,"Ġmaintain":8427,"Ġspreads":8428,"Ġgowns":8429,"Ġexpressions":8430,"Ġbullet":8431,"Ġinteracts":8432,"Ġinvestig":8433,"Ġwheelbar":8434,"dancers":8435,"Ġbeaded":8436,"Ġfreeway":8437,"Ġconsists":8438,"Ġconsults":8439,"Ġscruffy":8440,"Ġjoyous":8441,"Ġpositions":8442,"Ġsnap":8443,"Ġvarieties":8444,"Ġhumans":8445,"Ġexterior":8446,"Ġbundle":8447,"Ġbundles":8448,"Ġmotioning":8449,"ulating":8450,"ulated":8451,"Ġutil":8452,"Ġpopping":8453,"Ġsailboats":8454,"Ġspeedboat":8455,"Ġawait":8456,"Ġslipper":8457,"Ġcontestants":8458,"Ġmonitoring":8459,"Ġbells":8460,"Ġmercedes":8461,"Ġgeomet":8462,"teenage":8463,"Ġcottage":8464,"Ġmannequins":8465,"Ġprizes":8466,"Ġmule":8467,"Ġcelery":8468,"Ġmassive":8469,"Ġcameramen":8470,"Ġscraping":8471,"Ġbarbecues":8472,"Ġdelivery":8473,"Ġfixt":8474,"Ġunfold":8475,"Ġpolicy":8476,"Ġattendant":8477,"Ġexplore":8478,"Ġletting":8479,"riders":8480,"Ġinground":8481,"Ġcopies":8482,"Ġdiapers":8483,"Ġfocusing":8484,"Ġslab":8485,"Ġoccas":8486,"Ġtickets":8487,"Ġhooking":8488,"Ġhookah":8489,"Ġstroke":8490,"Ġblinds":8491,"Ġpockets":8492,"Ġneeded":8493,"Ġmodels":8494,"Ġsilhouettes":8495,"traffic":8496,"Ġstainless":8497,"Ġresponse":8498,"Ġconstructed":8499,"Ġsparkling":8500,"Ġclarin":8501,"Ġcheesecake":8502,"Ġdecide":8503,"Ġtwirls":8504,"bicyclists":8505,"Ġ93":8506,"Ġrushing":8507,"Ġrushes":8508,"Ġascends":8509,"Ġsolution":8510,"Ġskewers":8511,"Ġbonnets":8512,"Ġgigolo":8513,"Ġgigantic":8514,"Ġsteaks":8515,"Ġkept":8516,"Ġtastes":8517,"Ġcontemplating":8518,"Ġscratches":8519,"Ġfluorescent":8520,"Ġbreastfe":8521,"Ġcabinets":8522,"Ġsymphony":8523,"Ġcylind":8524,"Ġmurder":8525,"Ġjudge":8526,"Ġlatin":8527,"Ġlatino":8528,"climbing":8529,"Ġreturns":8530,"Ġacrobatic":8531,"Ġarchitect":8532,"snowboarder":8533,"Ġincredible":8534,"Ġtoasting":8535,"Ġnames":8536,"Ġpoorly":8537,"Ġdeflated":8538,"Ġvideotaping":8539,"Ġvideotapes":8540,"Ġhorizontally":8541,"Ġunwraps":8542,"Ġcentiped":8543,"Ġrecorder":8544,"Ġnoodle":8545,"Ġbadge":8546,"Ġsketching":8547,"Ġrefreshment":8548,"Ġpurchases":8549,"Ġtreadmills":8550,"college":8551,"drawn":8552,"Ġslingshot":8553,"Ġsashes":8554,"Ġpearl":8555,"Ġculinary":8556,"Ġmingle":8557,"Ġmingling":8558,"Ġglacier":8559,"Ġdessert":8560,"Ġferret":8561,"Ġfacility":8562,"Ġsurveying":8563,"Ġprograms":8564,"Ġobscured":8565,"Ġattentive":8566,"Ġplugging":8567,"Ġstockings":8568,"swimmer":8569,"Ġsifting":8570,"Ġmisty":8571,"Ġwields":8572,"Ġcocktail":8573,"Ġbrazilian":8574,"Ġvacation":8575,"Ġresponding":8576,"Ġproudly":8577,"Ġidea":8578,"Ġcustody":8579,"Ġtrouble":8580,"Ġgorgeous":8581,"Ġreleas":8582,"Ġrecreational":8583,"Ġanticip":8584,"Ġtraversing":8585,"Ġconsole":8586,"Ġsnarling":8587,"rugby":8588,"Ġsoapy":8589,"Ġperfect":8590,"Ġsituation":8591,"Ġbarricade":8592,"newly":8593,"Ġexperim":8594,"Ġdealer":8595,"Ġamazing":8596,"Ġcurrently":8597,"Ġtrombone":8598,"Ġzooms":8599,"Ġtwenties":8600,"chefs":8601,"Ġextravag":8602,"Ġfashionable":8603,"Ġexcavator":8604,"Ġgeneral":8605,"ibility":8606,"ulele":8607,"Ġigloo":8608,"Ġpallet":8609,"Ġpuzzle":8610,"Ġhooked":8611,"Ġrummaging":8612,"Ġoutcropping":8613,"Ġpokemon":8614,"Ġravine":8615,"Ġundershirt":8616,"Ġconditions":8617,"Ġgrimacing":8618,"Ġukulele":8619,"Ġpursued":8620,"Ġmushrooms":8621,"Ġsedan":8622,"Ġdeaths":8623,"Ġtoenails":8624,"Ġrectangular":8625,"Ġnesquik":8626,"Ġlongh":8627,"Ġlonely":8628,"Ġrottwe":8629,"Ġlavender":8630,"Ġchorus":8631,"Ġswampy":8632,"individuals":8633,"employ":8634,"Ġitalian":8635,"Ġcompound":8636,"Ġdesperately":8637,"Ġpassionately":8638,"Ġskydiving":8639,"Ġseemingly":8640,"Ġseashore":8641,"Ġvibrant":8642,"Ġwonderful":8643,"Ġdominoes":8644,"Ġchallenge":8645,"peace":8646,"screen":8647,"vrolet":8648,"weather":8649,"Ġalert":8650,"Ġwould":8651,"Ġsallie":8652,"Ġsalmon":8653,"Ġsightseeing":8654,"Ġoscar":8655,"Ġbernard":8656,"Ġceramic":8657,"Ġmongolian":8658,"Ġteepee":8659,"Ġtissue":8660,"Ġhulk":8661,"uniformed":8662,"Ġtoppings":8663,"Ġyamaha":8664,"iculous":8665,"Ġanswers":8666,"Ġshampoo":8667,"Ġlacrosse":8668,"Ġkimono":8669,"Ġpavilion":8670,"Ġupscale":8671,"Ġcarcass":8672,"Ġmagnif":8673,"Ġmockingbird":8674,"Ġmosaic":8675,"Ġvuitton":8676,"Ġhandwritten":8677,"Ġsideburns":8678,"Ġsnowcapped":8679,"Ġcampsite":8680,"Ġcampaign":8681,"Ġunidentified":8682,"Ġprehistoric":8683,"Ġprescription":8684,"Ġadventure":8685,"Ġambulance":8686,"Ġstonehurst":8687,"Ġalready":8688,"Ġeyeshadow":8689,"Ġcalifornia":8690,"Ġdilapidated":8691,"Ġgeometric":8692,"Ġoccasion":8693,"Ġcentipede":8694,"Ġextravagant":8695,"02":8696,"44":8697,"au":8698,"action":8699,"away":8700,"aps":8701,"aves":8702,"aphone":8703,"aired":8704,"acts":8705,"acro":8706,"ailed":8707,"aura":8708,"bq":8709,"bet":8710,"bum":8711,"bus":8712,"big":8713,"bee":8714,"bas":8715,"bish":8716,"bell":8717,"bones":8718,"bmx":8719,"cis":8720,"camer":8721,"cooks":8722,"dge":8723,"dri":8724,"das":8725,"dist":8726,"ddle":8727,"during":8728,"dely":8729,"ext":8730,"fro":8731,"fla":8732,"fur":8733,"fans":8734,"face":8735,"gal":8736,"guit":8737,"gest":8738,"glider":8739,"gizer":8740,"hl":8741,"hera":8742,"hats":8743,"jugg":8744,"ket":8745,"kart":8746,"lin":8747,"lide":8748,"liv":8749,"mel":8750,"mil":8751,"mem":8752,"muzz":8753,"noun":8754,"oc":8755,"ond":8756,"orou":8757,"ograph":8758,"offic":8759,"olate":8760,"oked":8761,"park":8762,"pak":8763,"pical":8764,"pres":8765,"ran":8766,"rine":8767,"rise":8768,"riding":8769,"rised":8770,"sin":8771,"som":8772,"sand":8773,"sage":8774,"swing":8775,"sia":8776,"sung":8777,"size":8778,"sisters":8779,"tar":8780,"tating":8781,"tip":8782,"tattoo":8783,"uld":8784,"ucks":8785,"ulate":8786,"ulates":8787,"vo":8788,"watch":8789,"wash":8790,"wise":8791,"yal":8792,"yton":8793,"zon":8794,"zens":8795,"Ġ0":8796,"Ġking":8797,"Ġign":8798,"Ġug":8799,"Ġxy":8800,"Ġarou":8801,"Ġawn":8802,"Ġaver":8803,"Ġari":8804,"Ġauth":8805,"Ġaust":8806,"Ġawk":8807,"inar":8808,"inside":8809,"inist":8810,"inate":8811,"Ġwore":8812,"Ġwrong":8813,"Ġsop":8814,"Ġsatch":8815,"Ġsession":8816,"Ġslate":8817,"Ġscho":8818,"Ġsizes":8819,"Ġsuds":8820,"thills":8821,"thora":8822,"Ġou":8823,"Ġoak":8824,"Ġome":8825,"Ġoars":8826,"ancing":8827,"ancial":8828,"Ġbis":8829,"Ġbum":8830,"Ġbones":8831,"Ġbord":8832,"Ġbillow":8833,"Ġbitten":8834,"Ġbbq":8835,"Ġinse":8836,"Ġinline":8837,"Ġinverted":8838,"erted":8839,"erated":8840,"Ġplow":8841,"Ġply":8842,"Ġpiling":8843,"Ġpatt":8844,"Ġpug":8845,"Ġpaneled":8846,"Ġpensive":8847,"Ġcy":8848,"Ġcate":8849,"Ġcycle":8850,"Ġcuc":8851,"Ġconey":8852,"Ġmr":8853,"Ġmind":8854,"Ġmorm":8855,"Ġmine":8856,"Ġmardi":8857,"his":8858,"hiker":8859,"hief":8860,"Ġther":8861,"Ġthigh":8862,"Ġthous":8863,"leon":8864,"lects":8865,"Ġtum":8866,"Ġtrough":8867,"rode":8868,"ropped":8869,"rofo":8870,"arting":8871,"arian":8872,"Ġgon":8873,"Ġgad":8874,"Ġglow":8875,"isk":8876,"isp":8877,"iser":8878,"ishi":8879,"ision":8880,"Ġdru":8881,"Ġdorm":8882,"Ġdame":8883,"Ġdip":8884,"Ġdipping":8885,"Ġdandel":8886,"Ġonion":8887,"Ġonions":8888,"Ġfir":8889,"Ġfiling":8890,"Ġfries":8891,"Ġfier":8892,"Ġfright":8893,"Ġfuch":8894,"lam":8895,"laud":8896,"lamp":8897,"Ġhom":8898,"Ġhes":8899,"Ġhon":8900,"Ġhart":8901,"Ġheeled":8902,"Ġhopes":8903,"alized":8904,"itan":8905,"iters":8906,"itos":8907,"Ġmanip":8908,"Ġmanhole":8909,"Ġmanager":8910,"Ġoften":8911,"omb":8912,"Ġstee":8913,"lophone":8914,"lons":8915,"lded":8916,"orther":8917,"ories":8918,"orary":8919,"unt":8920,"unching":8921,"unken":8922,"ira":8923,"iration":8924,"ircle":8925,"Ġdove":8926,"Ġdojo":8927,"Ġtobo":8928,"Ġtowing":8929,"Ġtoile":8930,"Ġtoday":8931,"onist":8932,"Ġwhip":8933,"Ġwhipping":8934,"anda":8935,"ander":8936,"andex":8937,"andalized":8938,"Ġbol":8939,"Ġboss":8940,"Ġboiling":8941,"Ġbonding":8942,"Ġbought":8943,"Ġbobbing":8944,"Ġboiled":8945,"ram":8946,"cher":8947,"chos":8948,"edience":8949,"edral":8950,"rousel":8951,"opard":8952,"opted":8953,"opened":8954,"ssel":8955,"Ġyach":8956,"Ġyong":8957,"Ġyarm":8958,"Ġplaster":8959,"team":8960,"teens":8961,"Ġrese":8962,"Ġreas":8963,"Ġrepla":8964,"Ġrespe":8965,"Ġrevol":8966,"Ġlun":8967,"Ġlite":8968,"Ġlitter":8969,"Ġlucky":8970,"Ġhipp":8971,"Ġhidd":8972,"Ġhide":8973,"utan":8974,"uter":8975,"gether":8976,"ersault":8977,"icles":8978,"icircle":8979,"Ġrv":8980,"Ġrin":8981,"Ġrat":8982,"Ġrican":8983,"Ġruff":8984,"Ġannoun":8985,"Ġjea":8986,"Ġjay":8987,"stage":8988,"elt":8989,"eler":8990,"eline":8991,"Ġnow":8992,"Ġnorm":8993,"Ġnation":8994,"Ġnuzz":8995,"Ġnorther":8996,"eaker":8997,"Ġyoungsters":8998,"Ġbared":8999,"Ġbagg":9000,"Ġbagged":9001,"Ġloop":9002,"Ġloved":9003,"Ġlolly":9004,"Ġlowered":9005,"Ġloaves":9006,"Ġlodge":9007,"ghts":9008,"Ġbluff":9009,"umers":9010,"Ġhour":9011,"Ġholly":9012,"Ġhoisted":9013,"Ġhosted":9014,"Ġhouston":9015,"uristic":9016,"Ġshrine":9017,"Ġfrowning":9018,"Ġoutward":9019,"Ġcode":9020,"Ġcoins":9021,"Ġredbull":9022,"Ġwaling":9023,"Ġwalled":9024,"Ġrover":9025,"Ġroping":9026,"Ġrobed":9027,"Ġrotating":9028,"Ġroyal":9029,"ustered":9030,"themed":9031,"rib":9032,"riotic":9033,"ams":9034,"amedics":9035,"Ġeff":9036,"Ġsmell":9037,"Ġsmeared":9038,"ador":9039,"Ġlas":9040,"Ġlathe":9041,"Ġlakes":9042,"Ġlatt":9043,"Ġlamb":9044,"Ġlaborers":9045,"Ġgrade":9046,"Ġgraze":9047,"Ġgrapple":9048,"Ġbehi":9049,"ctic":9050,"Ġken":9051,"Ġkerc":9052,"Ġkhera":9053,"images":9054,"Ġdownstairs":9055,"Ġstreaked":9056,"Ġaside":9057,"Ġaspar":9058,"Ġtasks":9059,"seated":9060,"Ġpave":9061,"Ġpaired":9062,"Ġpacket":9063,"Ġpausing":9064,"Ġchem":9065,"Ġchests":9066,"Ġchats":9067,"Ġchops":9068,"together":9069,"ief":9070,"Ġstreetlight":9071,"Ġstreetlights":9072,"ulke":9073,"Ġpoll":9074,"Ġpound":9075,"Ġpoker":9076,"Ġpotted":9077,"Ġbacked":9078,"Ġbackya":9079,"Ġcarying":9080,"Ġcarrot":9081,"Ġcarav":9082,"Ġforwards":9083,"bott":9084,"tinguish":9085,"Ġdressy":9086,"ackle":9087,"Ġmae":9088,"Ġmaker":9089,"Ġhatted":9090,"Ġhatchet":9091,"Ġlearn":9092,"Ġleopard":9093,"inds":9094,"Ġthroughout":9095,"Ġtrailing":9096,"Ġtraff":9097,"Ġtrading":9098,"Ġtrade":9099,"Ġrash":9100,"Ġragged":9101,"Ġramps":9102,"uite":9103,"Ġvin":9104,"Ġvent":9105,"Ġvul":9106,"Ġvine":9107,"Ġvows":9108,"Ġvandalized":9109,"Ġgrasses":9110,"Ġcropped":9111,"Ġcrochet":9112,"Ġcrooked":9113,"Ġconif":9114,"Ġconven":9115,"Ġconfront":9116,"Ġspin":9117,"Ġspear":9118,"Ġspig":9119,"Ġsparing":9120,"Ġsprin":9121,"Ġspilled":9122,"Ġspandex":9123,"Ġridiculous":9124,"Ġsnail":9125,"Ġotherwise":9126,"Ġskill":9127,"Ġbeachfront":9128,"Ġcact":9129,"Ġcaul":9130,"Ġcages":9131,"Ġcauld":9132,"Ġcarousel":9133,"iana":9134,"hoes":9135,"hockey":9136,"Ġwaists":9137,"Ġsole":9138,"Ġsour":9139,"Ġsoil":9140,"Ġsodas":9141,"Ġfaced":9142,"Ġfauc":9143,"Ġtablet":9144,"dyed":9145,"phon":9146,"Ġscan":9147,"Ġscar":9148,"Ġdrilled":9149,"Ġdrunken":9150,"Ġclos":9151,"Ġcloak":9152,"bye":9153,"Ġgogg":9154,"Ġgovern":9155,"dotted":9156,"Ġsunlit":9157,"Ġsunglass":9158,"Ġsunhats":9159,"Ġsunrise":9160,"eracy":9161,"Ġclimbi":9162,"Ġheadphone":9163,"Ġheadlamp":9164,"Ġsandbox":9165,"Ġsandpit":9166,"psy":9167,"Ġperches":9168,"ester":9169,"asan":9170,"asant":9171,"former":9172,"Ġunit":9173,"Ġunbut":9174,"Ġuncrowded":9175,"Ġshocked":9176,"Ġsitar":9177,"Ġsites":9178,"Ġaloud":9179,"structed":9180,"ques":9181,"quets":9182,"Ġguided":9183,"Ġbuses":9184,"Ġbusch":9185,"shirted":9186,"ffod":9187,"Ġhelium":9188,"Ġbrindle":9189,"Ġfloored":9190,"Ġwalker":9191,"Ġwalkers":9192,"olic":9193,"Ġunderpass":9194,"Ġparag":9195,"Ġparamedics":9196,"antically":9197,"Ġprey":9198,"haust":9199,"hawaiian":9200,"Ġadopted":9201,"wardess":9202,"ggan":9203,"ggers":9204,"Ġstripy":9205,"Ġdarkness":9206,"Ġmountaineer":9207,"Ġheal":9208,"Ġhebre":9209,"Ġenfor":9210,"Ġencir":9211,"Ġbaring":9212,"Ġbarbed":9213,"she":9214,"shes":9215,"shell":9216,"Ġrestaura":9217,"Ġsequ":9218,"Ġwinds":9219,"Ġwindy":9220,"Ġwindsurfer":9221,"Ġhandsome":9222,"Ġarmed":9223,"Ġleave":9224,"Ġlively":9225,"Ġlizards":9226,"Ġunifor":9227,"Ġsac":9228,"Ġsauc":9229,"Ġsails":9230,"Ġhors":9231,"Ġchevy":9232,"Ġchevrolet":9233,"Ġbaltim":9234,"pering":9235,"Ġprow":9236,"Ġpromo":9237,"Ġproced":9238,"Ġproba":9239,"Ġprojects":9240,"Ġsweatsuit":9241,"Ġcomplect":9242,"Ġcompute":9243,"Ġcompass":9244,"Ġcomprised":9245,"Ġwindowless":9246,"Ġslush":9247,"Ġslips":9248,"necked":9249,"eller":9250,"Ġtether":9251,"Ġdanci":9252,"rica":9253,"ricans":9254,"Ġflipped":9255,"Ġsticker":9256,"Ġextinguish":9257,"Ġexhaust":9258,"Ġsignal":9259,"Ġafar":9260,"Ġafrica":9261,"cksack":9262,"agus":9263,"Ġobje":9264,"Ġobliv":9265,"Ġobedience":9266,"Ġcould":9267,"Ġcapri":9268,"Ġfring":9269,"Ġfrilly":9270,"Ġfrantically":9271,"Ġmarl":9272,"Ġmarches":9273,"Ġmarina":9274,"Ġmariachi":9275,"Ġcanned":9276,"Ġphotogra":9277,"Ġsetup":9278,"Ġsetter":9279,"Ġsetti":9280,"Ġapplaud":9281,"Ġdays":9282,"Ġdaylight":9283,"Ġtrips":9284,"Ġtribe":9285,"ivil":9286,"Ġpiping":9287,"strated":9288,"Ġtrek":9289,"Ġnodd":9290,"pless":9291,"Ġrights":9292,"Ġdrift":9293,"Ġdrifting":9294,"ortment":9295,"Ġclears":9296,"Ġforearm":9297,"Ġforegrou":9298,"Ġcrossbones":9299,"Ġthrone":9300,"Ġhilly":9301,"Ġcooling":9302,"Ġhighly":9303,"Ġhighlight":9304,"Ġvested":9305,"Ġpartly":9306,"Ġpartition":9307,"Ġsteins":9308,"Ġstewardess":9309,"cob":9310,"Ġfeeling":9311,"eye":9312,"Ġshawls":9313,"Ġcowor":9314,"Ġlightly":9315,"Ġkicker":9316,"Ġcloths":9317,"Ġflats":9318,"Ġdispen":9319,"Ġdisney":9320,"Ġdesolate":9321,"Ġdeserted":9322,"Ġmetrop":9323,"Ġpastry":9324,"Ġbookcase":9325,"jected":9326,"rona":9327,"Ġbackpacking":9328,"Ġhugged":9329,"Ġevents":9330,"playing":9331,"players":9332,"Ġcellular":9333,"Ġboardwa":9334,"Ġindic":9335,"Ġmeand":9336,"Ġmeals":9337,"Ġpolar":9338,"Ġpolish":9339,"Ġpolished":9340,"Ġbreed":9341,"Ġcorsage":9342,"Ġcrepe":9343,"Ġcreme":9344,"Ġcrescent":9345,"Ġjoke":9346,"Ġjoins":9347,"Ġjoined":9348,"Ġjobs":9349,"def":9350,"Ġali":9351,"Ġallow":9352,"Ġallowing":9353,"Ġwheeling":9354,"Ġwheelers":9355,"concer":9356,"izen":9357,"kerchi":9358,"Ġplushi":9359,"Ġprayer":9360,"Ġcounty":9361,"Ġknicks":9362,"Ġknaps":9363,"Ġsqua":9364,"Ġsquid":9365,"Ġattends":9366,"Ġcrackers":9367,"Ġdram":9368,"Ġdrags":9369,"Ġdrapped":9370,"Ġdragged":9371,"Ġdrayton":9372,"Ġfolder":9373,"Ġsmock":9374,"Ġsmocks":9375,"Ġsmoked":9376,"nails":9377,"Ġshores":9378,"itioning":9379,"Ġshortly":9380,"Ġedges":9381,"Ġwrang":9382,"Ġcontact":9383,"few":9384,"Ġequipme":9385,"Ġphotography":9386,"Ġstructu":9387,"Ġwets":9388,"Ġcurlers":9389,"Ġanimated":9390,"Ġroofing":9391,"Ġroofer":9392,"Ġskydi":9393,"Ġstraining":9394,"Ġstrapless":9395,"Ġchecker":9396,"Ġweld":9397,"Ġwelders":9398,"Ġwendy":9399,"Ġsilky":9400,"brides":9401,"Ġstatute":9402,"Ġcupboard":9403,"Ġweddi":9404,"Ġpatrolling":9405,"Ġpatriotic":9406,"topless":9407,"Ġstoplight":9408,"Ġmartini":9409,"Ġwinning":9410,"Ġseas":9411,"Ġseaside":9412,"Ġseashell":9413,"Ġcompetitor":9414,"Ġcompetitors":9415,"outside":9416,"Ġauditioning":9417,"Ġmonster":9418,"Ġbanks":9419,"Ġbangs":9420,"Ġbanquet":9421,"Ġbanister":9422,"Ġstationary":9423,"Ġhappen":9424,"Ġhappened":9425,"Ġnewsst":9426,"Ġcollage":9427,"Ġcolander":9428,"zzle":9429,"Ġintimate":9430,"Ġdigger":9431,"Ġearn":9432,"Ġrelat":9433,"Ġchipping":9434,"Ġchilly":9435,"Ġfixed":9436,"cured":9437,"asians":9438,"Ġimpress":9439,"Ġburn":9440,"Ġbury":9441,"Ġburro":9442,"Ġburns":9443,"Ġlanded":9444,"Ġlandmark":9445,"Ġquilt":9446,"Ġquilted":9447,"Ġtye":9448,"Ġtypical":9449,"Ġneckties":9450,"Ġtentatively":9451,"Ġcastles":9452,"Ġtalki":9453,"Ġvaried":9454,"Ġ22":9455,"Ġ28":9456,"Ġgraffi":9457,"Ġshipping":9458,"Ġspotters":9459,"ugged":9460,"Ġstreaming":9461,"Ġvia":9462,"Ġbatons":9463,"Ġconversations":9464,"osure":9465,"ughter":9466,"Ġbathed":9467,"Ġgardens":9468,"Ġgrows":9469,"odian":9470,"Ġdirected":9471,"Ġvideographer":9472,"Ġdecoration":9473,"Ġtubing":9474,"Ġtubes":9475,"Ġtubas":9476,"Ġwraps":9477,"Ġindians":9478,"Ġstuffing":9479,"Ġlegal":9480,"Ġgolfing":9481,"Ġcrisp":9482,"Ġtouched":9483,"Ġengland":9484,"Ġways":9485,"Ġtuning":9486,"Ġtunes":9487,"Ġdaffod":9488,"Ġcontained":9489,"Ġpep":9490,"Ġpews":9491,"Ġpepsi":9492,"Ġpebbled":9493,"Ġfurther":9494,"Ġliteracy":9495,"Ġposted":9496,"Ġspectator":9497,"Ġspectacles":9498,"guards":9499,"Ġwaterside":9500,"Ġcoverings":9501,"Ġchoke":9502,"Ġtugs":9503,"Ġtucked":9504,"Ġnotre":9505,"Ġnotic":9506,"ford":9507,"Ġpanels":9508,"maids":9509,"Ġviolinists":9510,"panese":9511,"Ġobserved":9512,"Ġgoodbye":9513,"Ġhorseshoe":9514,"Ġhorseshoes":9515,"Ġflowering":9516,"Ġtransparent":9517,"Ġsprite":9518,"Ġstrand":9519,"Ġstrides":9520,"Ġpeaking":9521,"Ġpeaks":9522,"Ġfairground":9523,"Ġzara":9524,"clown":9525,"Ġponders":9526,"Ġprotecting":9527,"Ġshadowy":9528,"Ġshadowed":9529,"Ġeasy":9530,"Ġeagerly":9531,"Ġwrestles":9532,"Ġwrestler":9533,"Ġprints":9534,"Ġswordfish":9535,"Ġspecim":9536,"sports":9537,"speaker":9538,"Ġstarted":9539,"Ġstarbu":9540,"workman":9541,"Ġassortment":9542,"Ġpedic":9543,"Ġbalconies":9544,"Ġparticipant":9545,"Ġparticipates":9546,"Ġjaw":9547,"Ġadvertises":9548,"going":9549,"Ġpackages":9550,"Ġraci":9551,"Ġrubbing":9552,"Ġsurfboards":9553,"Ġsprayer":9554,"Ġmessily":9555,"stream":9556,"standing":9557,"Ġapproached":9558,"Ġappropri":9559,"Ġpumps":9560,"Ġaccordions":9561,"Ġpianist":9562,"Ġdisheve":9563,"Ġclowns":9564,"comes":9565,"Ġescor":9566,"Ġporta":9567,"Ġportion":9568,"Ġfingernails":9569,"Ġwheelchairs":9570,"Ġsquarepants":9571,"blader":9572,"Ġrounds":9573,"Ġrounding":9574,"Ġdonations":9575,"Ġdonkeys":9576,"Ġchai":9577,"Ġtricyc":9578,"Ġdumping":9579,"Ġfanny":9580,"Ġorig":9581,"Ġtwisting":9582,"Ġcoaching":9583,"Ġcoaches":9584,"Ġtraveler":9585,"Ġcaboose":9586,"Ġjewels":9587,"Ġheard":9588,"Ġrollerblade":9589,"Ġdunk":9590,"Ġstai":9591,"Ġrafters":9592,"Ġappearing":9593,"Ġdior":9594,"Ġentertainer":9595,"Ġroughly":9596,"Ġemerge":9597,"Ġgrandchild":9598,"Ġgrandfather":9599,"Ġpeacefully":9600,"chested":9601,"Ġroute":9602,"Ġrouti":9603,"Ġmissed":9604,"Ġmissi":9605,"Ġmiscell":9606,"Ġlayer":9607,"Ġlayers":9608,"Ġremoved":9609,"Ġlooms":9610,"Ġlooming":9611,"Ġrollerskaters":9612,"Ġinterrup":9613,"Ġsparsely":9614,"Ġplanks":9615,"Ġpatients":9616,"Ġelevation":9617,"Ġbleache":9618,"Ġpeeps":9619,"lescents":9620,"Ġheadbands":9621,"Ġsocialize":9622,"Ġreflections":9623,"Ġdelivers":9624,"Ġloads":9625,"Ġnotepad":9626,"Ġfetches":9627,"Ġflyer":9628,"Ġhindu":9629,"Ġliquor":9630,"Ġrucksack":9631,"Ġbackdropped":9632,"Ġorganized":9633,"Ġscooping":9634,"Ġscrub":9635,"Ġscrubbing":9636,"Ġwakeboards":9637,"Ġpositioned":9638,"Ġwildflowers":9639,"Ġatvs":9640,"Ġroots":9641,"Ġsnapped":9642,"after":9643,"africans":9644,"Ġsuperman":9645,"Ġfrustrated":9646,"Ġhummer":9647,"Ġhumorou":9648,"Ġlinked":9649,"Ġjetty":9650,"Ġattracts":9651,"Ġterrace":9652,"Ġassembles":9653,"Ġcrowns":9654,"Ġelectronics":9655,"Ġpowerful":9656,"Ġavi":9657,"Ġpopulated":9658,"Ġmeasured":9659,"Ġtoothpick":9660,"Ġroutines":9661,"Ġwander":9662,"Ġwanders":9663,"Ġsunday":9664,"Ġthinking":9665,"Ġsandwiches":9666,"Ġslippers":9667,"Ġvacuums":9668,"cific":9669,"Ġgender":9670,"Ġbreakdances":9671,"Ġsupervision":9672,"Ġprize":9673,"Ġcrust":9674,"Ġangles":9675,"Ġleapfro":9676,"Ġsliced":9677,"Ġcalmly":9678,"potty":9679,"Ġicicle":9680,"Ġwarning":9681,"Ġwarrior":9682,"Ġbronze":9683,"Ġnewlyweds":9684,"Ġbarbecued":9685,"Ġdeliver":9686,"batic":9687,"hammer":9688,"Ġidentically":9689,"Ġseminar":9690,"Ġsemicircle":9691,"Ġcooler":9692,"Ġcoasting":9693,"Ġmailman":9694,"Ġclutches":9695,"Ġunfo":9696,"Ġattendees":9697,"Ġcrashes":9698,"Ġexploring":9699,"Ġcongregate":9700,"Ġdetails":9701,"Ġdetailed":9702,"Ġfeathers":9703,"Ġfountai":9704,"Ġadorable":9705,"Ġbicycler":9706,"Ġfoamy":9707,"ilors":9708,"wearing":9709,"Ġpirates":9710,"Ġlearns":9711,"Ġleotards":9712,"Ġconfronts":9713,"Ġbutchering":9714,"Ġsideline":9715,"Ġinstructing":9716,"Ġgrim":9717,"Ġfedex":9718,"Ġstrokes":9719,"trash":9720,"Ġblade":9721,"Ġblazer":9722,"Ġmittens":9723,"Ġlaunches":9724,"Ġorangutan":9725,"Ġsparkler":9726,"Ġdeciding":9727,"Ġdecided":9728,"Ġmattresses":9729,"photo":9730,"Ġ90":9731,"Ġoverseeing":9732,"Ġstyrofo":9733,"Ġascend":9734,"Ġcharging":9735,"Ġsprings":9736,"Ġsnowmob":9737,"Ġsolid":9738,"Ġtexts":9739,"Ġtreads":9740,"Ġassisted":9741,"Ġcube":9742,"Ġmiller":9743,"Ġsteady":9744,"Ġsteaming":9745,"Ġranger":9746,"Ġroasted":9747,"Ġtasty":9748,"Ġsweets":9749,"Ġcontemporary":9750,"Ġexplains":9751,"Ġartifacts":9752,"motorcycles":9753,"motorcyclist":9754,"Ġsomersault":9755,"Ġmaneuvers":9756,"Ġlowering":9757,"Ġbeaten":9758,"Ġwristwatch":9759,"climber":9760,"Ġreturning":9761,"Ġregional":9762,"Ġvertically":9763,"Ġsaris":9764,"Ġsamsung":9765,"Ġprun":9766,"Ġcitizen":9767,"Ġmountai":9768,"Ġfitness":9769,"Ġrifles":9770,"Ġromantic":9771,"Ġlatex":9772,"Ġbroadway":9773,"Ġbustling":9774,"Ġdefensive":9775,"rollerblader":9776,"Ġclasping":9777,"Ġfatigue":9778,"Ġunwrapping":9779,"painters":9780,"Ġpommel":9781,"Ġpudd":9782,"Ġpeeler":9783,"Ġsunshade":9784,"Ġpropane":9785,"Ġcannot":9786,"Ġrefreshing":9787,"Ġrefreshments":9788,"Ġbuttons":9789,"Ġgrowls":9790,"Ġquestioning":9791,"fishermen":9792,"lifier":9793,"Ġamplifier":9794,"Ġtinted":9795,"Ġfinancial":9796,"Ġferns":9797,"Ġrigging":9798,"Ġworshipers":9799,"Ġvictim":9800,"Ġspiking":9801,"Ġspiked":9802,"Ġspiky":9803,"Ġwaffles":9804,"Ġsunbathe":9805,"Ġsurveys":9806,"Ġcaptures":9807,"Ġflashing":9808,"Ġimprove":9809,"Ġimprovement":9810,"Ġimprovis":9811,"Ġcommunicating":9812,"swimmers":9813,"surfers":9814,"Ġmarshmallows":9815,"japanese":9816,"Ġoxen":9817,"Ġdugout":9818,"Ġdiverse":9819,"Ġwielding":9820,"Ġanchor":9821,"Ġanchors":9822,"Ġcoconut":9823,"Ġgraveyard":9824,"tourist":9825,"Ġattaching":9826,"Ġbreaks":9827,"Ġsquints":9828,"Ġlandscaped":9829,"Ġweapon":9830,"Ġcrutch":9831,"Ġpencils":9832,"Ġinterviews":9833,"Ġinterviewed":9834,"grandfather":9835,"marching":9836,"martial":9837,"Ġideas":9838,"Ġaffection":9839,"Ġcustodian":9840,"Ġtrousers":9841,"Ġtemple":9842,"Ġtempor":9843,"Ġsteadies":9844,"Ġreacting":9845,"Ġshuttered":9846,"Ġlasso":9847,"Ġlassos":9848,"Ġcaricatures":9849,"Ġlemonade":9850,"Ġtraverse":9851,"Ġsnowsuits":9852,"Ġsituated":9853,"Ġaccessories":9854,"Ġexecutes":9855,"Ġdefending":9856,"Ġamazed":9857,"Ġpreservers":9858,"Ġpossessions":9859,"Ġtwenty":9860,"Ġentryway":9861,"Ġparasailer":9862,"Ġexcavating":9863,"Ġgrownups":9864,"Ġenthusiastically":9865,"Ġcannonball":9866,"Ġlouisiana":9867,"pigeons":9868,"twin":9869,"Ġoreos":9870,"Ġplethora":9871,"Ġpisa":9872,"Ġpisto":9873,"Ġponcho":9874,"Ġponchos":9875,"Ġtells":9876,"Ġfiddling":9877,"Ġdodging":9878,"Ġrescu":9879,"Ġrescue":9880,"Ġnipple":9881,"Ġswallowing":9882,"Ġcathedral":9883,"Ġcatholic":9884,"Ġproperty":9885,"Ġkickboxing":9886,"Ġdescribe":9887,"Ġjogger":9888,"Ġnavigate":9889,"Ġterrible":9890,"Ġpineapple":9891,"Ġpineapples":9892,"Ġseparated":9893,"Ġsecurely":9894,"Ġrenovating":9895,"Ġpamphlet":9896,"Ġpamphlets":9897,"Ġdachshund":9898,"Ġdachshunds":9899,"brightly":9900,"Ġairline":9901,"Ġsamples":9902,"Ġpooh":9903,"Ġtearing":9904,"Ġgypsy":9905,"Ġdestination":9906,"Ġfuturistic":9907,"Ġfoothills":9908,"Ġflings":9909,"Ġhenna":9910,"Ġhuddles":9911,"Ġplacid":9912,"Ġrappelling":9913,"Ġveterans":9914,"Ġsplits":9915,"Ġsoldering":9916,"Ġenergizer":9917,"Ġcanadian":9918,"Ġvolunteer":9919,"Ġstrangers":9920,"Ġprofessionals":9921,"Ġmasonry":9922,"Ġornament":9923,"Ġcruising":9924,"Ġoccurring":9925,"ological":9926,"Ġprogrammes":9927,"Ġconcentrating":9928,"Ġdalmatians":9929,"Ġaccepts":9930,"heavy":9931,"kayaker":9932,"vaulting":9933,"interracial":9934,"Ġsowing":9935,"Ġollie":9936,"Ġbongo":9937,"Ġpensively":9938,"Ġthrill":9939,"Ġtumbling":9940,"Ġdingy":9941,"Ġdoritos":9942,"Ġfrizzy":9943,"Ġreenact":9944,"Ġlobster":9945,"Ġloudspeaker":9946,"Ġshanty":9947,"Ġevergreen":9948,"Ġkettle":9949,"Ġpastel":9950,"Ġchandeliers":9951,"Ġswaddled":9952,"Ġsnowfalls":9953,"Ġwagons":9954,"Ġscript":9955,"Ġcolourful":9956,"Ġtangled":9957,"Ġheineken":9958,"Ġvegas":9959,"Ġtrinkets":9960,"Ġimmigration":9961,"Ġtussle":9962,"Ġtransporting":9963,"Ġsledgehammer":9964,"Ġeyelashes":9965,"compet":9966,"Ġprofessor":9967,"Ġdiamond":9968,"Ġdiagram":9969,"Ġinvestigating":9970,"Ġwheelbarrows":9971,"Ġfixtures":9972,"Ġclarinets":9973,"Ġanticipation":9974,"Ġrottweiler":9975,"employees":9976,"peaceful":9977,"Ġprescriptions":9978,"acrobatic":9979,"basket":9980,"cameram":9981,"extre":9982,"guitar":9983,"military":9984,"members":9985,"muzzled":9986,"tattooed":9987,"Ġxylophone":9988,"Ġawnings":9989,"Ġaverage":9990,"Ġauthor":9991,"Ġaustral":9992,"Ġawkward":9993,"Ġsatchel":9994,"Ġomelet":9995,"Ġborders":9996,"Ġplywood":9997,"Ġpatties":9998,"Ġtumbles":9999,"rodeo":10000,"Ġgadget":10001,"Ġfierce":10002,"Ġfrightened":10003,"Ġfuchsia":10004,"Ġhartman":10005,"Ġtoboggan":10006,"Ġtoilets":10007,"Ġyarmulke":10008,"Ġresembling":10009,"Ġhidden":10010,"Ġnuzzling":10011,"Ġnorthern":10012,"Ġbaggage":10013,"Ġhollywood":10014,"Ġlakeside":10015,"Ġlattice":10016,"Ġkerchief":10017,"Ġasparagus":10018,"Ġpounding":10019,"Ġcaravan":10020,"Ġcrocheted":10021,"Ġconvenience":10022,"Ġspigot":10023,"Ġcauldron":10024,"Ġgovernment":10025,"Ġunbuttoned":10026,"Ġhebrew":10027,"Ġenforcement":10028,"Ġsaucers":10029,"Ġbaltimore":10030,"Ġpromoting":10031,"Ġprobably":10032,"Ġcomplected":10033,"Ġoblivious":10034,"Ġhighlighted":10035,"Ġmetropol":10036,"kerchief":10037,"Ġplushie":10038,"Ġknapsack":10039,"Ġskydiver":10040,"bridesmaids":10041,"Ġnewsstand":10042,"Ġdaffodils":10043,"Ġstarbucks":10044,"Ġdisheveled":10045,"Ġmiscellaneous":10046,"Ġhumorous":10047,"Ġleapfrog":10048,"Ġstyrofoam":10049,"basketball":10050,"10":10051,"95":10052,"aa":10053,"ae":10054,"ao":10055,"around":10056,"aks":10057,"ake":10058,"app":10059,"agg":10060,"akers":10061,"apes":10062,"ably":10063,"bri":10064,"bone":10065,"bans":10066,"bating":10067,"bub":10068,"bud":10069,"beam":10070,"bush":10071,"brimmed":10072,"buds":10073,"cla":10074,"cil":10075,"cce":10076,"cling":10077,"cage":10078,"ccess":10079,"cards":10080,"ccol":10081,"corted":10082,"cuffed":10083,"civil":10084,"dom":10085,"dam":10086,"dem":10087,"dant":10088,"dging":10089,"dance":10090,"dhist":10091,"duty":10092,"elder":10093,"even":10094,"ebra":10095,"fi":10096,"fs":10097,"far":10098,"fun":10099,"ftwo":10100,"free":10101,"fig":10102,"fter":10103,"fol":10104,"fant":10105,"fiving":10106,"fou":10107,"fighting":10108,"fied":10109,"flight":10110,"flection":10111,"finder":10112,"flowing":10113,"gl":10114,"gun":10115,"gard":10116,"gent":10117,"gles":10118,"groom":10119,"god":10120,"hd":10121,"hu":10122,"hy":10123,"hing":10124,"han":10125,"het":10126,"home":10127,"how":10128,"has":10129,"iar":10130,"ild":10131,"iut":10132,"iver":10133,"iety":10134,"iors":10135,"janitor":10136,"kist":10137,"kies":10138,"karate":10139,"lr":10140,"lom":10141,"link":10142,"lines":10143,"life":10144,"my":10145,"mal":10146,"mom":10147,"more":10148,"mboy":10149,"mca":10150,"mbs":10151,"mimes":10152,"nat":10153,"near":10154,"nies":10155,"nial":10156,"naked":10157,"niture":10158,"number":10159,"oling":10160,"odd":10161,"ough":10162,"ocra":10163,"oeu":10164,"oshes":10165,"pat":10166,"pink":10167,"pine":10168,"pour":10169,"pite":10170,"prin":10171,"qa":10172,"rank":10173,"sun":10174,"speople":10175,"sive":10176,"sled":10177,"slight":10178,"sque":10179,"slr":10180,"tu":10181,"tall":10182,"til":10183,"tree":10184,"tying":10185,"tif":10186,"tig":10187,"tile":10188,"ua":10189,"uk":10190,"uss":10191,"uct":10192,"uve":10193,"uating":10194,"uches":10195,"vial":10196,"vance":10197,"viz":10198,"via":10199,"vise":10200,"vres":10201,"wis":10202,"wking":10203,"wind":10204,"wled":10205,"xiously":10206,"zine":10207,"zance":10208,"âĢ":10209,"Ġ$":10210,"Ġx":10211,"Ġnd":10212,"Ġlack":10213,"Ġil":10214,"Ġelf":10215,"Ġ00":10216,"Ġau":10217,"Ġate":10218,"Ġaus":10219,"Ġable":10220,"Ġape":10221,"Ġaven":10222,"Ġawards":10223,"Ġaston":10224,"Ġactors":10225,"Ġastride":10226,"interest":10227,"infant":10228,"Ġwre":10229,"Ġwis":10230,"Ġwad":10231,"Ġwent":10232,"Ġwem":10233,"Ġswo":10234,"Ġsant":10235,"Ġsons":10236,"Ġsbar":10237,"thal":10238,"that":10239,"thes":10240,"thon":10241,"through":10242,"throw":10243,"Ġod":10244,"Ġoh":10245,"Ġov":10246,"Ġohi":10247,"aner":10248,"anqu":10249,"ancis":10250,"anhas":10251,"anmore":10252,"Ġbone":10253,"Ġbarge":10254,"Ġblee":10255,"Ġbless":10256,"Ġberry":10257,"Ġbinky":10258,"rear":10259,"rell":10260,"resc":10261,"rectly":10262,"reflection":10263,"Ġinward":10264,"Ġinsp":10265,"Ġincomple":10266,"erie":10267,"erves":10268,"ermany":10269,"erries":10270,"erature":10271,"Ġpc":10272,"Ġphi":10273,"Ġpers":10274,"Ġpip":10275,"Ġpric":10276,"Ġpats":10277,"Ġpane":10278,"Ġplowing":10279,"Ġplent":10280,"Ġpanda":10281,"Ġcd":10282,"Ġcin":10283,"Ġcly":10284,"Ġcult":10285,"Ġcycles":10286,"Ġcater":10287,"Ġcalls":10288,"Ġcops":10289,"Ġcds":10290,"Ġcuffs":10291,"Ġmp":10292,"Ġmut":10293,"Ġmoo":10294,"Ġmort":10295,"Ġmia":10296,"Ġmills":10297,"Ġmimes":10298,"Ġmama":10299,"Ġmoose":10300,"hire":10301,"hies":10302,"hiking":10303,"histic":10304,"Ġthra":10305,"Ġthink":10306,"Ġthru":10307,"Ġthong":10308,"Ġthou":10309,"lel":10310,"leag":10311,"leap":10312,"Ġtir":10313,"Ġtand":10314,"Ġtil":10315,"Ġtim":10316,"Ġtink":10317,"Ġtiling":10318,"Ġtud":10319,"Ġtears":10320,"Ġtors":10321,"roen":10322,"rock":10323,"roof":10324,"roading":10325,"Ġthen":10326,"Ġtheat":10327,"ari":10328,"arat":10329,"arch":10330,"arse":10331,"araner":10332,"nda":10333,"ndar":10334,"nded":10335,"ndant":10336,"ndering":10337,"Ġgor":10338,"Ġgian":10339,"Ġgirt":10340,"Ġglee":10341,"Ġgey":10342,"Ġgrie":10343,"Ġgreek":10344,"Ġgushing":10345,"Ġghet":10346,"Ġgermany":10347,"isy":10348,"Ġdw":10349,"Ġdear":10350,"Ġdul":10351,"Ġdying":10352,"Ġdart":10353,"Ġdash":10354,"Ġdung":10355,"Ġdata":10356,"Ġduty":10357,"Ġdrug":10358,"Ġdhl":10359,"Ġdslr":10360,"Ġonce":10361,"Ġongoing":10362,"Ġft":10363,"Ġfu":10364,"Ġfum":10365,"Ġfitting":10366,"Ġfif":10367,"Ġfund":10368,"Ġfool":10369,"Ġfry":10370,"Ġfins":10371,"Ġfanta":10372,"Ġfelled":10373,"las":10374,"laro":10375,"lama":10376,"layed":10377,"Ġhoping":10378,"Ġhundreds":10379,"alists":10380,"alia":10381,"aluating":10382,"allel":10383,"ene":10384,"ener":10385,"enous":10386,"engers":10387,"Ġisra":10388,"Ġislam":10389,"ita":10390,"itz":10391,"itate":10392,"itute":10393,"itively":10394,"itjack":10395,"atening":10396,"atically":10397,"atulate":10398,"Ġmani":10399,"Ġmanor":10400,"Ġmanure":10401,"Ġmando":10402,"Ġmanually":10403,"Ġmansion":10404,"omin":10405,"omed":10406,"Ġstu":10407,"Ġstic":10408,"Ġstony":10409,"Ġstages":10410,"Ġstaking":10411,"Ġstaging":10412,"Ġstubby":10413,"Ġstances":10414,"Ġstanmore":10415,"Ġwigs":10416,"Ġwicket":10417,"Ġwiring":10418,"Ġwipes":10419,"Ġwithe":10420,"lone":10421,"orting":10422,"orter":10423,"une":10424,"unet":10425,"irator":10426,"Ġdoo":10427,"Ġdose":10428,"Ġdocks":10429,"Ġdowel":10430,"Ġdons":10431,"Ġtoed":10432,"Ġtoil":10433,"Ġtoting":10434,"Ġtone":10435,"Ġtoba":10436,"Ġtoddle":10437,"oners":10438,"Ġwhips":10439,"Ġwhisk":10440,"Ġwhims":10441,"iders":10442,"idering":10443,"etic":10444,"eteer":10445,"Ġbot":10446,"Ġbobs":10447,"Ġbobbed":10448,"Ġbocce":10449,"rait":10450,"rase":10451,"racing":10452,"racted":10453,"rafting":10454,"raised":10455,"chur":10456,"christ":10457,"cheting":10458,"edic":10459,"edded":10460,"wow":10461,"Ġareas":10462,"oper":10463,"open":10464,"ssing":10465,"ssed":10466,"ssell":10467,"ssils":10468,"Ġyoun":10469,"Ġyout":10470,"Ġymca":10471,"Ġplains":10472,"rteen":10473,"tere":10474,"Ġatri":10475,"Ġreel":10476,"Ġrent":10477,"Ġreind":10478,"Ġreform":10479,"Ġrequ":10480,"Ġreins":10481,"Ġreced":10482,"Ġrema":10483,"Ġrecent":10484,"Ġreef":10485,"Ġresem":10486,"Ġlitt":10487,"Ġlur":10488,"Ġlig":10489,"Ġlisting":10490,"Ġlimes":10491,"Ġlilly":10492,"Ġllama":10493,"Ġdoghouse":10494,"Ġdoggy":10495,"itti":10496,"ittery":10497,"Ġplayhou":10498,"Ġhissing":10499,"utcra":10500,"geant":10501,"icals":10502,"icemen":10503,"icular":10504,"Ġrick":10505,"Ġrite":10506,"Ġrattle":10507,"Ġrugged":10508,"Ġanxiously":10509,"Ġjr":10510,"Ġjal":10511,"Ġjam":10512,"Ġjim":10513,"Ġjig":10514,"Ġjerry":10515,"Ġjesters":10516,"Ġjester":10517,"stack":10518,"stoned":10519,"stacks":10520,"elp":10521,"ella":10522,"elun":10523,"elves":10524,"irly":10525,"Ġnurs":10526,"Ġnumer":10527,"Ġnutcra":10528,"idered":10529,"east":10530,"ealed":10531,"easter":10532,"Ġbagging":10533,"Ġbased":10534,"Ġbaza":10535,"Ġbasin":10536,"ooled":10537,"Ġblacks":10538,"Ġblackboard":10539,"Ġblacktop":10540,"Ġblackjack":10541,"Ġlos":10542,"Ġlose":10543,"Ġlocking":10544,"ume":10545,"Ġhoes":10546,"Ġholy":10547,"Ġholing":10548,"Ġhoist":10549,"Ġhosing":10550,"Ġhoists":10551,"Ġhods":10552,"Ġhours":10553,"Ġhoisting":10554,"Ġhobby":10555,"ury":10556,"Ġshri":10557,"Ġshine":10558,"Ġshuff":10559,"Ġfrown":10560,"Ġfrowns":10561,"Ġfrothy":10562,"Ġfrosting":10563,"Ġblueish":10564,"Ġoutrun":10565,"Ġoutlines":10566,"Ġcoin":10567,"Ġcoal":10568,"Ġcots":10569,"Ġcoord":10570,"Ġcozy":10571,"Ġcorona":10572,"Ġcoarse":10573,"Ġcooper":10574,"Ġchildhood":10575,"Ġredish":10576,"Ġwalma":10577,"Ġwallets":10578,"Ġrob":10579,"Ġrom":10580,"Ġrole":10581,"Ġroped":10582,"ille":10583,"rounded":10584,"theater":10585,"riff":10586,"Ġere":10587,"Ġecle":10588,"Ġegy":10589,"Ġejected":10590,"Ġsmelling":10591,"Ġsmores":10592,"ado":10593,"ads":10594,"ntable":10595,"Ġlaw":10596,"Ġlater":10597,"Ġladle":10598,"Ġlatte":10599,"Ġlacy":10600,"Ġlago":10601,"Ġlaura":10602,"Ġlaunching":10603,"Ġlambs":10604,"Ġgrain":10605,"Ġgrains":10606,"Ġgraham":10607,"Ġbegs":10608,"Ġbeats":10609,"Ġbemus":10610,"Ġbecome":10611,"Ġbecomes":10612,"cturing":10613,"ctac":10614,"Ġkr":10615,"Ġkit":10616,"Ġkil":10617,"Ġkart":10618,"Ġkung":10619,"Ġkurt":10620,"Ġkah":10621,"Ġkelp":10622,"imal":10623,"imeter":10624,"imaraner":10625,"Ġdowned":10626,"Ġdownwards":10627,"Ġdownstream":10628,"Ġherbs":10629,"Ġherds":10630,"vend":10631,"velator":10632,"Ġhazy":10633,"Ġasho":10634,"umph":10635,"Ġtap":10636,"Ġtabby":10637,"Ġtavern":10638,"Ġtassel":10639,"seiling":10640,"selor":10641,"Ġpai":10642,"Ġparen":10643,"Ġpacks":10644,"Ġpaused":10645,"Ġpaste":10646,"Ġpagod":10647,"Ġpakist":10648,"Ġchoo":10649,"Ġchore":10650,"Ġchute":10651,"Ġchels":10652,"Ġchunk":10653,"Ġchris":10654,"Ġchanting":10655,"Ġchores":10656,"Ġchucks":10657,"Ġcherries":10658,"toy":10659,"toise":10660,"ieving":10661,"sidewalk":10662,"enta":10663,"ulter":10664,"Ġswat":10665,"Ġswamp":10666,"Ġswap":10667,"Ġswerves":10668,"Ġbrook":10669,"Ġbroccol":10670,"Ġpoling":10671,"Ġpouch":10672,"Ġpotters":10673,"Ġpolaro":10674,"ressed":10675,"Ġups":10676,"Ġupcoming":10677,"Ġupstairs":10678,"Ġupraised":10679,"Ġgren":10680,"Ġbacking":10681,"Ġbackside":10682,"Ġcarab":10683,"Ġforked":10684,"bound":10685,"Ġgreens":10686,"Ġgreenhouse":10687,"Ġnec":10688,"Ġneeding":10689,"Ġbugg":10690,"Ġbuzz":10691,"Ġbuzy":10692,"Ġmaps":10693,"Ġmakers":10694,"Ġmacy":10695,"Ġmauve":10696,"redhead":10697,"Ġorbs":10698,"Ġlewis":10699,"Ġlecturing":10700,"rought":10701,"roughly":10702,"indy":10703,"indfold":10704,"bley":10705,"blems":10706,"Ġyell":10707,"Ġmoth":10708,"Ġmott":10709,"Ġmovement":10710,"Ġmosque":10711,"Ġmotif":10712,"ays":10713,"Ġyellowed":10714,"Ġtravelator":10715,"Ġrakes":10716,"Ġrafter":10717,"Ġvat":10718,"Ġves":10719,"Ġvel":10720,"Ġvans":10721,"Ġvess":10722,"Ġviz":10723,"Ġvista":10724,"Ġoverflowing":10725,"Ġgrassland":10726,"Ġcrocks":10727,"Ġcrook":10728,"Ġcrocheting":10729,"aint":10730,"Ġcono":10731,"Ġconver":10732,"Ġconce":10733,"Ġcontor":10734,"Ġconical":10735,"Ġcongr":10736,"Ġspun":10737,"Ġspill":10738,"Ġspong":10739,"Ġsparrow":10740,"Ġsphere":10741,"Ġspurs":10742,"Ġspices":10743,"ific":10744,"iguring":10745,"igzag":10746,"igenous":10747,"Ġhandra":10748,"Ġhandful":10749,"Ġhandkerchief":10750,"Ġhandcuffed":10751,"inkled":10752,"Ġsidecar":10753,"Ġsidewal":10754,"Ġsnare":10755,"Ġsnugg":10756,"Ġsnok":10757,"lling":10758,"ormous":10759,"urely":10760,"Ġjacks":10761,"eeping":10762,"Ġskins":10763,"Ġskaters":10764,"Ġcabs":10765,"Ġcaged":10766,"Ġcausing":10767,"Ġjacketed":10768,"Ġworki":10769,"iances":10770,"Ġsnowed":10771,"Ġsnowdri":10772,"Ġwavy":10773,"Ġclue":10774,"Ġclips":10775,"Ġclicking":10776,"Ġclimate":10777,"Ġclipped":10778,"Ġclustered":10779,"Ġsou":10780,"Ġsox":10781,"Ġsock":10782,"Ġsown":10783,"Ġsoaring":10784,"Ġfailing":10785,"Ġfathers":10786,"Ġfasc":10787,"Ġfauna":10788,"Ġfaith":10789,"Ġfairly":10790,"Ġtablets":10791,"ems":10792,"orette":10793,"ppard":10794,"ppling":10795,"ppolo":10796,"Ġcamo":10797,"Ġcamer":10798,"Ġcamcor":10799,"Ġcrowding":10800,"ansive":10801,"Ġpinkie":10802,"Ġshorth":10803,"peoples":10804,"Ġbik":10805,"Ġbibs":10806,"Ġscree":10807,"Ġscare":10808,"Ġscares":10809,"Ġscout":10810,"Ġscope":10811,"Ġscrim":10812,"Ġscoring":10813,"Ġdrills":10814,"Ġwoody":10815,"Ġcloser":10816,"Ġcloaks":10817,"Ġbloody":10818,"Ġblooming":10819,"cery":10820,"ctions":10821,"Ġgott":10822,"Ġgondo":10823,"eating":10824,"dozens":10825,"Ġsunning":10826,"Ġheadline":10827,"Ġthatching":10828,"Ġsanda":10829,"Ġsanding":10830,"Ġsanded":10831,"Ġperch":10832,"Ġperuses":10833,"asure":10834,"istration":10835,"Ġholders":10836,"formers":10837,"pectac":10838,"Ġhairnets":10839,"Ġunh":10840,"Ġunits":10841,"Ġunpack":10842,"Ġunise":10843,"Ġuncom":10844,"Ġunsha":10845,"Ġunited":10846,"Ġunpaved":10847,"Ġunopened":10848,"Ġuntil":10849,"boarders":10850,"ishes":10851,"Ġshov":10852,"Ġshove":10853,"Ġaloha":10854,"Ġaloft":10855,"quis":10856,"quely":10857,"quarter":10858,"Ġarches":10859,"Ġarrest":10860,"Ġarche":10861,"Ġarrows":10862,"ires":10863,"irement":10864,"Ġhelm":10865,"Ġbric":10866,"Ġbrill":10867,"Ġbrunet":10868,"Ġcomic":10869,"Ġflora":10870,"Ġunderpants":10871,"Ġparc":10872,"Ġparading":10873,"Ġparallel":10874,"Ġsurv":10875,"Ġsurgeons":10876,"Ġpools":10877,"Ġpoolside":10878,"Ġtoyot":10879,"Ġcolonial":10880,"Ġfootpa":10881,"mpol":10882,"Ġbenching":10883,"Ġadvo":10884,"Ġadhd":10885,"Ġmouthed":10886,"Ġmouthguards":10887,"Ġwhine":10888,"Ġachi":10889,"Ġacts":10890,"Ġdarkly":10891,"Ġmountaine":10892,"Ġroads":10893,"Ġswingi":10894,"Ġheel":10895,"Ġboater":10896,"Ġmida":10897,"Ġmidd":10898,"Ġmidget":10899,"Ġmidriff":10900,"Ġfacebook":10901,"Ġencount":10902,"Ġenough":10903,"Ġenormous":10904,"Ġbartend":10905,"Ġbarista":10906,"shing":10907,"sheep":10908,"shackle":10909,"Ġrestara":10910,"Ġseed":10911,"Ġseren":10912,"Ġsews":10913,"Ġselect":10914,"Ġsexy":10915,"Ġsecured":10916,"Ġarmchair":10917,"Ġarmbands":10918,"Ġleav":10919,"Ġleaped":10920,"Ġsuites":10921,"Ġlila":10922,"Ġliking":10923,"Ġlives":10924,"Ġlikes":10925,"Ġliken":10926,"Ġsaid":10927,"Ġsaver":10928,"Ġsarong":10929,"skin":10930,"arees":10931,"Ġfootballers":10932,"igns":10933,"ignment":10934,"aching":10935,"Ġbalm":10936,"Ġbalck":10937,"Ġballoo":10938,"pery":10939,"Ġgrounded":10940,"merized":10941,"Ġroomful":10942,"Ġgaug":10943,"Ġgagnant":10944,"Ġpromin":10945,"Ġpromotion":10946,"singers":10947,"Ġsweating":10948,"Ġsweatband":10949,"umbers":10950,"Ġcomposed":10951,"Ġslum":10952,"Ġslick":10953,"Ġslipping":10954,"negro":10955,"Ġtehel":10956,"Ġbaseman":10957,"Ġdane":10958,"Ġfishnet":10959,"Ġcatchers":10960,"younger":10961,"youngsters":10962,"Ġsleek":10963,"Ġflank":10964,"Ġflung":10965,"Ġflights":10966,"Ġflutes":10967,"Ġveils":10968,"Ġexits":10969,"Ġexcer":10970,"Ġexpen":10971,"Ġexcers":10972,"Ġexchan":10973,"Ġexagg":10974,"Ġsignage":10975,"ushed":10976,"Ġmicrowa":10977,"iller":10978,"Ġobese":10979,"Ġobtain":10980,"Ġobstructed":10981,"Ġcough":10982,"john":10983,"joggers":10984,"Ġagent":10985,"Ġagony":10986,"wings":10987,"Ġfrancis":10988,"Ġmarx":10989,"Ġmary":10990,"Ġmarks":10991,"Ġmargar":10992,"Ġcanapes":10993,"Ġapparat":10994,"Ġreadings":10995,"Ġtried":10996,"Ġtrims":10997,"Ġtriangular":10998,"Ġtriumph":10999,"Ġpike":11000,"Ġpilots":11001,"Ġdecks":11002,"Ġdecre":11003,"Ġdevelo":11004,"Ġdeleon":11005,"Ġdebating":11006,"Ġtreating":11007,"Ġtreated":11008,"Ġtreasure":11009,"Ġnozzle":11010,"plets":11011,"Ġsheper":11012,"Ġsheppard":11013,"aurant":11014,"Ġarticles":11015,"Ġripe":11016,"Ġdripping":11017,"Ġdrifts":11018,"Ġdriftwo":11019,"ortun":11020,"Ġlakefront":11021,"Ġgrid":11022,"Ġforehe":11023,"Ġthroat":11024,"Ġthrong":11025,"Ġhighlights":11026,"Ġpathw":11027,"ials":11028,"Ġpartake":11029,"Ġparticular":11030,"Ġstepped":11031,"cap":11032,"cafe":11033,"cacy":11034,"Ġfireball":11035,"coated":11036,"Ġfeel":11037,"Ġfeild":11038,"Ġshared":11039,"Ġshaping":11040,"Ġinstrumen":11041,"Ġbowed":11042,"Ġbowties":11043,"Ġflaps":11044,"Ġflatt":11045,"Ġflamboy":11046,"Ġdisaster":11047,"Ġdisinterest":11048,"Ġdespite":11049,"Ġmeters":11050,"Ġpastor":11051,"Ġbooklets":11052,"Ġbookbags":11053,"Ġdoorbell":11054,"Ġmache":11055,"ios":11056,"Ġsubur":11057,"Ġsubject":11058,"Ġevaluating":11059,"Ġbricked":11060,"Ġamc":11061,"Ġamber":11062,"Ġamster":11063,"Ġsurfa":11064,"Ġsurfboa":11065,"Ġtranqu":11066,"player":11067,"weiser":11068,"Ġcostco":11069,"Ġpasser":11070,"ankment":11071,"Ġcellar":11072,"Ġboarder":11073,"Ġindigenous":11074,"Ġmending":11075,"Ġmelons":11076,"Ġcorrectly":11077,"icana":11078,"Ġcrews":11079,"Ġcreated":11080,"Ġcrests":11081,"Ġjoking":11082,"Ġjokes":11083,"Ġjoey":11084,"Ġjoule":11085,"Ġbeaming":11086,"Ġbeaker":11087,"Ġbearer":11088,"Ġcartons":11089,"decor":11090,"Ġalter":11091,"Ġalarm":11092,"Ġalien":11093,"Ġaltar":11094,"Ġalpine":11095,"grass":11096,"Ġsubways":11097,"izz":11098,"izers":11099,"izable":11100,"Ġplus":11101,"Ġpulpit":11102,"Ġturbu":11103,"Ġturbans":11104,"Ġturntable":11105,"Ġpray":11106,"Ġprays":11107,"Ġprayers":11108,"Ġcountries":11109,"Ġapr":11110,"Ġpointer":11111,"Ġpointy":11112,"Ġboxy":11113,"Ġdrummers":11114,"Ġdrumstick":11115,"Ġcrag":11116,"Ġcrack":11117,"Ġcramp":11118,"Ġcradle":11119,"Ġcracker":11120,"Ġcrayo":11121,"Ġdrab":11122,"Ġdraft":11123,"Ġdrapes":11124,"Ġdrafting":11125,"Ġdrapery":11126,"Ġfoal":11127,"Ġfourt":11128,"Ġfossils":11129,"corn":11130,"Ġwhats":11131,"Ġshorebre":11132,"graphers":11133,"Ġedged":11134,"Ġwrists":11135,"Ġcontently":11136,"Ġcontrolling":11137,"scuba":11138,"scantily":11139,"scient":11140,"onesian":11141,"Ġhitch":11142,"Ġfilm":11143,"Ġfille":11144,"Ġfilter":11145,"Ġpractition":11146,"Ġcurvy":11147,"Ġcurrents":11148,"Ġcuriously":11149,"Ġroofed":11150,"Ġviewers":11151,"Ġviewfinder":11152,"berg":11153,"Ġpaddy":11154,"Ġsui":11155,"Ġsucks":11156,"Ġsuccess":11157,"Ġblowers":11158,"Ġstrap":11159,"Ġstraitjack":11160,"Ġcheckpoint":11161,"past":11162,"Ġcourts":11163,"Ġwebs":11164,"Ġweights":11165,"Ġweimaraner":11166,"brand":11167,"Ġkissed":11168,"Ġcupcake":11169,"Ġcupcakes":11170,"Ġrefu":11171,"Ġrefuse":11172,"Ġrefinery":11173,"Ġsettings":11174,"Ġclassro":11175,"Ġwedded":11176,"Ġpatro":11177,"Ġinfo":11178,"Ġinflating":11179,"Ġgarba":11180,"Ġpicked":11181,"letic":11182,"Ġdistorted":11183,"Ġdistrib":11184,"Ġdistracted":11185,"Ġmartins":11186,"Ġbasketballs":11187,"Ġbirdcage":11188,"Ġfunky":11189,"Ġnaval":11190,"Ġnathal":11191,"Ġcigaret":11192,"mos":11193,"mothers":11194,"Ġwinks":11195,"Ġseawall":11196,"Ġcollide":11197,"Ġcollision":11198,"Ġcompetitive":11199,"Ġcementing":11200,"Ġcemented":11201,"Ġstuds":11202,"ttered":11203,"Ġaudien":11204,"Ġcheeri":11205,"Ġcheerfully":11206,"Ġbeautifully":11207,"border":11208,"Ġmonth":11209,"Ġmonarch":11210,"Ġtipped":11211,"Ġtibet":11212,"entertain":11213,"Ġscarfs":11214,"Ġinstrumentalists":11215,"Ġbang":11216,"Ġbanging":11217,"Ġbares":11218,"Ġhappiness":11219,"constructions":11220,"Ġempties":11221,"Ġemptying":11222,"zzi":11223,"zzling":11224,"Ġpainti":11225,"Ġintent":11226,"Ġearpiece":11227,"Ġearbuds":11228,"german":11229,"Ġserver":11230,"Ġseriously":11231,"Ġchim":11232,"Ġchief":11233,"Ġchihu":11234,"Ġcutouts":11235,"Ġputt":11236,"cuits":11237,"cuzzi":11238,"Ġrepel":11239,"Ġreptile":11240,"Ġreporter":11241,"Ġimitation":11242,"Ġburnt":11243,"Ġburners":11244,"Ġburqa":11245,"Ġnecktie":11246,"Ġcastanhas":11247,"Ġpotter":11248,"Ġsprawled":11249,"Ġ20":11250,"Ġ23":11251,"Ġ24":11252,"Ġ29":11253,"Ġmultit":11254,"Ġmultira":11255,"Ġsculpt":11256,"Ġships":11257,"Ġclaus":11258,"Ġcandl":11259,"Ġbatman":11260,"Ġbattery":11261,"Ġcirque":11262,"osol":11263,"Ġledges":11264,"Ġvideos":11265,"Ġgrowing":11266,"Ġshallows":11267,"Ġdirect":11268,"babs":11269,"Ġopportun":11270,"Ġdecorating":11271,"nesses":11272,"Ġwrapper":11273,"ension":11274,"Ġtimeout":11275,"Ġsilverware":11276,"acean":11277,"Ġtrashc":11278,"Ġpaddlers":11279,"Ġpresented":11280,"Ġpuller":11281,"Ġcrushing":11282,"Ġstoops":11283,"Ġscaffoldi":11284,"Ġscaffolds":11285,"Ġrepairman":11286,"foreign":11287,"Ġtunic":11288,"Ġretre":11289,"Ġretro":11290,"Ġretri":11291,"Ġretirement":11292,"Ġdale":11293,"Ġdawn":11294,"Ġdave":11295,"Ġdaffy":11296,"Ġdappled":11297,"Ġpew":11298,"Ġpecul":11299,"Ġpebbles":11300,"Ġpendant":11301,"Ġpostal":11302,"Ġpostcards":11303,"guests":11304,"Ġbrake":11305,"Ġbracing":11306,"Ġbraiding":11307,"Ġbravely":11308,"Ġchurning":11309,"Ġwatersp":11310,"Ġwaterskies":11311,"Ġvisual":11312,"Ġvisibility":11313,"Ġreflectors":11314,"Ġeleven":11315,"lence":11316,"Ġchoice":11317,"Ġproduction":11318,"Ġproducing":11319,"Ġobstac":11320,"Ġsuspic":11321,"Ġfighti":11322,"Ġlogos":11323,"Ġscreened":11324,"Ġpanes":11325,"Ġpanting":11326,"Ġenjoyment":11327,"Ġfalse":11328,"Ġtackler":11329,"Ġtunnels":11330,"Ġdeeply":11331,"Ġfences":11332,"Ġtransaction":11333,"Ġmedian":11334,"Ġmedals":11335,"Ġtroop":11336,"Ġstrung":11337,"Ġsnowboarders":11338,"Ġclearly":11339,"Ġsleds":11340,"Ġwalkways":11341,"Ġinflates":11342,"Ġdecked":11343,"Ġzi":11344,"Ġzuc":11345,"Ġzno":11346,"Ġzebra":11347,"Ġzigzag":11348,"Ġdemocra":11349,"Ġexposing":11350,"Ġexposure":11351,"Ġexpansive":11352,"Ġeagle":11353,"Ġwrestlers":11354,"Ġpenzance":11355,"Ġprince":11356,"Ġteachers":11357,"Ġdense":11358,"Ġsuspends":11359,"Ġ30":11360,"Ġ36":11361,"Ġ344":11362,"Ġangeles":11363,"Ġspend":11364,"Ġspecific":11365,"Ġbandannas":11366,"Ġinclude":11367,"Ġassorted":11368,"Ġassignment":11369,"Ġpeddle":11370,"Ġpedals":11371,"Ġhalo":11372,"angle":11373,"anges":11374,"angled":11375,"Ġjacuzzi":11376,"facing":11377,"faced":11378,"factory":11379,"Ġ14":11380,"Ġ19":11381,"Ġfiguring":11382,"Ġyoked":11383,"Ġpackaging":11384,"block":11385,"Ġhayride":11386,"Ġcleaners":11387,"broken":11388,"Ġmature":11389,"Ġrubbish":11390,"Ġsurfboarder":11391,"Ġmoments":11392,"strewn":11393,"Ġshoeing":11394,"gret":11395,"visitors":11396,"visibility":11397,"Ġsumm":11398,"Ġframing":11399,"Ġframes":11400,"Ġvase":11401,"Ġvaults":11402,"Ġvaulter":11403,"Ġapproxim":11404,"Ġbreads":11405,"Ġbreaded":11406,"Ġretrievers":11407,"Ġkeyboardist":11408,"Ġinspector":11409,"Ġbouquets":11410,"Ġcarpeting":11411,"cropped":11412,"Ġdished":11413,"Ġdishwash":11414,"Ġprotru":11415,"Ġespress":11416,"Ġescorted":11417,"Ġcrick":11418,"Ġcrime":11419,"Ġchristian":11420,"Ġsloth":11421,"Ġsloping":11422,"Ġpillowcase":11423,"Ġmopeds":11424,"Ġhurrying":11425,"Ġhurry":11426,"Ġhurried":11427,"Ġjugglers":11428,"Ġdemonstrate":11429,"curly":11430,"Ġminute":11431,"Ġminisk":11432,"Ġminimal":11433,"Ġdonation":11434,"Ġdonates":11435,"Ġembedded":11436,"Ġembankment":11437,"Ġfloatation":11438,"Ġtransportati":11439,"fireman":11440,"Ġshotgun":11441,"Ġsimple":11442,"Ġpowders":11443,"Ġfanning":11444,"athlete":11445,"athletes":11446,"athletic":11447,"Ġtwists":11448,"Ġtravelling":11449,"Ġcabins":11450,"Ġcelebrates":11451,"Ġhearing":11452,"Ġcampground":11453,"Ġappliance":11454,"Ġappliances":11455,"Ġdunks":11456,"Ġstaying":11457,"Ġbegun":11458,"Ġspaceman":11459,"Ġpreteens":11460,"Ġauto":11461,"Ġdiet":11462,"Ġfarmland":11463,"Ġentertained":11464,"Ġentertainment":11465,"wii":11466,"Ġpinstri":11467,"phernal":11468,"Ġhangout":11469,"Ġescaping":11470,"Ġpatching":11471,"Ġfoldout":11472,"Ġframework":11473,"Ġleafs":11474,"Ġponytails":11475,"Ġsupports":11476,"Ġmisses":11477,"Ġthoroughly":11478,"Ġlargo":11479,"Ġlargest":11480,"Ġchopped":11481,"Ġhandstands":11482,"Ġunicycles":11483,"Ġcurbside":11484,"Ġfarther":11485,"Ġfarming":11486,"Ġmounds":11487,"Ġpaddled":11488,"Ġrollerskate":11489,"Ġresur":11490,"Ġresults":11491,"Ġsparse":11492,"Ġsleepi":11493,"Ġdepot":11494,"Ġdeparting":11495,"Ġplanes":11496,"Ġplanet":11497,"Ġplanter":11498,"Ġbasset":11499,"Ġbassinet":11500,"Ġlampard":11501,"Ġgymnasti":11502,"blurry":11503,"blindfold":11504,"Ġaquatic":11505,"Ġblender":11506,"Ġpeeing":11507,"Ġgaming":11508,"Ġdesigner":11509,"Ġstrangely":11510,"Ġsadly":11511,"Ġglances":11512,"Ġglimp":11513,"Ġglittery":11514,"Ġdelight":11515,"Ġregular":11516,"Ġregalia":11517,"Ġregistration":11518,"Ġmainly":11519,"Ġcollaps":11520,"Ġcollabor":11521,"Ġexpressing":11522,"Ġexpresses":11523,"Ġconduct":11524,"Ġconducted":11525,"dappled":11526,"ship":11527,"Ġpheas":11528,"Ġphrase":11529,"Ġprotester":11530,"Ġmows":11531,"Ġflyers":11532,"Ġrelief":11533,"Ġrapid":11534,"Ġliquids":11535,"Ġlibrarian":11536,"dancing":11537,"ission":11538,"Ġdreads":11539,"Ġrussell":11540,"Ġorganize":11541,"Ġmouthing":11542,"Ġconsult":11543,"Ġconsulting":11544,"Ġconsumed":11545,"Ġconsumers":11546,"Ġscrubby":11547,"Ġcompanions":11548,"Ġjoyfully":11549,"Ġheartbeat":11550,"Ġdroney":11551,"Ġdrooling":11552,"Ġdroplets":11553,"Ġwildly":11554,"Ġcommuting":11555,"Ġcommuter":11556,"Ġtrophies":11557,"Ġtropicana":11558,"proof":11559,"Ġwondering":11560,"Ġpressing":11561,"Ġpressed":11562,"Ġgasps":11563,"Ġhuts":11564,"Ġhumor":11565,"Ġbeanbags":11566,"Ġhandlebar":11567,"Ġsneaker":11568,"Ġrainbows":11569,"Ġspotting":11570,"Ġinformal":11571,"Ġinformally":11572,"Ġsheltered":11573,"Ġbundt":11574,"Ġbundling":11575,"Ġarchae":11576,"Ġpowerpoint":11577,"Ġaisles":11578,"Ġpopular":11579,"Ġpopcorn":11580,"Ġadminist":11581,"Ġdiscs":11582,"Ġdiscount":11583,"Ġtrumpets":11584,"crazy":11585,"Ġwands":11586,"Ġwandering":11587,"Ġsilence":11588,"Ġgroucho":11589,"Ġeverybody":11590,"Ġforeheads":11591,"Ġknoll":11592,"Ġknocks":11593,"Ġknobs":11594,"Ġknotted":11595,"Ġcontestant":11596,"wheelers":11597,"Ġirons":11598,"bikes":11599,"cifix":11600,"Ġbellhop":11601,"Ġbellbott":11602,"Ġinnertu":11603,"Ġgeorge":11604,"Ġgenders":11605,"Ġfeature":11606,"Ġcollector":11607,"Ġbreakdancer":11608,"Ġfurnished":11609,"Ġsupervise":11610,"Ġ52":11611,"Ġsearches":11612,"Ġprimit":11613,"Ġcrudely":11614,"Ġcrucifix":11615,"Ġduke":11616,"Ġducking":11617,"Ġdueling":11618,"Ġstomp":11619,"Ġrisers":11620,"Ġapplebee":11621,"Ġbulldogs":11622,"muslim":11623,"pole":11624,"poor":11625,"poss":11626,"poses":11627,"villagers":11628,"Ġbronc":11629,"Ġscrap":11630,"Ġscrape":11631,"Ġscraper":11632,"Ġscrambling":11633,"Ġarranging":11634,"Ġtrimmer":11635,"Ġtrimmed":11636,"Ġflatbed":11637,"Ġlisteners":11638,"Ġtripods":11639,"Ġidentif":11640,"Ġcoolers":11641,"Ġfiles":11642,"Ġfiber":11643,"Ġlanyard":11644,"Ġlaboring":11645,"Ġclutching":11646,"Ġattended":11647,"Ġattendants":11648,"Ġcrashed":11649,"Ġcontrolled":11650,"passerby":11651,"passengers":11652,"Ġexploitation":11653,"about":11654,"females":11655,"handling":11656,"handled":11657,"Ġsyrup":11658,"Ġtortoise":11659,"Ġsteamy":11660,"utionary":11661,"Ġsnorkels":11662,"Ġadorn":11663,"Ġsections":11664,"Ġcraftzine":11665,"Ġseagul":11666,"Ġchisels":11667,"Ġcurtained":11668,"namic":11669,"Ġsalt":11670,"Ġcopy":11671,"Ġcopying":11672,"Ġmallets":11673,"Ġdjing":11674,"Ġbelonging":11675,"Ġconfetti":11676,"Ġconfiguring":11677,"Ġaquariums":11678,"Ġinnertubes":11679,"Ġmerchant":11680,"tailed":11681,"Ġillust":11682,"Ġslabs":11683,"Ġslatted":11684,"Ġslalom":11685,"Ġcalling":11686,"Ġtruth":11687,"Ġtrudging":11688,"Ġtickling":11689,"Ġgrip":11690,"Ġgrips":11691,"Ġgripping":11692,"Ġhooker":11693,"railroad":11694,"Ġantiqu":11695,"Ġgraduate":11696,"Ġneedles":11697,"Ġbriefs":11698,"Ġmarbled":11699,"Ġmexico":11700,"Ġbracelets":11701,"Ġsynthes":11702,"trampol":11703,"Ġblades":11704,"Ġblazing":11705,"Ġinstitute":11706,"Ġhydra":11707,"Ġdobermans":11708,"Ġrespirator":11709,"Ġlauncher":11710,"Ġlaunched":11711,"Ġkiosks":11712,"Ġbuffer":11713,"Ġconstruct":11714,"Ġsoundboard":11715,"Ġdecals":11716,"Ġdecides":11717,"Ġtreatment":11718,"Ġattacked":11719,"Ġshield":11720,"Ġcellos":11721,"bicyclist":11722,"casually":11723,"customer":11724,"Ġ802":11725,"Ġaerosol":11726,"Ġstyles":11727,"Ġcharades":11728,"Ġbuyer":11729,"Ġeasels":11730,"Ġavoids":11731,"Ġbonfire":11732,"Ġcubes":11733,"Ġgiggling":11734,"Ġgestic":11735,"Ġdads":11736,"Ġsteak":11737,"Ġethnicity":11738,"Ġethnicities":11739,"Ġkegs":11740,"Ġkebabs":11741,"Ġkeeper":11742,"Ġsweeter":11743,"Ġcontemplates":11744,"Ġcontemplation":11745,"Ġspaces":11746,"Ġjackhammers":11747,"Ġmarshy":11748,"Ġdrainage":11749,"Ġdrainpipe":11750,"motorcyclists":11751,"cowboys":11752,"fortable":11753,"Ġsomet":11754,"Ġdreams":11755,"Ġhungry":11756,"Ġhuskies":11757,"Ġmaneuvering":11758,"Ġrusting":11759,"Ġrusted":11760,"Ġelaborately":11761,"Ġlatter":11762,"Ġbuddist":11763,"Ġbuddha":11764,"Ġparaphernal":11765,"skiing":11766,"Ġwristbands":11767,"climbers":11768,"firefighter":11769,"Ġdepicts":11770,"Ġdepicted":11771,"Ġsaddled":11772,"Ġtechnical":11773,"snowy":11774,"tiered":11775,"Ġuw":11776,"Ġadobe":11777,"Ġadolescents":11778,"Ġsample":11779,"Ġsamura":11780,"Ġprancing":11781,"Ġcitroen":11782,"Ġgaloshes":11783,"choir":11784,"Ġhipsters":11785,"Ġfootprin":11786,"Ġacceler":11787,"Ġdefense":11788,"Ġclasped":11789,"Ġvideotaped":11790,"Ġilluminate":11791,"Ġinstructors":11792,"Ġpyram":11793,"Ġunwrap":11794,"Ġunwrapped":11795,"Ġenthusiast":11796,"Ġenthusiasts":11797,"fluffy":11798,"sailors":11799,"Ġthreatening":11800,"Ġfreight":11801,"Ġfreest":11802,"Ġfreak":11803,"Ġstitching":11804,"Ġgrasps":11805,"Ġunusually":11806,"Ġcomfortably":11807,"Ġsegment":11808,"Ġwindbreakers":11809,"Ġpropelled":11810,"Ġtextile":11811,"Ġelegantly":11812,"grocery":11813,"Ġverdant":11814,"Ġpearls":11815,"Ġcyclone":11816,"Ġmesmerized":11817,"Ġglares":11818,"Ġgenetic":11819,"Ġdamage":11820,"Ġfinley":11821,"Ġfinally":11822,"Ġworshiping":11823,"Ġmagenta":11824,"Ġlevels":11825,"Ġmoonwalk":11826,"Ġrabbits":11827,"Ġcomforts":11828,"Ġcomforting":11829,"Ġsecures":11830,"Ġprovide":11831,"Ġprovides":11832,"Ġobscuring":11833,"Ġflashlight":11834,"Ġplugs":11835,"Ġplucking":11836,"Ġofficials":11837,"Ġharvests":11838,"Ġtypewriters":11839,"Ġeastpak":11840,"Ġutensil":11841,"Ġsnorkeler":11842,"Ġcommunicates":11843,"swimming":11844,"pictures":11845,"pads":11846,"Ġsift":11847,"Ġsifter":11848,"Ġoxford":11849,"Ġbordered":11850,"Ġbumper":11851,"Ġpuckering":11852,"Ġcuddles":11853,"highway":11854,"Ġdetergent":11855,"Ġstormy":11856,"Ġdoubles":11857,"Ġlinking":11858,"Ġlinens":11859,"Ġanchored":11860,"umably":11861,"Ġcocktails":11862,"Ġcockpit":11863,"Ġemitting":11864,"Ġemph":11865,"Ġgraveled":11866,"Ġkittens":11867,"Ġconcentration":11868,"Ġarrival":11869,"Ġcaptivated":11870,"Ġshoulde":11871,"outdoors":11872,"Ġbookshelves":11873,"Ġvacant":11874,"Ġinterviewing":11875,"Ġresponders":11876,"grandmother":11877,"Ġautomobiles":11878,"Ġhistoric":11879,"iencing":11880,"mariachi":11881,"Ġqueue":11882,"Ġabstra":11883,"Ġabseiling":11884,"Ġaffair":11885,"Ġbattles":11886,"Ġporto":11887,"Ġpanties":11888,"Ġcounselor":11889,"Ġceme":11890,"Ġdentists":11891,"Ġdalmation":11892,"Ġsteadily":11893,"Ġreaction":11894,"Ġremaining":11895,"Ġremains":11896,"Ġrelease":11897,"Ġrecreation":11898,"Ġlimous":11899,"Ġantlers":11900,"Ġnationalities":11901,"Ġshuttle":11902,"Ġmajorette":11903,"Ġconsoles":11904,"Ġsnarls":11905,"Ġclergy":11906,"Ġuniquely":11907,"Ġbarricaded":11908,"Ġexperiencing":11909,"Ġexecutive":11910,"Ġdefend":11911,"Ġpolitics":11912,"Ġeyelid":11913,"Ġstraddles":11914,"Ġpreserves":11915,"Ġdinosaurs":11916,"Ġtrombonist":11917,"Ġzoom":11918,"Ġdemolition":11919,"Ġdemolished":11920,"Ġdemolishing":11921,"Ġpenguins":11922,"Ġspecialized":11923,"Ġ104":11924,"Ġfigurines":11925,"Ġphysically":11926,"profile":11927,"Ġsymbols":11928,"Ġenthusiastical":11929,"Ġtambourine":11930,"ahua":11931,"overhead":11932,"priest":11933,"walking":11934,"Ġquite":11935,"Ġidle":11936,"Ġsanitation":11937,"Ġoreo":11938,"Ġpleasant":11939,"Ġpuzzled":11940,"Ġmiles":11941,"Ġmiami":11942,"Ġfiddles":11943,"Ġstems":11944,"Ġnibbling":11945,"Ġeggpl":11946,"Ġsmirking":11947,"Ġsmirks":11948,"Ġpapasan":11949,"Ġbudweiser":11950,"Ġmasterpiece":11951,"Ġleisurely":11952,"Ġramshackle":11953,"Ġunderside":11954,"Ġbrandishing":11955,"Ġkickboxer":11956,"Ġdiscovers":11957,"Ġjoggers":11958,"Ġsquatted":11959,"Ġnavigating":11960,"Ġrepresenting":11961,"Ġrepresentative":11962,"Ġconditioner":11963,"Ġmeasurement":11964,"Ġgrimaces":11965,"Ġseparating":11966,"Ġarabian":11967,"Ġrenovations":11968,"Ġipods":11969,"beater":11970,"circle":11971,"cimer":11972,"dirty":11973,"picker":11974,"Ġetching":11975,"Ġwitnesses":11976,"Ġsinking":11977,"Ġsinks":11978,"Ġsampling":11979,"Ġbindi":11980,"Ġbinders":11981,"Ġgyro":11982,"Ġdivider":11983,"Ġdivided":11984,"Ġfuture":11985,"Ġflinging":11986,"Ġhenry":11987,"Ġheated":11988,"Ġhuddling":11989,"Ġdocum":11990,"Ġdocument":11991,"Ġmoutain":11992,"Ġsplitting":11993,"Ġblossoms":11994,"Ġblossoming":11995,"Ġwhacking":11996,"Ġenergy":11997,"Ġsalesman":11998,"Ġcanada":11999,"Ġweighing":12000,"Ġweighed":12001,"Ġvolunteers":12002,"Ġharvested":12003,"Ġstranger":12004,"Ġprofessionally":12005,"Ġsiblings":12006,"Ġsupervising":12007,"Ġsupervised":12008,"ologist":12009,"Ġvocalist":12010,"Ġconcentrates":12011,"Ġdalmatian":12012,"Ġurinal":12013,"Ġurinating":12014,"Ġaccepting":12015,"Ġvietnamese":12016,"farmers":12017,"preteen":12018,"puppy":12019,"puppeteer":12020,"particip":12021,"senior":12022,"zaga":12023,"Ġivy":12024,"Ġberries":12025,"Ġmelts":12026,"Ġmulch":12027,"Ġstorage":12028,"Ġstylist":12029,"Ġstylish":12030,"Ġtonka":12031,"Ġwhispering":12032,"Ġyankee":12033,"Ġyankees":12034,"Ġlicked":12035,"Ġjourney":12036,"Ġjournal":12037,"styled":12038,"Ġnestled":12039,"Ġfrolicks":12040,"Ġfrolicking":12041,"Ġbeech":12042,"Ġswirling":12043,"Ġbubbl":12044,"Ġmacbook":12045,"Ġlessons":12046,"Ġversion":12047,"Ġconcession":12048,"Ġcascading":12049,"Ġcascades":12050,"Ġsousaphone":12051,"Ġscientist":12052,"Ġscientists":12053,"Ġofferings":12054,"Ġpicnicking":12055,"Ġrestrained":12056,"Ġsaucer":12057,"Ġbicyclers":12058,"Ġapprehe":12059,"Ġnovelty":12060,"Ġgranite":12061,"Ġcontinue":12062,"Ġcontinues":12063,"Ġrefrigerated":12064,"Ġrefrigerator":12065,"Ġservices":12066,"Ġqualified":12067,"Ġfestivities":12068,"completed":12069,"Ġembroidering":12070,"Ġembroidered":12071,"Ġmissionary":12072,"Ġutilizes":12073,"Ġunfolds":12074,"Ġunfolded":12075,"Ġbreastfeed":12076,"Ġbreastfeeding":12077,"Ġcylinders":12078,"Ġcylindrical":12079,"Ġarchitectural":12080,"Ġreleased":12081,"newlyweds":12082,"Ġexperiment":12083,"Ġlonghaired":12084,"Ġmagnifying":12085,"Ġmagnifier":12086,"busy":12087,"furniture":12088,"juggler":12089,"officials":12090,"president":12091,"zona":12092,"Ġignoring":12093,"Ġuggs":12094,"Ġarizona":12095,"Ġsophistic":12096,"Ġbillowing":12097,"Ġinsect":12098,"Ġcaterer":12099,"Ġcucumber":12100,"Ġminding":12101,"Ġmormon":12102,"hispanic":12103,"Ġthermos":12104,"Ġthighs":12105,"Ġthousands":12106,"Ġgonzaga":12107,"Ġdandelions":12108,"Ġhomes":12109,"Ġmanipulating":12110,"Ġsteered":12111,"Ġyachts":12112,"Ġreplaced":12113,"Ġrespective":12114,"Ġrevolutionary":12115,"Ġlunging":12116,"Ġhippie":12117,"Ġrinsing":12118,"Ġruffled":12119,"Ġannouncement":12120,"Ġnormal":12121,"Ġeffort":12122,"Ġkennel":12123,"Ġpaveme":12124,"Ġchemicals":12125,"Ġvinci":12126,"Ġvulture":12127,"Ġconifer":12128,"Ġsprinting":12129,"Ġcactus":12130,"Ġcaulking":12131,"Ġsoleil":12132,"Ġsource":12133,"Ġfaucet":12134,"Ġscanning":12135,"Ġgoggl":12136,"Ġparaglider":12137,"Ġhealth":12138,"Ġencircling":12139,"Ġsequence":12140,"Ġprocedure":12141,"Ġslushy":12142,"Ġmarlins":12143,"Ġtrekking":12144,"Ġnodding":12145,"Ġcoworker":12146,"Ġdispensers":12147,"Ġindicates":12148,"Ġmeandering":12149,"defensive":12150,"Ġaliens":12151,"Ġallowed":12152,"concert":12153,"Ġdramatic":12154,"Ġwrangling":12155,"Ġwetsuits":12156,"Ġanimatedly":12157,"Ġcheckerboard":12158,"Ġseashells":12159,"Ġburrowing":12160,"Ġspecimen":12161,"Ġpedicure":12162,"Ġappropriate":12163,"Ġescorting":12164,"Ġinterrupted":12165,"Ġcrustacean":12166,"Ġunfolding":12167,"trashy":12168,"photographers":12169,"Ġsnowmobiling":12170,"Ġpruning":12171,"Ġimprovements":12172,"Ġimprovised":12173,"Ġtemporary":12174,"Ġpistol":12175,"Ġreenactment":12176,"competitive":12177,"cameraman":12178,"extreme":12179,"Ġauthority":12180,"Ġaustralian":12181,"Ġgadgets":12182,"Ġmetropolitan":12183,"appear":12184,"bubbles":12185,"buddhist":12186,"demonstr":12187,"figure":12188,"fourteen":12189,"homeless":12190,"oeuvres":12191,"slightly":12192,"tiger":12193,"window":12194,"âĢĻ":12195,"Ġ0095":12196,"Ġaustere":12197,"Ġavenue":12198,"Ġwrecked":12199,"Ġwaders":12200,"Ġwembley":12201,"Ġsbarro":12202,"Ġohio":12203,"Ġbleecker":12204,"rescue":12205,"reflections":12206,"Ġinspiration":12207,"Ġincomplete":12208,"Ġplenty":12209,"Ġcultivated":12210,"Ġmoored":12211,"Ġthrust":12212,"Ġthought":12213,"league":12214,"Ġtandem":12215,"Ġtilting":12216,"Ġtinker":12217,"Ġtudor":12218,"Ġtorso":12219,"Ġtheatrical":12220,"Ġgorilla":12221,"Ġgiants":12222,"Ġgleefully":12223,"Ġgeyser":12224,"Ġghetto":12225,"Ġdulcimer":12226,"Ġdungarees":12227,"Ġisraeli":12228,"Ġislamic":12229,"Ġmandolin":12230,"church":12231,"christmas":12232,"Ġyoutube":12233,"Ġatrium":12234,"Ġrental":12235,"Ġreindeer":12236,"Ġreceding":12237,"Ġresembles":12238,"Ġrickety":12239,"Ġjamming":12240,"Ġnumeral":12241,"Ġnutcracker":12242,"eastern":12243,"Ġbazaar":12244,"Ġshrimp":12245,"Ġshiney":12246,"Ġeclectic":12247,"Ġlagoon":12248,"Ġkahki":12249,"Ġashore":12250,"Ġpagoda":12251,"Ġpakistan":12252,"Ġchoreograph":12253,"Ġchelsea":12254,"Ġbroccoli":12255,"Ġcarabiner":12256,"Ġmottled":12257,"Ġvessel":12258,"Ġcongratulate":12259,"Ġsponges":12260,"Ġspheres":12261,"Ġsidewalks":12262,"Ġsnokel":12263,"Ġsnowdrift":12264,"Ġfascinated":12265,"Ġcamcorder":12266,"Ġgotten":12267,"Ġgondola":12268,"pectacled":12269,"Ġunisex":12270,"Ġuncomfortable":12271,"Ġunshaven":12272,"quarterback":12273,"Ġarcheologist":12274,"Ġbrilliant":12275,"Ġtoyota":12276,"Ġfootpath":12277,"Ġadvocacy":12278,"Ġencounter":12279,"Ġbartender":12280,"Ġrestaraunt":12281,"Ġlikeness":12282,"Ġgauges":12283,"Ġpromotional":12284,"Ġtehelka":12285,"Ġexpensive":12286,"Ġexchanging":12287,"Ġexaggerated":12288,"Ġmicrowave":12289,"Ġfrancisco":12290,"Ġmargarita":12291,"Ġapparatus":12292,"Ġdecrepit":12293,"Ġdriftwood":12294,"Ġdisinterested":12295,"Ġamsterdam":12296,"decorated":12297,"Ġturbulent":12298,"Ġcrayola":12299,"Ġfourteen":12300,"Ġshorebreak":12301,"scientists":12302,"Ġstraitjacket":12303,"Ġwebsite":12304,"Ġnathalie":12305,"Ġtibetan":12306,"Ġchihuahua":12307,"Ġmultiracial":12308,"Ġpeculiar":12309,"Ġsuspiciously":12310,"Ġznocob":12311,"Ġdemocracy":12312,"Ġ3443":12313,"Ġapproximately":12314,"Ġespresso":12315,"Ġpinstripe":12316,"blindfolded":12317,"Ġglimpse":12318,"Ġpheasant":12319,"Ġarchaeological":12320,"Ġbellbottoms":12321,"Ġprimitive":12322,"Ġsynthesizer":12323,"Ġ8026":12324,"Ġparaphernalia":12325,"Ġsamurai":12326,"Ġabstract":12327,"Ġsophisticated":12328}